<unk>	0
<s>	0
</s>	0
.	-2.75654
▁the	-2.93177
,	-2.96077
▁of	-3.50504
▁to	-3.86803
▁and	-4.16784
▁in	-4.28149
▁a	-4.33072
▁that	-4.35951
s	-4.63386
▁for	-4.93596
▁is	-4.94746
▁was	-4.96788
’	-5.05488
d	-5.10749
▁not	-5.18362
▁by	-5.18604
▁The	-5.24676
▁be	-5.25667
▁on	-5.26496
▁as	-5.36062
▁v	-5.36187
-	-5.41612
▁“	-5.41952
▁or	-5.42979
.2	-5.56575
▁this	-5.58824
▁U	-5.62018
ing	-5.62337
S	-5.62955
▁at	-5.63074
▁it	-5.66133
▁with	-5.67326
▁which	-5.68517
▁an	-5.70203
▁F	-5.73025
▁.	-5.79107
▁court	-5.80536
▁S	-5.83016
▁his	-5.90285
▁(	-5.90656
▁from	-5.96684
▁United	-5.99558
▁had	-6.02105
▁States	-6.0215
▁have	-6.03291
▁he	-6.04586
;	-6.09797
▁	-6.11011
▁were	-6.14493
)	-6.15684
▁Court	-6.16207
”	-6.17609
▁are	-6.17747
▁L	-6.22222
▁would	-6.23929
Ct	-6.25819
▁its	-6.26993
▁any	-6.27515
▁been	-6.29748
▁In	-6.3112
▁§	-6.31353
▁we	-6.32289
▁case	-6.3303
▁no	-6.33376
C	-6.35353
▁under	-6.35698
▁has	-6.37882
▁such	-6.3847
ly	-6.40098
▁Cir	-6.40772
:	-6.41598
.”	-6.41775
Ed	-6.44738
▁trial	-6.5187
▁defendant	-6.62085
▁evidence	-6.62738
ed	-6.62933
▁other	-6.69532
▁We	-6.71949
▁I	-6.72219
▁may	-6.73513
▁but	-6.74361
th	-6.74889
▁A	-6.78896
▁one	-6.78932
▁District	-6.80061
▁if	-6.8094
▁their	-6.81729
▁there	-6.8224
▁all	-6.82667
▁Act	-6.83558
▁district	-6.87336
▁Circuit	-6.88478
▁only	-6.88593
a	-6.90752
▁also	-6.90976
▁time	-6.91592
▁did	-6.9291
▁made	-6.94107
▁state	-6.94478
▁order	-6.94683
▁See	-6.95157
▁they	-6.95388
▁who	-6.96999
▁Judge	-6.97368
▁upon	-6.97417
▁Board	-6.97782
▁It	-6.99059
▁appellant	-6.99429
▁whether	-6.99693
▁law	-7.00407
D	-7.01133
▁C	-7.02675
▁action	-7.03306
▁will	-7.05121
▁Co	-7.06379
▁these	-7.07061
▁*	-7.07979
▁jury	-7.08618
▁should	-7.09273
▁before	-7.09447
▁could	-7.11298
e	-7.11544
▁No	-7.11648
▁against	-7.13145
▁This	-7.13275
▁supra	-7.13788
▁when	-7.13918
▁must	-7.13921
▁because	-7.14885
▁than	-7.14971
▁so	-7.16286
▁him	-7.18784
▁issue	-7.21171
]	-7.21671
▁right	-7.22795
▁question	-7.24498
▁fact	-7.25772
▁two	-7.25992
▁appeal	-7.26577
▁denied	-7.27974
▁plaintiff	-7.28062
▁after	-7.29189
▁do	-7.29725
▁counsel	-7.30387
▁judgment	-7.30995
▁where	-7.31521
▁record	-7.33059
),	-7.33822
▁opinion	-7.34335
▁&	-7.36151
▁does	-7.36678
▁shall	-7.37936
▁decision	-7.38464
▁more	-7.39105
▁—	-7.39988
▁without	-7.40759
▁[	-7.41513
▁As	-7.41818
▁found	-7.42209
▁held	-7.42695
▁On	-7.43911
▁federal	-7.44112
▁claim	-7.45008
▁within	-7.45062
▁hearing	-7.46198
R	-7.46628
▁J	-7.47243
▁testimony	-7.47514
▁here	-7.47605
▁N	-7.47749
▁D	-7.4876
▁part	-7.4912
▁out	-7.49666
▁some	-7.50603
A	-7.53705
b	-7.53849
▁same	-7.53934
t	-7.54094
▁statute	-7.55263
▁first	-7.56303
▁into	-7.56745
▁our	-7.58233
▁use	-7.58787
▁said	-7.58796
▁cases	-7.59196
▁those	-7.59962
▁prior	-7.60642
▁them	-7.60725
▁Inc	-7.61511
▁Government	-7.61843
▁defendants	-7.61941
▁then	-7.62429
▁motion	-7.62574
▁filed	-7.62712
▁present	-7.6335
▁can	-7.64448
▁Commission	-7.65547
▁He	-7.65615
▁however	-7.65862
▁Company	-7.65936
▁stated	-7.65999
▁employees	-7.66038
).	-7.6621
▁judge	-7.66725
▁what	-7.66816
▁New	-7.6685
▁1973.	-7.67283
▁between	-7.6846
▁public	-7.69915
▁government	-7.70155
▁required	-7.70787
▁rights	-7.71074
y	-7.71457
▁State	-7.72216
▁Section	-7.73159
▁both	-7.73517
▁facts	-7.73605
▁further	-7.73613
▁jurisdiction	-7.73646
▁rule	-7.73713
▁her	-7.74666
▁review	-7.75146
▁interest	-7.75769
▁basis	-7.77171
▁R	-7.77615
Supp	-7.77855
▁even	-7.78742
▁Supreme	-7.79661
▁support	-7.80091
▁over	-7.80892
r	-7.81433
▁Atty	-7.81615
▁relief	-7.82302
▁circumstances	-7.82353
▁might	-7.82389
c	-7.82719
▁you	-7.82744
▁about	-7.82951
▁since	-7.82989
▁matter	-7.83071
▁make	-7.83253
▁cannot	-7.8361
▁Federal	-7.8564
▁each	-7.86176
▁complaint	-7.86198
st	-7.8648
▁person	-7.86614
▁cause	-7.86676
▁find	-7.86779
▁application	-7.87565
▁business	-7.88159
▁violation	-7.88763
App	-7.89784
▁Appeals	-7.89817
▁contract	-7.89841
▁being	-7.90239
▁Congress	-7.91214
▁cert	-7.91233
▁P	-7.91254
▁Appellant	-7.91757
▁E	-7.91835
▁2	-7.92404
▁us	-7.92532
al	-7.92591
▁purpose	-7.93595
▁used	-7.94327
▁plaintiffs	-7.94428
▁effect	-7.9462
▁property	-7.94697
▁see	-7.94784
▁new	-7.95204
▁given	-7.95786
▁There	-7.9588
▁parties	-7.96177
▁years	-7.96755
▁statement	-7.96812
▁reasonable	-7.97384
▁well	-7.98188
▁alleged	-7.98488
▁brief	-7.98551
▁three	-7.99093
▁M	-8.00257
▁defense	-8.01439
▁policy	-8.01459
▁necessary	-8.01571
▁courts	-8.01584
▁appellants	-8.01875
▁subject	-8.01923
▁set	-8.02206
▁Mr	-8.02665
▁date	-8.03098
▁based	-8.03165
▁argument	-8.03349
▁sufficient	-8.03364
▁during	-8.03575
▁clear	-8.03914
the	-8.04063
▁York	-8.04648
▁5	-8.04872
▁City	-8.05005
▁H	-8.05448
▁constitutional	-8.05939
▁view	-8.06014
▁claims	-8.06313
▁Before	-8.0639
▁amount	-8.06723
▁note	-8.06972
▁May	-8.07117
▁agreement	-8.07303
▁section	-8.07643
▁charge	-8.07681
▁result	-8.07698
▁finding	-8.07751
▁witness	-8.08152
n	-8.08364
▁own	-8.08444
▁through	-8.08609
▁general	-8.08663
▁period	-8.08756
L	-8.09716
▁proceedings	-8.09731
▁‘	-8.09969
▁18	-8.10157
▁B	-8.10237
▁company	-8.10655
▁course	-8.10826
▁March	-8.10891
▁therefore	-8.12395
▁authority	-8.1309
▁failure	-8.13091
▁If	-8.13175
▁testified	-8.13679
▁W	-8.13772
▁respect	-8.14219
▁granted	-8.14585
▁either	-8.15831
▁April	-8.15832
▁petition	-8.16166
▁considered	-8.16169
▁information	-8.16639
▁she	-8.1689
▁Union	-8.16927
▁involved	-8.17383
▁Rule	-8.17794
▁taken	-8.1805
▁T	-8.18178
▁determination	-8.1854
▁criminal	-8.18757
▁damages	-8.1924
▁following	-8.19358
▁1	-8.19373
,”	-8.1939
▁board	-8.19936
▁28	-8.20273
▁But	-8.2045
▁conduct	-8.20635
▁92	-8.20816
▁discretion	-8.2089
▁(2	-8.20985
▁certain	-8.2189
▁regard	-8.2192
▁construction	-8.22315
▁now	-8.22464
▁due	-8.22498
▁General	-8.22534
▁conviction	-8.22637
▁process	-8.2307
▁until	-8.23087
▁work	-8.23267
▁second	-8.23477
▁non	-8.2446
▁At	-8.24678
▁Judges	-8.25079
▁1972	-8.2566
▁error	-8.25948
▁substantial	-8.25956
▁report	-8.261
▁sentence	-8.26425
▁entitled	-8.26558
▁received	-8.2663
▁Washington	-8.26789
▁majority	-8.26791
▁need	-8.26891
▁union	-8.27045
▁suit	-8.27143
▁presented	-8.27307
▁provisions	-8.27391
▁point	-8.27589
▁1971,	-8.27649
▁notice	-8.28061
▁while	-8.28831
▁party	-8.29353
▁reason	-8.2984
▁issues	-8.29888
▁provided	-8.29993
▁local	-8.30313
▁Amendment	-8.30499
▁That	-8.30641
E	-8.30736
▁year	-8.30847
▁However	-8.30914
▁1,	-8.312
▁provides	-8.31681
▁attorney	-8.31922
▁91	-8.3193
▁appellee	-8.32298
'	-8.32313
The	-8.32512
▁June	-8.329
▁nor	-8.3308
▁another	-8.33199
▁school	-8.33511
▁position	-8.3395
▁patent	-8.34058
▁power	-8.34094
P	-8.34182
▁conclusion	-8.34221
▁charged	-8.34403
▁sought	-8.34484
▁statutory	-8.35071
▁appropriate	-8.35182
▁clearly	-8.35739
▁holding	-8.36653
▁Corp	-8.36812
▁available	-8.36846
▁intent	-8.37127
▁al	-8.37214
▁persons	-8.37399
▁National	-8.3744
▁Defendant	-8.37673
▁search	-8.37744
▁way	-8.38059
▁service	-8.38114
▁believe	-8.38278
▁tax	-8.38328
▁reasons	-8.38487
▁most	-8.38563
▁employee	-8.38595
▁indictment	-8.38734
▁failed	-8.38817
▁et	-8.39075
▁proper	-8.39394
▁think	-8.39801
▁individual	-8.40274
▁Secretary	-8.40325
▁Justice	-8.40407
in	-8.40717
▁duty	-8.40789
▁entered	-8.40837
▁e	-8.40905
▁request	-8.40925
▁hold	-8.41051
▁police	-8.41088
▁Although	-8.41104
▁material	-8.41251
▁practice	-8.41859
▁Thus	-8.42037
▁act	-8.4211
▁consideration	-8.42171
▁determine	-8.42184
▁(1)	-8.4244
▁having	-8.42665
▁thus	-8.42821
▁pursuant	-8.42824
▁purposes	-8.43143
▁pay	-8.43419
▁take	-8.43741
▁standard	-8.43765
▁For	-8.43911
▁rather	-8.43936
▁particular	-8.44238
▁warrant	-8.44383
▁prosecution	-8.44411
▁regulations	-8.44873
▁control	-8.44894
▁G	-8.44977
(	-8.45374
W	-8.45479
▁proof	-8.45537
▁consider	-8.45844
▁properly	-8.46046
Y	-8.46205
▁guilty	-8.46214
▁proceeding	-8.4632
▁issued	-8.46514
▁(2)	-8.46631
▁above	-8.47184
▁90	-8.48141
?	-8.4824
▁Department	-8.48347
▁up	-8.48537
▁agree	-8.48716
▁arrest	-8.48753
▁require	-8.48785
▁established	-8.48822
▁labor	-8.48852
▁injunction	-8.48896
▁judicial	-8.49202
▁different	-8.49694
▁place	-8.49791
▁show	-8.49891
▁10	-8.50066
▁opportunity	-8.50544
▁liability	-8.50544
▁good	-8.50608
▁class	-8.50613
▁officers	-8.50871
▁brought	-8.50885
▁exercise	-8.50981
▁questions	-8.51056
▁First	-8.51059
▁terms	-8.51293
▁plan	-8.51332
▁full	-8.51362
▁establish	-8.51599
▁statements	-8.51696
▁value	-8.51698
▁Decid	-8.5192
▁employment	-8.52448
▁day	-8.52565
▁area	-8.52683
▁including	-8.52812
▁While	-8.52969
▁Chief	-8.53319
able	-8.53599
▁test	-8.53992
▁provision	-8.54113
▁provide	-8.54219
▁later	-8.54237
er	-8.54481
▁light	-8.54523
▁administrative	-8.54553
▁un	-8.54787
▁3	-8.54818
▁witnesses	-8.54926
▁specific	-8.55249
▁nature	-8.55265
▁contention	-8.55371
▁g	-8.55426
▁standards	-8.55457
▁American	-8.56131
▁petitioner	-8.56313
B	-8.56327
▁least	-8.56344
▁form	-8.56667
▁Title	-8.5671
▁corporation	-8.56827
▁say	-8.56834
▁legal	-8.56909
▁ground	-8.57055
▁July	-8.5726
▁John	-8.5779
▁Commissioner	-8.578
▁system	-8.58116
▁sale	-8.58136
▁members	-8.58333
▁Attorney	-8.58663
▁Service	-8.58868
▁knowledge	-8.58898
▁several	-8.58934
▁To	-8.59006
▁agency	-8.59102
▁limited	-8.59318
▁1970,	-8.59435
▁itself	-8.60038
▁(9	-8.60334
▁number	-8.60569
▁offense	-8.60763
▁permit	-8.60949
▁1968	-8.60958
▁Since	-8.60979
▁cross	-8.61039
▁(5	-8.61079
▁per	-8.61318
▁4	-8.61416
▁language	-8.61545
▁findings	-8.61688
▁requirement	-8.61727
▁days	-8.61843
▁n	-8.62046
▁employer	-8.62117
▁possible	-8.62311
▁paid	-8.62321
N	-8.6233
▁January	-8.62508
▁summary	-8.627
▁p	-8.62706
I	-8.6345
▁otherwise	-8.63478
▁applicable	-8.63681
▁Dr	-8.63858
▁four	-8.64149
▁42	-8.64215
▁Plaintiff	-8.64467
▁determined	-8.6462
▁15	-8.64946
▁officer	-8.65093
▁After	-8.65238
▁stock	-8.65434
▁intended	-8.65649
▁sole	-8.65654
▁agent	-8.66263
▁regulation	-8.66264
▁7	-8.66346
▁America	-8.664
▁showing	-8.66654
▁five	-8.66655
▁letter	-8.66867
▁award	-8.66871
▁similar	-8.67058
▁concerning	-8.67196
▁told	-8.67648
▁denial	-8.67663
▁applied	-8.67855
▁final	-8.67877
▁give	-8.68075
▁re	-8.68214
▁raised	-8.68261
▁Mrs	-8.68284
▁private	-8.68902
▁Columbia	-8.69066
▁proposed	-8.69091
to	-8.69109
▁mere	-8.69307
▁common	-8.69526
▁relevant	-8.69685
▁affirmed	-8.69782
▁grant	-8.70286
▁follows	-8.703
▁although	-8.70314
▁II	-8.70421
▁grounds	-8.7058
▁states	-8.70907
▁“[	-8.7097
▁situation	-8.71012
▁unless	-8.71164
▁89	-8.71191
▁whom	-8.71205
▁laws	-8.71236
▁Local	-8.71567
▁requirements	-8.71578
▁Administrator	-8.72198
▁less	-8.72638
▁services	-8.72926
▁never	-8.73266
▁insurance	-8.73271
▁direct	-8.73293
▁88	-8.73311
▁verdict	-8.73579
▁though	-8.73641
▁protection	-8.73999
▁office	-8.74192
▁conclude	-8.74276
▁December	-8.74564
▁procedure	-8.74896
▁very	-8.75235
▁effective	-8.75288
f	-8.75405
▁money	-8.75433
F	-8.75473
▁They	-8.75603
▁apply	-8.75733
▁(7	-8.7583
▁preliminary	-8.75871
▁October	-8.75876
▁These	-8.75895
▁special	-8.75971
▁1965	-8.76072
▁funds	-8.76126
▁additional	-8.76183
▁burden	-8.76259
▁indicated	-8.76443
▁means	-8.76462
▁term	-8.76463
h	-8.76733
▁When	-8.7675
▁my	-8.76787
▁remand	-8.76919
▁concluded	-8.7693
▁;	-8.76974
▁requires	-8.77372
▁26	-8.77656
▁argues	-8.7769
▁examination	-8.77936
▁below	-8.78123
▁Under	-8.78123
▁30	-8.78144
▁dismissed	-8.78222
▁November	-8.78547
▁conditions	-8.78778
▁§§	-8.7879
▁appears	-8.78808
▁personal	-8.78921
▁actions	-8.7893
▁noted	-8.78995
▁long	-8.7921
ary	-8.79241
▁acts	-8.79492
▁extent	-8.79682
▁lack	-8.79945
▁And	-8.80128
▁(3	-8.80188
▁added	-8.80221
▁charges	-8.80302
▁ordered	-8.80533
▁negligence	-8.80833
▁doubt	-8.80854
▁Gen	-8.80886
i	-8.81121
▁9	-8.81395
▁appear	-8.81446
▁dismiss	-8.81591
▁(8	-8.8174
▁Labor	-8.81758
▁absence	-8.81761
▁fair	-8.81836
);	-8.82001
▁6	-8.82236
▁O	-8.82283
▁procedures	-8.82333
▁Counsel	-8.82464
▁status	-8.82702
▁addition	-8.82852
▁29	-8.83479
▁back	-8.83601
▁generally	-8.83755
▁contends	-8.83925
▁making	-8.83943
▁called	-8.84482
▁condition	-8.84764
▁Argue	-8.85034
▁subsequent	-8.85161
▁bargaining	-8.85452
▁requested	-8.85531
▁August	-8.85811
▁land	-8.85827
▁Id	-8.85853
▁discrimination	-8.86056
▁possession	-8.8606
▁original	-8.86141
▁decisions	-8.86146
▁William	-8.86304
▁election	-8.86306
▁agents	-8.86503
▁enforcement	-8.86789
▁decided	-8.8703
▁County	-8.87064
▁constitute	-8.8722
▁determining	-8.87277
▁every	-8.87794
▁many	-8.87808
▁8(	-8.88045
▁operation	-8.88057
▁James	-8.88275
▁refused	-8.88725
▁THE	-8.88768
▁except	-8.88885
▁benefits	-8.89099
▁others	-8.89419
on	-8.89445
▁beyond	-8.89527
▁nothing	-8.89563
▁remanded	-8.89672
▁amendment	-8.89816
▁Smith	-8.90029
▁estate	-8.90031
▁program	-8.90072
▁children	-8.90282
▁specifically	-8.90287
▁just	-8.90305
▁pre	-8.90394
▁St	-8.90523
▁conspiracy	-8.90538
▁contrary	-8.90791
▁merits	-8.90823
▁Ohio	-8.91059
▁International	-8.91563
▁himself	-8.9182
▁clause	-8.91874
▁(3)	-8.92118
▁asked	-8.92133
▁Director	-8.92379
▁committed	-8.926
▁prove	-8.92744
o	-8.92889
▁imposed	-8.93053
▁again	-8.93079
▁separate	-8.93133
▁months	-8.93218
▁February	-8.93383
▁probable	-8.93384
▁recognized	-8.93427
▁unfair	-8.93637
▁Committee	-8.93642
▁change	-8.9365
▁crime	-8.93722
▁forth	-8.93728
▁various	-8.9375
▁faith	-8.93912
▁rules	-8.93963
▁Law	-8.9402
▁authorized	-8.94336
▁shown	-8.94481
▁87	-8.94528
▁answer	-8.94552
▁instant	-8.94697
▁file	-8.94715
▁Moreover	-8.9497
▁pending	-8.94971
▁price	-8.95058
▁20	-8.95088
▁purchase	-8.95215
▁factual	-8.95336
▁NLRB	-8.955
▁payment	-8.95613
▁described	-8.95648
▁UNITED	-8.95765
▁legislative	-8.95772
▁21	-8.95854
▁manner	-8.96037
▁Cong	-8.96049
an	-8.96207
se	-8.96299
▁true	-8.96304
▁93	-8.96521
▁validity	-8.96584
l	-8.96584
▁16	-8.96782
▁bank	-8.96875
▁much	-8.96886
▁put	-8.97
▁approval	-8.97118
of	-8.97166
▁favor	-8.97258
▁classification	-8.9751
▁Appellants	-8.97799
▁engaged	-8.97838
▁plea	-8.97972
▁actual	-8.98053
▁accused	-8.98222
▁(10	-8.98265
▁contained	-8.98305
▁like	-8.98345
▁Order	-8.98602
▁dismissal	-8.98625
▁future	-8.98763
▁September	-8.98766
▁event	-8.98772
▁know	-8.98778
▁account	-8.98783
▁previously	-8.98846
▁admitted	-8.98899
▁prejudice	-8.9899
▁OF	-8.99059
▁sales	-8.99102
T	-8.99148
▁equal	-8.99167
▁reference	-8.99179
▁still	-8.99318
▁submitted	-8.99334
▁STATES	-8.99346
▁objection	-8.99448
▁Corporation	-8.99597
▁car	-8.99626
▁1970	-8.99679
▁12	-8.99889
▁injury	-8.99929
▁behalf	-9.00004
▁left	-9.00438
▁earlier	-9.00719
▁employed	-9.00769
▁allowed	-9.00842
▁neither	-9.01001
▁read	-9.01228
▁income	-9.01317
▁affirm	-9.01336
▁six	-9.01724
▁ease	-9.01739
te	-9.01805
▁86	-9.01845
▁written	-9.01865
▁violated	-9.01955
▁total	-9.01958
▁hand	-9.02025
▁simply	-9.02139
▁history	-9.0214
▁placed	-9.02301
▁already	-9.02431
▁took	-9.02479
▁job	-9.02533
▁connection	-9.02571
▁8	-9.02627
▁III	-9.02743
g	-9.02822
▁title	-9.03003
▁market	-9.03036
▁(1970).	-9.03111
▁apparently	-9.03125
ance	-9.03198
▁permitted	-9.03293
▁claimed	-9.03362
▁directed	-9.03472
▁representation	-9.03481
▁occurred	-9.0358
▁refusal	-9.03582
▁theory	-9.03656
▁1969,	-9.03834
▁attempt	-9.03863
▁25	-9.03988
▁me	-9.04013
▁benefit	-9.04076
▁fees	-9.04103
▁induction	-9.04181
▁”	-9.0449
▁adequate	-9.04606
▁California	-9.04749
—	-9.04812
▁doctrine	-9.04928
▁interpretation	-9.04954
▁civil	-9.05043
▁11	-9.05062
▁V	-9.05328
▁(1972)	-9.05575
▁appellees	-9.05645
▁gas	-9.05653
▁records	-9.05735
appellant	-9.05919
▁loss	-9.05923
▁bring	-9.0594
▁done	-9.05997
▁1972.	-9.0606
▁free	-9.06063
▁violations	-9.06083
▁Tax	-9.06209
▁Civil	-9.0623
▁Jones	-9.06232
▁cited	-9.06287
▁death	-9.06526
▁return	-9.06616
ity	-9.06634
▁interests	-9.06817
▁amended	-9.0686
▁counts	-9.0701
▁instruction	-9.07079
▁how	-9.07129
▁directly	-9.07357
▁convicted	-9.07447
▁allow	-9.07521
▁2,	-9.07702
▁(6	-9.07842
▁(1970)	-9.07924
▁(1972).	-9.0798
▁meaning	-9.08165
▁reversed	-9.08184
▁Bank	-9.08214
▁Robert	-9.08278
▁third	-9.08354
M	-9.08515
▁matters	-9.08681
▁practices	-9.08698
▁fully	-9.08736
▁accord	-9.08757
▁unit	-9.08868
▁orders	-9.08927
▁84	-9.09111
▁decide	-9.09188
▁ruling	-9.09202
▁bar	-9.09203
▁granting	-9.09479
▁requiring	-9.09566
or	-9.09601
▁Second	-9.0989
▁merit	-9.10128
▁dispute	-9.10148
▁line	-9.10211
Appellant	-9.10221
▁obtained	-9.10606
▁Appellee	-9.10674
▁:	-9.10706
▁testify	-9.1075
▁taxpayer	-9.10765
▁valid	-9.10934
▁problem	-9.11085
▁include	-9.11105
m	-9.11257
▁filing	-9.11432
▁activities	-9.11479
▁Plaintiffs	-9.11726
▁referred	-9.11769
▁correct	-9.11856
▁your	-9.119
▁appeals	-9.11926
▁Senior	-9.12057
▁relied	-9.12057
▁whole	-9.12098
▁(1971).	-9.12167
▁offered	-9.12172
▁litigation	-9.12382
▁far	-9.12393
▁remedy	-9.12693
▁go	-9.12725
▁1970)	-9.129
▁Johnson	-9.13019
▁man	-9.13275
▁Such	-9.1337
▁principal	-9.13451
▁thereof	-9.13457
▁high	-9.13624
▁included	-9.13628
▁end	-9.13767
▁Cf	-9.1378
▁group	-9.13972
▁national	-9.13984
▁concerned	-9.14068
▁Fifth	-9.14293
▁known	-9.14343
Appellee	-9.14388
▁important	-9.14452
▁entire	-9.14453
▁commerce	-9.14619
▁become	-9.14628
▁agreed	-9.14815
▁unlawful	-9.14864
▁All	-9.14938
▁24	-9.14986
▁serve	-9.1499
▁consent	-9.15093
▁statutes	-9.15169
▁followed	-9.15356
▁officials	-9.1541
▁seeking	-9.1558
▁standing	-9.15608
▁going	-9.15667
▁Chicago	-9.16584
▁receive	-9.16592
▁rate	-9.16616
▁1972).	-9.16746
▁conflict	-9.17072
es	-9.17083
▁abuse	-9.17324
man	-9.17555
▁Constitution	-9.17846
▁department	-9.17908
▁School	-9.17918
▁denying	-9.18116
▁3,	-9.18236
volving	-9.18248
▁An	-9.1836
▁Fed	-9.18473
▁Cal	-9.18544
▁reasonably	-9.18595
▁expert	-9.18626
▁met	-9.18734
▁affidavit	-9.18969
▁member	-9.18979
▁scope	-9.19261
▁1971)	-9.19288
▁ex	-9.19618
▁black	-9.1966
▁home	-9.19985
▁organization	-9.20343
▁obligation	-9.20345
▁actually	-9.20489
▁open	-9.20662
▁force	-9.20676
▁erroneous	-9.20811
▁pipeline	-9.21042
▁damage	-9.21127
▁factors	-9.21153
▁activity	-9.2132
▁treatment	-9.21325
▁limitations	-9.21378
▁independent	-9.21522
▁costs	-9.21703
examination	-9.21785
ive	-9.21847
less	-9.21925
▁19	-9.22003
▁1969	-9.22188
▁13	-9.22308
▁latter	-9.22366
▁name	-9.22375
▁exception	-9.22682
ion	-9.22708
▁compensation	-9.22721
▁continued	-9.22773
▁illegal	-9.22897
▁obtain	-9.22905
▁By	-9.22995
▁meet	-9.23065
Emphasis	-9.23068
▁1972)	-9.23094
▁prevent	-9.23267
▁approved	-9.2333
▁Mo	-9.2345
▁portion	-9.23513
▁words	-9.23553
▁mental	-9.23699
▁(4	-9.23708
▁impact	-9.23776
▁example	-9.23862
/	-9.24108
▁sold	-9.24132
▁discussion	-9.24222
▁31	-9.24336
▁significant	-9.24341
▁gave	-9.2449
▁small	-9.24493
▁Count	-9.24561
▁rejected	-9.2459
▁(1969)	-9.24779
▁85	-9.24975
▁Defendants	-9.25014
▁prison	-9.25194
▁single	-9.25225
▁seems	-9.25255
▁carrier	-9.25325
▁35	-9.25374
▁approximately	-9.25374
▁asserted	-9.25465
▁Brown	-9.2556
▁responsibility	-9.25575
▁Code	-9.25592
▁17	-9.25607
▁27	-9.25862
▁delay	-9.25901
▁unable	-9.2597
▁1971	-9.26071
▁23	-9.26155
▁discharge	-9.26168
▁m	-9.26196
▁-	-9.26196
▁parole	-9.26208
▁false	-9.26498
▁offer	-9.26544
▁accident	-9.267
▁makes	-9.26702
▁informed	-9.26723
Rev	-9.26793
appellee	-9.26925
▁liable	-9.27026
▁Public	-9.27028
▁physical	-9.27029
▁Finally	-9.27053
▁oral	-9.27085
▁face	-9.27196
▁interstate	-9.27396
▁large	-9.27519
▁stand	-9.27546
▁data	-9.27762
▁designation	-9.27766
▁relating	-9.27768
▁down	-9.2778
▁real	-9.2787
way	-9.27968
▁observed	-9.27968
▁accept	-9.27972
▁avoid	-9.28104
▁deem	-9.28133
▁83	-9.28206
▁instructions	-9.28216
▁reached	-9.28256
▁heard	-9.28359
▁count	-9.28372
▁caused	-9.28423
▁32	-9.28478
▁analysis	-9.2851
▁too	-9.28534
▁represented	-9.2859
▁relationship	-9.28643
▁premises	-9.28828
▁past	-9.28868
▁contracts	-9.29034
▁essential	-9.29091
▁de	-9.29091
▁22	-9.2922
▁taking	-9.29261
▁discussed	-9.29308
▁North	-9.29371
▁prosecutor	-9.29392
▁related	-9.29492
▁co	-9.29508
▁Feb	-9.29631
▁assistance	-9.29635
▁broad	-9.29753
▁4,	-9.29916
▁expenses	-9.30119
▁notes	-9.30235
▁credit	-9.30373
▁disposition	-9.30384
▁security	-9.30398
▁allegedly	-9.30615
▁existence	-9.30773
he	-9.30871
▁404	-9.31079
▁alternative	-9.31153
▁protect	-9.31167
▁seek	-9.31435
▁companies	-9.31529
▁substantially	-9.31626
▁men	-9.31666
▁conducted	-9.31938
▁House	-9.31988
▁investigation	-9.32099
▁anti	-9.32202
▁erred	-9.32323
▁shares	-9.32444
&	-9.32457
▁Moore	-9.32689
▁adopted	-9.32773
▁fraud	-9.32872
▁factor	-9.32944
▁Rules	-9.33033
▁contain	-9.33125
▁side	-9.33162
▁One	-9.33231
▁returned	-9.33249
▁Illinois	-9.33473
▁6,	-9.33598
▁next	-9.3386
▁Education	-9.3386
▁committee	-9.34031
▁respondent	-9.3407
▁5,	-9.342
▁necessarily	-9.34253
▁50	-9.34517
▁particularly	-9.34663
▁type	-9.34889
▁allegations	-9.34895
▁reach	-9.34943
▁reported	-9.35044
▁possibility	-9.35047
▁grand	-9.35049
▁why	-9.35049
▁official	-9.35106
▁leave	-9.35268
▁Petitioner	-9.35278
▁get	-9.35457
▁apparent	-9.35682
▁West	-9.3578
▁assets	-9.36014
▁hospital	-9.36065
▁element	-9.36086
▁consistent	-9.36087
▁presence	-9.36245
▁carry	-9.36246
▁Accordingly	-9.36302
Code	-9.36422
▁reverse	-9.36446
▁397	-9.36662
▁lease	-9.36677
▁16,	-9.36695
▁With	-9.368
▁great	-9.37047
▁express	-9.37197
▁among	-9.37235
▁context	-9.37296
▁come	-9.37354
▁(1967)	-9.37431
▁together	-9.37464
as	-9.3757
▁degree	-9.37701
▁payments	-9.37711
▁Thomas	-9.37868
▁82	-9.37898
▁Stat	-9.3806
▁Report	-9.38094
▁meeting	-9.3813
▁principle	-9.3813
▁admission	-9.38131
▁attorneys	-9.3821
▁15,	-9.38276
▁evidentiary	-9.38278
▁little	-9.38283
▁entry	-9.38283
▁call	-9.38453
▁advised	-9.38469
▁14	-9.38508
▁supported	-9.38519
▁transaction	-9.38544
▁owner	-9.38613
▁documents	-9.38642
▁9,	-9.38814
▁indicates	-9.38826
▁short	-9.38906
▁8,	-9.39191
▁named	-9.3941
▁30,	-9.39509
▁sitting	-9.39519
▁potential	-9.39524
▁thereafter	-9.39525
▁life	-9.39527
▁Here	-9.39609
▁Ed	-9.39621
▁moved	-9.39727
▁art	-9.39769
▁improper	-9.39775
▁arrested	-9.39851
▁served	-9.39881
▁Colorado	-9.39934
▁indicate	-9.40067
▁elements	-9.40106
▁inquiry	-9.40356
▁tried	-9.40368
▁Our	-9.4037
▁problems	-9.40394
▁petitioners	-9.40516
▁Florida	-9.40773
▁performance	-9.40784
▁13,	-9.40872
▁representative	-9.4107
▁off	-9.41088
▁enter	-9.41124
▁insufficient	-9.41263
▁transfer	-9.41303
▁building	-9.41557
▁close	-9.41604
▁temporary	-9.41622
▁feet	-9.41661
▁12,	-9.41797
▁7,	-9.41955
▁COURT	-9.42043
▁last	-9.42053
▁able	-9.42115
▁house	-9.42323
▁Procedure	-9.42328
▁habeas	-9.42471
▁South	-9.42589
▁aside	-9.42885
▁11,	-9.42886
▁came	-9.42898
▁medical	-9.42904
▁controversy	-9.42904
▁405	-9.42958
▁owned	-9.43004
▁challenge	-9.43048
▁Richard	-9.43332
▁knew	-9.43334
▁Even	-9.43339
▁So	-9.43403
▁immediately	-9.4343
▁injunctive	-9.43441
▁identification	-9.43646
▁registrant	-9.43656
▁(1968)	-9.43722
▁justice	-9.43764
▁corporate	-9.44201
▁doing	-9.44233
▁designed	-9.44258
▁privilege	-9.4436
▁ten	-9.44455
▁am	-9.44504
▁response	-9.4452
▁1969)	-9.44526
▁vehicle	-9.44562
▁Pa	-9.44563
▁conscientious	-9.44639
▁Respondent	-9.44979
▁Davis	-9.45079
▁basic	-9.45083
▁aware	-9.45096
▁signed	-9.45134
▁20,	-9.45136
▁argue	-9.45261
▁post	-9.45329
▁concern	-9.45375
en	-9.45497
▁stolen	-9.45516
▁self	-9.45521
▁expressed	-9.45659
▁18,	-9.45701
▁remedies	-9.45957
▁community	-9.45964
▁introduced	-9.46121
▁contend	-9.46267
▁facilities	-9.46403
▁Kansas	-9.46414
▁appellat	-9.46454
▁1971).	-9.46541
▁limitation	-9.46779
▁23,	-9.46886
▁permits	-9.469
▁expressly	-9.47033
▁kind	-9.47229
▁Affirmed	-9.47296
▁Insurance	-9.47297
▁pertinent	-9.47297
▁Oil	-9.473
▁PER	-9.47491
▁argued	-9.47626
▁initial	-9.4804
J	-9.48054
▁turn	-9.48082
▁level	-9.48133
▁401	-9.48232
▁ever	-9.48234
▁seem	-9.48567
▁Williams	-9.48629
▁drug	-9.4863
▁scheme	-9.48663
▁sentencing	-9.48665
▁drugs	-9.48713
▁complete	-9.48799
merely	-9.4906
▁former	-9.49064
▁justify	-9.49111
▁safety	-9.49112
▁Sess	-9.49118
▁plant	-9.4923
▁protected	-9.49271
▁27,	-9.49281
)(1)	-9.49329
▁financial	-9.49408
lying	-9.49454
▁settlement	-9.49458
▁primary	-9.49574
▁Dept	-9.49578
▁outside	-9.49581
▁authorities	-9.49591
▁sustained	-9.49678
▁K	-9.4972
▁cost	-9.49868
▁14,	-9.50313
▁App	-9.50321
▁plans	-9.50322
▁character	-9.50381
▁sum	-9.50394
▁convictions	-9.50726
▁shows	-9.50824
▁schools	-9.50832
▁77	-9.50932
▁capacity	-9.5096
▁81	-9.50963
▁Louis	-9.50972
elective	-9.51029
▁San	-9.51157
▁hours	-9.5135
▁1967	-9.51405
▁themselves	-9.51426
▁principles	-9.51597
▁78	-9.51643
▁violate	-9.51855
▁method	-9.51862
▁Missouri	-9.51897
▁air	-9.52
▁limits	-9.52034
▁34	-9.52107
▁Joseph	-9.52368
▁discriminatory	-9.52396
▁existing	-9.52649
▁recent	-9.52678
▁incident	-9.52778
▁CURIAM	-9.52841
▁adverse	-9.52844
▁Air	-9.52874
▁trade	-9.52995
▁project	-9.53062
▁serious	-9.53159
▁working	-9.53225
▁effort	-9.53301
▁seniority	-9.53325
▁discovery	-9.53329
▁31,	-9.5357
▁recover	-9.53596
▁reject	-9.53651
▁refusing	-9.53797
▁unnecessary	-9.53801
▁attention	-9.53812
▁enough	-9.53812
▁recovery	-9.53842
▁1983	-9.53855
▁construed	-9.53947
▁obvious	-9.54112
▁bill	-9.54218
▁personnel	-9.54276
▁panel	-9.54276
▁issuance	-9.54278
▁equitable	-9.54286
▁city	-9.54296
▁inconsistent	-9.54304
▁Ass	-9.54365
▁She	-9.54458
▁17,	-9.54571
▁33	-9.5464
▁George	-9.54763
▁suggested	-9.54849
▁likely	-9.55046
most	-9.55157
▁Southern	-9.55248
▁giving	-9.5525
▁Cohen	-9.55255
▁1963	-9.55349
▁aid	-9.55396
▁jurisdictional	-9.55482
▁best	-9.55583
▁release	-9.55587
▁De	-9.556
▁once	-9.55646
▁station	-9.5572
▁alone	-9.55772
▁function	-9.56092
▁invalid	-9.56223
▁reversal	-9.56223
▁Pennsylvania	-9.56225
▁hearsay	-9.5623
▁follow	-9.56236
▁weight	-9.56279
1	-9.56661
▁(1971)	-9.56679
▁Texas	-9.56734
▁acting	-9.56871
▁defined	-9.56886
▁accepted	-9.56894
O	-9.56958
▁comment	-9.57087
▁Examiner	-9.57187
▁administration	-9.57212
▁sense	-9.57226
▁1967,	-9.57322
▁challenged	-9.57413
▁80	-9.5744
▁check	-9.57519
▁assume	-9.57621
▁Dur	-9.5765
▁difficult	-9.57659
▁substance	-9.57697
▁corpus	-9.57708
▁Rehearing	-9.5771
▁Wilson	-9.57712
▁controlling	-9.57721
▁contentions	-9.57912
▁$	-9.5805
▁22,	-9.58133
▁maintenance	-9.58208
▁appointed	-9.58319
by	-9.58329
▁motions	-9.58543
▁His	-9.58622
▁Office	-9.58686
▁pointed	-9.58698
▁approach	-9.58702
▁402	-9.58709
▁became	-9.5871
▁people	-9.58712
▁securities	-9.58712
▁arbitration	-9.58713
▁1971.	-9.58732
▁26,	-9.58812
▁vote	-9.59099
k	-9.59176
▁resolution	-9.59216
▁Maryland	-9.59218
▁aff	-9.59226
▁(1	-9.59229
▁Gas	-9.59486
▁i	-9.59533
▁admissible	-9.59726
▁(4)	-9.59747
▁distinction	-9.59761
▁inference	-9.59824
▁sound	-9.59992
▁60	-9.60155
▁drawn	-9.60253
▁arising	-9.60297
▁applicant	-9.60302
▁resulting	-9.60363
year	-9.6052
▁capital	-9.60532
▁providing	-9.60749
▁events	-9.6101
▁conclusions	-9.61097
▁object	-9.61151
▁efforts	-9.61278
▁areas	-9.61328
▁resulted	-9.6136
▁recognize	-9.61755
▁duties	-9.61779
▁hearings	-9.6183
▁deprived	-9.62045
▁none	-9.62114
▁sent	-9.62304
▁military	-9.62304
▁Therefore	-9.62305
▁President	-9.62314
▁greater	-9.62325
▁sub	-9.62407
▁herein	-9.62492
▁19,	-9.62661
▁acted	-9.6278
j	-9.62819
▁equipment	-9.62825
▁Securities	-9.62826
▁Oklahoma	-9.62827
▁omitted	-9.62828
▁wife	-9.62832
▁continuing	-9.62834
2	-9.62855
▁attack	-9.62898
▁affected	-9.62911
ness	-9.6308
▁Nor	-9.63186
▁care	-9.63321
▁continue	-9.6335
▁reliance	-9.63353
▁child	-9.63361
▁mind	-9.63446
No	-9.63472
▁reports	-9.63481
▁Q	-9.6353
▁prepared	-9.63596
▁yet	-9.63879
▁Charles	-9.63884
▁comply	-9.64048
▁21,	-9.64058
▁constituted	-9.64161
▁400	-9.64286
re	-9.64358
▁Submitted	-9.64411
▁Indeed	-9.64411
▁Bureau	-9.64413
▁Sixth	-9.64429
▁receipt	-9.64501
▁submit	-9.64509
▁individuals	-9.64566
▁appeared	-9.64715
▁subsequently	-9.64772
▁quit	-9.64844
▁economic	-9.64879
▁telephone	-9.64947
▁compliance	-9.64954
▁robbery	-9.64958
▁writ	-9.64989
▁points	-9.65021
▁acquisition	-9.65034
▁thereby	-9.65064
▁rendered	-9.65074
▁recently	-9.65131
▁fee	-9.65441
▁408	-9.65472
▁lands	-9.65479
▁Western	-9.65484
▁operating	-9.65489
▁Miller	-9.6549
▁395	-9.65495
▁jurors	-9.65507
is	-9.65533
▁list	-9.65614
trust	-9.65784
▁1972);	-9.65944
▁custody	-9.66034
▁1966,	-9.6609
▁automobile	-9.66129
▁previous	-9.66405
▁policies	-9.66568
▁Region	-9.66674
▁thought	-9.66679
▁guilt	-9.67073
▁Division	-9.67114
▁immunity	-9.67114
▁Workers	-9.67123
▁eligible	-9.67148
▁base	-9.67177
▁covered	-9.6719
▁water	-9.67257
pon	-9.67262
▁lead	-9.67289
▁hard	-9.67659
▁White	-9.67682
▁joint	-9.68087
▁heroin	-9.68216
▁apartment	-9.68217
▁Massachusetts	-9.68218
▁receiving	-9.68221
▁From	-9.68223
▁extend	-9.68227
▁active	-9.68269
▁10(	-9.68311
▁disclosure	-9.68335
▁performed	-9.68349
▁paragraph	-9.68351
▁perform	-9.68355
▁proceed	-9.68421
▁removed	-9.68482
▁creditors	-9.68525
▁render	-9.68642
▁lower	-9.68652
▁necessity	-9.68772
▁stay	-9.68773
▁transportation	-9.68775
▁usual	-9.68781
▁considering	-9.68893
▁located	-9.68925
unconstitutional	-9.69118
▁racial	-9.69184
▁29,	-9.69192
▁...	-9.69428
▁trustee	-9.69478
▁10,	-9.69525
▁36	-9.69594
▁procedural	-9.69722
▁collective	-9.6973
it	-9.69802
▁longer	-9.6994
▁considerations	-9.6999
est	-9.69994
▁existed	-9.69998
▁device	-9.70046
▁attempted	-9.70149
▁dissenting	-9.70315
p	-9.70325
▁Relations	-9.70457
▁Association	-9.70459
▁Fourth	-9.70477
▁bad	-9.70485
▁anything	-9.70529
▁instructed	-9.70551
▁Ill	-9.70558
early	-9.70608
▁loan	-9.7062
▁X	-9.71014
▁indeed	-9.71026
▁participation	-9.7103
▁justified	-9.71114
▁raise	-9.71163
▁definition	-9.7118
▁Power	-9.7119
▁seen	-9.71213
▁prejudicial	-9.71601
▁You	-9.71604
▁along	-9.71651
▁presumption	-9.71743
▁objections	-9.71875
▁sustain	-9.72041
▁dealing	-9.72127
▁few	-9.72177
▁license	-9.7223
H	-9.72342
▁difference	-9.72353
▁ship	-9.7236
▁appearance	-9.72364
▁Claims	-9.72451
▁pro	-9.72481
▁substitute	-9.72501
▁near	-9.72505
▁mean	-9.72545
▁ed	-9.7261
▁look	-9.72626
▁supplied	-9.7275
▁assigned	-9.7281
and	-9.72961
▁45	-9.73048
▁exclusive	-9.73177
▁insured	-9.73197
▁Furthermore	-9.73334
▁Of	-9.73358
▁28,	-9.73401
▁Patent	-9.73511
▁intention	-9.73512
▁relative	-9.73522
▁deposition	-9.73529
emphasis	-9.73684
▁sell	-9.73735
▁views	-9.73833
▁lawful	-9.73919
▁primarily	-9.73926
▁Because	-9.73929
▁Both	-9.73961
▁(1969).	-9.74057
▁“(	-9.74212
▁collateral	-9.74349
▁created	-9.74359
▁often	-9.74417
▁excess	-9.74494
▁legislation	-9.74504
▁credibility	-9.74506
went	-9.74659
▁certainly	-9.74668
▁motor	-9.7467
▁truck	-9.74696
▁66	-9.74892
▁powers	-9.74913
▁examined	-9.74973
▁produced	-9.75076
▁stating	-9.751
▁?	-9.75106
▁taxes	-9.7514
▁offenses	-9.75171
▁Rights	-9.75256
▁railroad	-9.7531
▁1968)	-9.7533
▁deny	-9.75352
▁want	-9.75355
▁1970).	-9.75488
▁changes	-9.75508
▁breach	-9.75544
▁enjoin	-9.7556
▁seq	-9.75689
▁industry	-9.75693
▁Criminal	-9.75696
▁Senate	-9.75698
▁Robinson	-9.757
▁c	-9.75725
▁successful	-9.75767
▁retained	-9.75783
▁completed	-9.75913
▁certificate	-9.75919
▁narcotics	-9.7594
▁demand	-9.76018
▁substantive	-9.76119
▁deal	-9.76134
▁saw	-9.76149
▁technical	-9.76289
▁sex	-9.7629
▁Honor	-9.76294
▁current	-9.76296
▁407	-9.76316
▁vessel	-9.76517
▁equally	-9.76643
▁What	-9.7676
▁affidavits	-9.76811
▁VII	-9.76879
▁Agrashell	-9.76894
▁president	-9.76911
▁409	-9.76912
▁IV	-9.76945
▁developed	-9.76955
▁firm	-9.77128
▁allegation	-9.77135
▁40	-9.7738
▁oil	-9.77487
▁whatever	-9.7752
▁qualified	-9.77541
▁arguments	-9.77558
▁79	-9.77579
▁asserts	-9.77732
▁instance	-9.77746
▁remain	-9.7786
U	-9.77927
▁permanent	-9.77947
▁women	-9.78108
▁preclude	-9.78168
▁minutes	-9.78261
▁proposition	-9.78348
▁educational	-9.78398
▁identical	-9.78544
▁results	-9.78544
▁Clark	-9.78636
▁effects	-9.78673
▁according	-9.78674
▁403	-9.78718
▁informant	-9.78724
▁began	-9.78751
Denied	-9.78782
▁entirely	-9.79032
▁(1968).	-9.79144
▁cash	-9.79204
▁programs	-9.79231
▁Eight	-9.79296
▁ordinary	-9.79355
▁410	-9.7936
▁(1967).	-9.79412
▁se	-9.79542
▁quoted	-9.79553
▁Appellees	-9.79601
▁reasoning	-9.79713
▁Louisiana	-9.7996
▁coverage	-9.79966
▁David	-9.79966
▁management	-9.79968
▁direction	-9.80316
▁represent	-9.80361
▁affirmative	-9.80437
▁inter	-9.80443
▁produce	-9.80561
▁expected	-9.80633
▁injured	-9.80635
▁delivered	-9.80641
▁satisfied	-9.80676
▁card	-9.8098
▁maintain	-9.80984
▁appealed	-9.81012
▁ultimate	-9.81062
▁adopt	-9.81101
It	-9.81165
▁University	-9.81214
▁Carter	-9.81216
▁(1970),	-9.81289
▁materials	-9.81364
▁customers	-9.81404
▁(1965)	-9.81431
▁assertion	-9.81516
▁page	-9.81537
▁sentenced	-9.81542
▁field	-9.81554
▁unreasonable	-9.81633
▁legitimate	-9.81684
no	-9.81701
▁decree	-9.81847
▁Railroad	-9.8185
▁banc	-9.81855
▁406	-9.81877
▁assault	-9.81984
▁Jan	-9.82081
▁choice	-9.8211
▁commission	-9.82123
▁ruled	-9.82264
▁plain	-9.82343
▁(1964)	-9.82377
▁operations	-9.82422
ation	-9.82478
▁Further	-9.82482
▁dangerous	-9.82495
▁balance	-9.82504
▁1966	-9.82549
▁1961	-9.8255
▁risk	-9.82792
▁thereto	-9.82825
▁exercised	-9.82893
▁49	-9.82894
▁address	-9.82983
▁SEC	-9.83072
▁imprisonment	-9.83125
▁recognition	-9.83131
▁pretrial	-9.83134
▁Third	-9.83136
ce	-9.83159
▁training	-9.83254
▁exists	-9.83366
▁decedent	-9.83419
▁showed	-9.83628
▁production	-9.83784
▁environmental	-9.83802
▁exclusion	-9.84057
▁seeks	-9.84114
argued	-9.84169
Q	-9.84184
Civ	-9.84225
▁students	-9.84441
▁treated	-9.84495
▁completely	-9.84657
▁exemption	-9.84755
▁69	-9.84904
▁disclosed	-9.85017
▁Evidence	-9.85073
▁infringement	-9.85102
▁favorable	-9.8512
▁afforded	-9.85183
▁passed	-9.85196
▁dissent	-9.8536
▁product	-9.85415
▁objective	-9.85432
▁directors	-9.85575
▁rates	-9.85688
▁trust	-9.85688
▁applies	-9.85731
▁access	-9.85733
▁Thompson	-9.85734
▁suffered	-9.85793
▁396	-9.85805
▁run	-9.85884
▁govern	-9.85924
▁(1966)	-9.85996
▁suspension	-9.86014
▁authorization	-9.8605
▁objector	-9.86061
▁danger	-9.86073
▁awarded	-9.86167
▁gun	-9.86288
▁foreign	-9.86392
▁COMPANY	-9.86393
▁numerous	-9.86394
▁always	-9.86398
▁Lake	-9.86417
▁commenced	-9.86507
▁rel	-9.86593
▁transactions	-9.86631
▁contains	-9.86718
8	-9.86731
▁invention	-9.86739
▁remaining	-9.86787
▁experience	-9.8679
▁Carolina	-9.87059
▁revocation	-9.87059
▁Trial	-9.87096
▁lines	-9.87146
▁47	-9.87157
▁distribution	-9.87394
▁jobs	-9.87465
▁therein	-9.87536
▁vacated	-9.87547
▁times	-9.87558
▁25,	-9.87652
▁Revenue	-9.87731
▁responsible	-9.87735
▁identified	-9.8775
▁writing	-9.87847
▁concerns	-9.87866
▁understand	-9.88046
▁father	-9.88056
▁en	-9.88082
▁Note	-9.88099
one	-9.88172
▁24,	-9.88175
▁56	-9.88181
▁demonstrate	-9.88195
▁discharged	-9.88205
▁strong	-9.88225
▁memorandum	-9.88406
▁Ninth	-9.88407
▁relies	-9.88412
▁390	-9.8842
In	-9.88558
▁(1971),	-9.88654
▁pipe	-9.88754
▁keep	-9.88758
▁arrangement	-9.88796
▁Re	-9.88933
▁using	-9.88938
▁delivery	-9.89112
▁increase	-9.89573
▁Steel	-9.8969
▁75	-9.8975
▁Dakota	-9.89774
▁INC	-9.89801
▁old	-9.89817
▁rehearing	-9.89843
▁1.	-9.8992
▁failing	-9.90046
▁description	-9.90168
▁white	-9.90224
nt	-9.90255
▁disclose	-9.90265
▁practical	-9.90291
▁150	-9.90294
▁amounts	-9.90322
7	-9.90367
▁394	-9.90409
▁citizens	-9.90458
▁contempt	-9.90461
▁charging	-9.90464
▁Hammons	-9.90464
▁Green	-9.90464
▁seven	-9.90476
▁declared	-9.90602
▁purchased	-9.9065
▁settled	-9.90719
▁La	-9.90748
▁cards	-9.90852
▁1971);	-9.91079
▁speech	-9.9115
▁specified	-9.91156
▁significance	-9.91156
▁heavy	-9.91166
▁controlled	-9.91175
▁foregoing	-9.91182
▁enforce	-9.9122
)(2)	-9.91513
▁58	-9.91515
▁feel	-9.91521
▁month	-9.91537
▁63	-9.91655
▁normal	-9.91716
▁assert	-9.91782
▁393	-9.91805
▁truth	-9.91855
▁injuries	-9.91856
▁lost	-9.9186
▁religious	-9.91865
▁bargain	-9.92065
▁correctly	-9.92219
▁bound	-9.92271
ble	-9.92274
▁machine	-9.92287
▁belief	-9.9229
▁toward	-9.92359
▁2.	-9.9237
▁mandate	-9.92372
▁share	-9.92385
▁color	-9.92402
▁operated	-9.92437
▁word	-9.9249
▁443	-9.92495
▁formal	-9.92497
▁exist	-9.92508
▁Denver	-9.9256
▁despi	-9.92563
▁maximum	-9.92572
▁instead	-9.92654
▁reading	-9.92764
▁copy	-9.92894
▁occasion	-9.92965
▁reviewed	-9.9302
▁Nos	-9.93071
▁immediate	-9.93111
▁suggest	-9.93201
▁agencies	-9.93268
▁confession	-9.93273
▁Little	-9.93273
▁Article	-9.93274
▁better	-9.93291
▁Iowa	-9.93292
▁absolute	-9.93295
▁secure	-9.93373
▁earnings	-9.93645
▁late	-9.93748
▁items	-9.93755
▁386	-9.93929
▁registration	-9.93983
▁Superior	-9.93985
▁competition	-9.93992
▁Harris	-9.94017
▁Mass	-9.94122
▁rest	-9.94306
▁eight	-9.94465
▁exceptions	-9.94534
▁harm	-9.94553
▁needed	-9.94698
▁study	-9.94707
▁389	-9.94714
▁391	-9.94725
▁try	-9.94726
▁Wright	-9.94736
▁rationale	-9.94764
▁seized	-9.94776
▁maintained	-9.94854
▁obviously	-9.94952
▁detail	-9.95041
▁understanding	-9.95124
▁cent	-9.95155
▁situations	-9.95158
▁raises	-9.9521
▁proceeds	-9.95244
Rep	-9.95341
▁Agreement	-9.95427
▁Hospital	-9.95428
▁Also	-9.95464
▁says	-9.95671
▁floor	-9.9576
▁text	-9.95817
▁1970.	-9.95861
▁assist	-9.95866
▁room	-9.95893
▁Agent	-9.95901
▁65	-9.95951
▁1964,	-9.9599
▁refuse	-9.96038
▁Fourteenth	-9.96158
▁diversity	-9.96163
▁major	-9.96168
▁country	-9.96194
▁suits	-9.96254
▁proved	-9.964
▁Part	-9.9642
▁assumption	-9.96646
ternal	-9.96704
▁residence	-9.96896
▁twenty	-9.96908
▁higher	-9.96937
▁mentioned	-9.97011
▁51	-9.97096
▁applications	-9.97376
▁worth	-9.97484
▁operate	-9.97535
▁congressional	-9.97633
▁facie	-9.97633
▁declaratory	-9.97633
▁Mitchell	-9.97634
▁subsection	-9.97635
▁Administrative	-9.97639
▁night	-9.97645
▁Where	-9.97659
▁pass	-9.97857
▁products	-9.97987
▁prohibit	-9.98002
▁remains	-9.98074
▁expense	-9.98157
▁customer	-9.98167
▁(1963)	-9.98279
▁Administration	-9.98379
▁Anderson	-9.9838
▁quality	-9.9838
▁family	-9.98388
▁permitting	-9.98393
▁limit	-9.98406
▁difficulty	-9.98446
▁exempt	-9.98453
▁385	-9.98546
▁fall	-9.98548
▁extended	-9.98558
7,	-9.98622
▁improperly	-9.98673
▁instances	-9.98825
judge	-9.98875
▁originally	-9.98883
▁assignment	-9.98941
le	-9.99
▁length	-9.99026
ie	-9.99112
▁Practice	-9.99131
▁staff	-9.99135
▁Allen	-9.99155
▁accordingly	-9.99333
▁commit	-9.99394
▁tests	-9.99501
)(3)	-9.99617
▁lawyer	-9.99671
▁.”	-9.99721
▁suppress	-9.99748
▁Police	-9.99888
▁wholly	-9.99898
▁341	-9.99922
▁draft	-9.99926
▁71	-10.0023
▁strike	-10.0038
Appellees	-10.0042
▁urges	-10.0042
▁1967)	-10.0061
▁magistrate	-10.0065
▁Congressional	-10.0065
▁adjudication	-10.0066
▁debtor	-10.0066
▁Neither	-10.0066
▁supporting	-10.0087
▁changed	-10.0092
▁'	-10.0113
▁Ct	-10.0117
▁61	-10.0119
▁seizure	-10.0121
▁development	-10.0122
X	-10.0125
▁prima	-10.0142
▁importance	-10.0143
▁obtaining	-10.0144
nd	-10.0147
▁ask	-10.015
G	-10.0151
▁attached	-10.0162
▁67	-10.0169
▁absent	-10.0178
▁acquired	-10.0185
▁carriers	-10.0196
▁race	-10.0199
▁Fund	-10.0203
▁complaints	-10.0204
▁East	-10.0219
▁applying	-10.0219
▁defective	-10.0219
▁Army	-10.022
▁Eastern	-10.022
▁minimum	-10.0221
▁social	-10.0221
▁NEPA	-10.0222
▁Yes	-10.0223
up	-10.0224
▁fails	-10.0225
▁barred	-10.0229
▁carefully	-10.0233
▁prohibited	-10.0233
▁rely	-10.0251
▁1964	-10.0257
▁wage	-10.0266
▁selling	-10.0268
▁option	-10.0275
▁sections	-10.0276
▁Street	-10.0277
▁suggestion	-10.0278
▁conversation	-10.0279
▁Island	-10.0279
▁Central	-10.0298
▁436	-10.03
▁enacted	-10.0304
▁340	-10.0305
6	-10.031
▁knowingly	-10.0314
▁attempting	-10.0317
x	-10.0344
3,	-10.0346
▁resolved	-10.035
▁circuit	-10.0358
▁finally	-10.0361
▁afford	-10.0368
▁phrase	-10.0373
v	-10.0374
▁Executive	-10.0377
▁Georgia	-10.0377
▁Paul	-10.0378
▁setting	-10.0379
▁registered	-10.0382
▁things	-10.0389
▁needs	-10.0392
▁viewed	-10.0393
▁368	-10.0399
▁critical	-10.0438
▁fraudulent	-10.044
▁thirty	-10.0456
▁Two	-10.0456
▁Baker	-10.0456
▁felt	-10.0456
ment	-10.0458
▁termination	-10.0458
▁affect	-10.0464
Each	-10.0473
%	-10.0474
▁prescribed	-10.0484
▁explain	-10.0503
▁away	-10.0504
el	-10.0514
▁explanation	-10.0516
▁pleadings	-10.0518
▁recommendation	-10.0518
▁Ford	-10.052
▁moot	-10.0521
▁checks	-10.0533
▁Exchange	-10.0536
▁mandatory	-10.0537
▁especially	-10.0537
▁something	-10.0539
▁Equal	-10.0539
▁100	-10.0541
▁designated	-10.0554
▁examine	-10.0561
▁ability	-10.0565
▁383	-10.0569
▁Tr	-10.0589
▁72	-10.0591
▁transcript	-10.0597
▁doctor	-10.0599
▁processing	-10.0599
▁implied	-10.06
▁similarly	-10.0601
Appellants	-10.0603
far	-10.0611
▁comments	-10.0614
▁Rather	-10.0616
▁assuming	-10.0617
▁Continental	-10.0617
▁(5)	-10.0619
▁Tex	-10.062
▁detailed	-10.0632
▁tell	-10.0651
▁interview	-10.0668
▁consequences	-10.0674
▁advanced	-10.0677
▁source	-10.0682
▁Council	-10.0698
▁Howard	-10.0699
▁voluntary	-10.0699
▁disability	-10.0699
▁Products	-10.0701
▁impose	-10.0703
▁opinions	-10.0707
Pa	-10.0712
▁411	-10.0715
day	-10.0726
ies	-10.0735
▁excluded	-10.074
▁head	-10.075
▁70	-10.0755
▁fairly	-10.0755
▁charter	-10.0762
that	-10.0768
▁Electric	-10.0776
▁voluntarily	-10.078
▁freedom	-10.0781
▁minority	-10.0782
▁body	-10.0783
▁projects	-10.0783
4,	-10.0785
▁Interior	-10.0785
▁involve	-10.0787
▁purported	-10.0787
▁380	-10.0792
▁contended	-10.0804
▁questioned	-10.0841
▁article	-10.0848
▁contractor	-10.0858
▁becomes	-10.0862
▁notwithstanding	-10.0862
▁Assistant	-10.0863
▁perhaps	-10.0863
▁gross	-10.0863
▁Whether	-10.0864
▁388	-10.0864
▁disagree	-10.0865
▁create	-10.0871
▁allege	-10.0871
▁judges	-10.0872
▁fire	-10.0887
▁representatives	-10.0887
son	-10.0888
▁fund	-10.0896
▁positions	-10.0921
▁concept	-10.093
▁43	-10.0932
▁secured	-10.0933
▁Y	-10.0934
▁institution	-10.0936
▁thing	-10.0948
▁participate	-10.0949
▁fixed	-10.0952
▁guidelines	-10.0952
▁1973)	-10.0956
▁74	-10.096
▁alleges	-10.096
▁explained	-10.0964
▁average	-10.0965
cf	-10.0972
▁reads	-10.0981
▁commercial	-10.0999
▁chapter	-10.101
▁employ	-10.1014
▁prisoner	-10.1021
▁Philadelphia	-10.103
▁health	-10.1031
▁low	-10.1033
▁armed	-10.1036
▁requests	-10.1051
▁insure	-10.1055
▁travel	-10.1057
ic	-10.1074
▁Any	-10.108
▁agreements	-10.1093
▁regular	-10.1098
▁wrong	-10.11
▁bond	-10.1105
▁satisfy	-10.1115
▁459	-10.1115
▁FBI	-10.1115
▁simple	-10.1117
▁waiver	-10.1117
▁believed	-10.1119
▁392	-10.1121
▁ultimately	-10.1137
▁301	-10.1159
▁briefs	-10.1161
us	-10.1175
▁investment	-10.1187
▁expression	-10.1188
▁producers	-10.1194
▁37	-10.1194
▁hiring	-10.12
▁incurred	-10.12
▁55	-10.12
▁paper	-10.1202
▁469	-10.1202
▁379	-10.1202
▁446	-10.1203
▁sure	-10.1206
▁advance	-10.1213
▁3.	-10.1215
▁371	-10.1216
▁turned	-10.1225
▁door	-10.1234
▁urged	-10.1237
um	-10.1239
▁reduced	-10.1257
▁retain	-10.1273
▁deprivation	-10.1275
▁Edward	-10.1276
▁profit	-10.128
▁Compare	-10.1286
▁complained	-10.1298
▁prejudiced	-10.1303
▁mail	-10.1313
▁vacate	-10.1314
▁initially	-10.1317
▁AND	-10.1336
▁fundamental	-10.1358
▁teacher	-10.1363
▁didn	-10.1364
▁site	-10.1365
appellants	-10.1373
▁alleging	-10.1373
▁Some	-10.1374
▁infra	-10.1379
▁around	-10.1381
▁announced	-10.1382
▁restraining	-10.1385
▁measure	-10.139
▁suggests	-10.1405
▁Colo	-10.1427
▁governmental	-10.1429
▁precise	-10.1444
▁Amendments	-10.1456
▁Boston	-10.1461
▁negligent	-10.1461
▁series	-10.1461
▁political	-10.1462
3	-10.1463
▁Seventh	-10.1464
▁insurer	-10.1468
rd	-10.1469
▁Roth	-10.147
▁carried	-10.1473
▁assumed	-10.148
▁challenges	-10.1483
Tr	-10.1494
▁350	-10.1502
▁57	-10.1518
at	-10.1519
▁natural	-10.1532
▁preparation	-10.1538
▁highway	-10.1541
▁=	-10.155
▁Michigan	-10.155
▁removal	-10.155
▁compelled	-10.155
ichael	-10.155
▁384	-10.1551
▁discovered	-10.1554
▁certified	-10.1554
▁pp	-10.156
▁notified	-10.1561
▁shareholders	-10.1598
▁murder	-10.1606
▁reflect	-10.1614
▁finds	-10.1615
▁extensive	-10.1624
▁weapon	-10.163
▁preference	-10.163
▁indication	-10.1637
▁nevertheless	-10.1639
▁aircraft	-10.1639
▁propriety	-10.1639
▁mandamus	-10.1639
▁indicted	-10.164
▁398	-10.164
▁•	-10.1641
▁372	-10.1642
▁Statement	-10.1646
▁concurring	-10.1652
▁knowing	-10.1653
▁remained	-10.1658
▁sentences	-10.1659
▁hired	-10.1677
▁terminated	-10.1678
ar	-10.1679
▁68	-10.1682
▁1973,	-10.1697
▁goods	-10.17
▁age	-10.17
▁stipulation	-10.172
▁debt	-10.1721
▁rise	-10.1726
▁husband	-10.1729
▁estoppel	-10.1729
▁permissible	-10.1729
▁equity	-10.173
▁Miss	-10.173
▁modified	-10.173
▁pattern	-10.1731
▁Similarly	-10.1731
▁contractual	-10.1731
▁FCC	-10.1731
▁presently	-10.1755
not	-10.1757
▁1966)	-10.1761
▁fail	-10.1765
,000	-10.1768
▁essentially	-10.1769
▁98	-10.1782
▁declined	-10.1788
trial	-10.1794
▁enable	-10.1798
▁System	-10.1811
▁dependent	-10.1812
▁morning	-10.182
▁Construction	-10.182
▁deciding	-10.182
▁somewhat	-10.182
ollowing	-10.182
▁front	-10.1821
▁Martin	-10.1821
▁468	-10.1821
▁precluded	-10.1821
▁arbitrary	-10.1822
▁pure	-10.1822
▁Lewis	-10.1823
▁Phillips	-10.1827
▁includes	-10.1829
▁424	-10.183
sic	-10.1838
▁involves	-10.1838
▁executed	-10.1841
▁store	-10.1843
▁negotiations	-10.1845
▁473	-10.185
-5	-10.186
making	-10.1879
▁books	-10.1889
▁war	-10.189
all	-10.1898
▁flight	-10.1903
▁stage	-10.1906
▁indicat	-10.1907
▁73	-10.1908
▁percent	-10.1911
▁trusteeship	-10.1912
▁genuine	-10.1912
▁threatened	-10.1915
▁335	-10.1916
▁377	-10.1916
▁337	-10.1918
▁fine	-10.1919
▁59	-10.1937
▁format	-10.1948
▁discuss	-10.1952
▁tend	-10.1953
▁banks	-10.1967
▁parts	-10.197
▁Form	-10.1974
▁personally	-10.1981
▁letters	-10.1988
▁compel	-10.1997
5,	-10.1997
▁juror	-10.2
▁wrote	-10.2004
▁criteria	-10.2004
▁persuasive	-10.2004
▁impossible	-10.2005
▁population	-10.2005
probably	-10.2006
▁throughout	-10.2006
▁street	-10.2009
▁347	-10.201
▁conceded	-10.2011
▁Teamsters	-10.202
▁387	-10.2022
▁48	-10.2026
9	-10.2033
We	-10.2046
ers	-10.2052
▁bear	-10.2053
3.	-10.2062
▁Special	-10.2065
▁answers	-10.2066
▁obligations	-10.2082
▁evaluation	-10.2091
▁student	-10.2095
▁Health	-10.2097
▁grain	-10.2098
▁Jury	-10.2098
▁competent	-10.2098
▁Long	-10.2099
▁obscene	-10.21
▁recommended	-10.2101
▁471	-10.2103
▁interpreted	-10.2106
▁431	-10.2107
▁hereby	-10.2109
▁76	-10.2118
▁348	-10.2122
▁95	-10.2126
▁influence	-10.213
▁decline	-10.2131
public	-10.2134
▁adequately	-10.215
▁timely	-10.2162
Crim	-10.2165
▁Jackson	-10.2192
▁Francisco	-10.2192
▁Security	-10.2192
▁Houston	-10.2192
▁inspection	-10.2192
▁double	-10.2193
▁executive	-10.2193
▁399	-10.2194
▁selected	-10.2195
▁net	-10.2197
▁152	-10.22
▁considerable	-10.2203
▁328	-10.2204
▁1962	-10.2208
▁307	-10.2229
▁Lee	-10.2245
▁interested	-10.2254
▁justification	-10.2281
▁demonstrated	-10.2281
▁Yet	-10.2287
▁undisputed	-10.2288
▁Again	-10.2288
▁sufficiency	-10.2288
▁worked	-10.2289
▁don	-10.2296
▁143	-10.2305
▁contemplated	-10.2307
▁354	-10.2335
▁today	-10.2342
▁cover	-10.2343
▁gives	-10.2361
▁complain	-10.2363
▁drive	-10.2377
▁453	-10.2381
▁conference	-10.2381
▁sir	-10.2383
▁Virgin	-10.2383
▁acquittal	-10.2383
▁passenger	-10.2383
▁Bankruptcy	-10.2383
▁behind	-10.2383
▁percentage	-10.2383
▁probation	-10.2383
▁Gonzalez	-10.2384
▁suppression	-10.2384
▁Douglas	-10.2385
▁led	-10.2386
▁gambling	-10.2386
▁proceeded	-10.2406
▁rests	-10.2417
▁64	-10.2418
▁reduce	-10.2434
▁1962,	-10.2442
▁applicants	-10.247
▁passage	-10.2475
▁role	-10.2475
▁reduction	-10.2479
▁Black	-10.248
▁victim	-10.248
▁Jersey	-10.248
▁annual	-10.2481
▁Thereafter	-10.2481
▁penalty	-10.2482
▁Stewart	-10.2483
▁Old	-10.2483
▁367	-10.2487
▁furnished	-10.249
▁vehicles	-10.2502
▁add	-10.2504
▁convinced	-10.2515
▁occasions	-10.2516
▁eliminate	-10.2517
▁authorize	-10.2518
ite	-10.2519
▁bearing	-10.2519
▁resolve	-10.2521
▁abused	-10.2562
▁careful	-10.2563
▁increased	-10.2567
▁disputed	-10.2575
▁Chapter	-10.2578
▁unusual	-10.2578
▁curtailment	-10.2579
▁observation	-10.2579
▁HUD	-10.2579
▁Coleman	-10.258
▁relation	-10.258
▁citizen	-10.258
▁establishment	-10.2581
▁classified	-10.2581
▁presentation	-10.2581
▁Scott	-10.2583
2.	-10.2592
▁violating	-10.2597
9,	-10.2599
▁Islands	-10.2602
▁listed	-10.2603
▁eases	-10.2619
▁201	-10.2624
▁answered	-10.2628
▁fault	-10.2661
▁awards	-10.2661
▁Park	-10.2666
▁contact	-10.2667
▁inherent	-10.2675
▁homestead	-10.2677
▁possibly	-10.2677
▁facility	-10.2677
▁version	-10.2677
▁background	-10.2677
▁eligibility	-10.2678
▁Trust	-10.2678
▁reorganization	-10.2679
▁chance	-10.2683
▁Fisher	-10.2683
▁dealt	-10.2686
▁1969).	-10.2687
▁62	-10.2694
▁451	-10.2697
▁promulgated	-10.2699
▁released	-10.2702
▁wanted	-10.2702
▁Control	-10.2703
mple	-10.2723
CA	-10.2729
▁1969.	-10.2737
▁narrow	-10.2746
▁central	-10.2754
▁blacks	-10.2762
▁ascertain	-10.2767
▁inferences	-10.2768
▁saying	-10.2776
▁fiduciary	-10.2777
▁Bendix	-10.2777
▁mistrial	-10.2777
▁selection	-10.2778
▁plus	-10.2778
▁transferred	-10.2779
▁suspect	-10.2779
▁professional	-10.2783
▁shop	-10.2783
▁Clause	-10.2784
▁53	-10.2785
▁Great	-10.2809
▁emphasized	-10.2812
appellees	-10.2819
▁wherein	-10.2821
4	-10.2824
▁mark	-10.2871
▁Shapiro	-10.2878
▁449	-10.2881
▁forfeiture	-10.2882
▁surrounding	-10.2882
▁369	-10.2883
▁1973).	-10.289
▁approve	-10.292
ent	-10.2922
▁disregard	-10.2928
▁1968).	-10.2935
▁prices	-10.2944
▁loans	-10.2951
▁effectively	-10.2955
Reg	-10.2957
5	-10.2958
1.	-10.2961
▁456	-10.2962
▁wrongful	-10.2964
▁traditional	-10.2964
▁arises	-10.2966
▁331	-10.297
▁Highway	-10.298
▁EPA	-10.298
▁permission	-10.298
▁obscenity	-10.2981
▁Prior	-10.2982
▁Ray	-10.2984
▁339	-10.2984
▁grievance	-10.2986
▁inadequate	-10.299
▁county	-10.2993
▁Dec	-10.2995
▁forward	-10.2998
▁tort	-10.3019
▁help	-10.3039
men	-10.3056
▁photographs	-10.3064
▁default	-10.307
▁refer	-10.3072
▁Docket	-10.3084
▁theories	-10.3084
▁ordinarily	-10.3084
▁partnership	-10.3084
▁444	-10.3085
▁revocable	-10.3085
▁Defense	-10.3087
▁threat	-10.3087
▁bag	-10.309
▁location	-10.309
▁356	-10.309
▁aspect	-10.309
▁parent	-10.309
▁depend	-10.3101
▁errors	-10.3111
▁312	-10.3115
▁structure	-10.3128
supplemental	-10.313
▁155	-10.3141
▁429	-10.3146
▁153	-10.3147
▁partial	-10.315
▁Plan	-10.3181
▁315	-10.3182
▁wide	-10.3185
▁464	-10.3187
▁minor	-10.3188
▁Cimmino	-10.3188
▁imposition	-10.3188
▁regulatory	-10.3188
▁upheld	-10.3188
▁warehouse	-10.3188
▁Frank	-10.3189
▁appointment	-10.3189
▁supply	-10.319
▁439	-10.3191
▁declaration	-10.3194
▁Motor	-10.3195
▁210	-10.3201
▁warning	-10.3202
Stat	-10.3203
▁rulings	-10.3205
▁respects	-10.3206
▁Hill	-10.3214
▁inso	-10.3249
▁437	-10.3261
▁portions	-10.3266
0	-10.3268
▁Bell	-10.3271
▁441	-10.3289
▁mortgage	-10.3291
▁laid	-10.3293
▁advertising	-10.3293
▁extension	-10.3293
▁week	-10.3293
▁ownership	-10.3294
▁Miranda	-10.3294
▁situated	-10.3295
▁food	-10.3296
▁355	-10.3297
▁Mich	-10.3297
▁457	-10.33
▁contributor	-10.3311
▁etc	-10.3319
▁shortly	-10.3335
▁287	-10.3339
▁375	-10.335
Tenth	-10.3372
1,	-10.3382
▁differ	-10.3386
▁Social	-10.3399
▁million	-10.3399
▁Pittsburgh	-10.34
▁Decision	-10.34
▁likelihood	-10.34
▁Appendix	-10.3406
5.	-10.3406
▁358	-10.3406
6,	-10.3411
▁teachers	-10.3412
▁lien	-10.3412
▁Environment	-10.3413
▁333	-10.3415
▁producer	-10.3416
▁476	-10.3421
▁arrived	-10.3421
▁Services	-10.3424
▁misrepresentati	-10.3439
ton	-10.3448
▁sue	-10.3456
▁prosecuted	-10.3457
ii	-10.3468
▁99	-10.3471
▁participated	-10.3477
land	-10.3482
▁instruct	-10.3484
▁pipelines	-10.3487
▁skill	-10.3489
▁gain	-10.349
▁enforced	-10.3493
Mr	-10.3504
▁Nevertheless	-10.3507
▁identify	-10.3507
▁beginning	-10.3507
▁entrapment	-10.3507
▁Arkansas	-10.3507
▁segregation	-10.3507
▁felony	-10.3508
▁¶	-10.3508
▁Bill	-10.3509
▁338	-10.351
▁merger	-10.3511
▁Alaska	-10.3511
▁examiner	-10.3513
▁nine	-10.3514
▁41	-10.3514
▁Indiana	-10.3516
▁Employer	-10.3518
▁opposed	-10.3521
▁distinguished	-10.3527
▁wages	-10.3533
z	-10.354
▁attempts	-10.3544
▁observe	-10.3554
▁exchange	-10.3559
off	-10.3567
▁shift	-10.3574
▁97	-10.3583
▁cut	-10.3599
▁mention	-10.3605
▁Parole	-10.3615
▁preceding	-10.3615
▁qualify	-10.3615
▁Jordan	-10.3616
▁185	-10.3616
▁crucial	-10.3618
▁size	-10.362
▁submission	-10.3623
▁Other	-10.3625
▁document	-10.3627
▁Standard	-10.3628
▁female	-10.3629
▁427	-10.3629
2,	-10.3645
▁Hav	-10.3647
0,	-10.3655
▁workers	-10.3655
▁forms	-10.3656
ence	-10.367
▁design	-10.3673
▁engage	-10.3676
ia	-10.368
▁103	-10.368
any	-10.3691
▁sign	-10.3698
▁steps	-10.3707
▁amendments	-10.3708
▁254	-10.3718
▁Cleveland	-10.3726
▁respective	-10.3726
▁463	-10.3727
▁Rock	-10.3728
▁442	-10.3728
▁332	-10.373
▁(1962)	-10.373
▁religion	-10.3733
▁debts	-10.3734
▁content	-10.3738
▁Dyer	-10.3738
▁arose	-10.3738
▁Appeal	-10.3739
▁anyone	-10.3756
▁Line	-10.3759
▁370	-10.3762
▁dollars	-10.3769
▁types	-10.3775
▁144	-10.378
▁365	-10.3807
▁causes	-10.381
▁jail	-10.3822
▁inform	-10.3831
▁mutual	-10.3836
▁Clayton	-10.3837
▁Warren	-10.3837
▁membership	-10.3838
)(5)	-10.3838
▁regarded	-10.3841
▁whenever	-10.3844
▁revealed	-10.3845
▁admissibility	-10.3845
▁continuance	-10.3846
▁possessed	-10.3847
▁hence	-10.3847
Harold	-10.3849
▁physician	-10.385
▁premise	-10.3851
▁instituted	-10.3853
▁radio	-10.3856
▁364	-10.3863
▁433	-10.3872
▁336	-10.3876
▁Cooper	-10.3876
▁Peter	-10.3879
▁Mc	-10.3892
▁asserting	-10.3894
ial	-10.3904
▁304	-10.3923
▁names	-10.3924
▁safe	-10.3929
▁420	-10.393
▁main	-10.3934
▁39	-10.3938
▁virtue	-10.3949
▁combination	-10.3949
▁Reversed	-10.3949
▁Business	-10.3949
▁Interstate	-10.3949
▁contrast	-10.3949
▁bail	-10.395
▁Sterling	-10.395
▁Exhibit	-10.3951
▁FPC	-10.3952
▁suspended	-10.3955
for	-10.3959
▁sort	-10.396
▁promotion	-10.396
▁arise	-10.3962
▁Officer	-10.3972
▁acceptance	-10.3976
▁reopening	-10.3977
half	-10.3987
▁454	-10.3991
▁309	-10.3993
▁dis	-10.4005
▁presents	-10.4013
▁(1965).	-10.4023
▁s	-10.4027
▁exceed	-10.4028
▁relates	-10.4032
▁1959	-10.4045
▁treat	-10.4045
▁inmates	-10.4045
▁Standards	-10.405
▁human	-10.4061
▁382	-10.4062
▁Alabama	-10.4062
▁execution	-10.4062
▁Railway	-10.4063
▁fit	-10.4063
▁Amtrak	-10.4063
▁leaving	-10.4063
▁induce	-10.4063
▁EEOC	-10.4063
▁liberty	-10.4063
▁373	-10.4065
▁445	-10.4065
incrimination	-10.4072
▁claiming	-10.4073
▁foundation	-10.4073
▁punishment	-10.4074
▁meant	-10.4074
▁116	-10.4075
▁interference	-10.4076
▁enterprise	-10.4077
▁fear	-10.4078
▁Walter	-10.4078
▁persuaded	-10.4082
▁claimant	-10.4085
▁driver	-10.4086
▁addressed	-10.4086
▁confined	-10.4086
▁normally	-10.4089
▁344	-10.4091
▁plainly	-10.4092
▁1960	-10.4093
▁soon	-10.4097
▁319	-10.4108
▁inmate	-10.4113
▁thereon	-10.4113
▁(1961)	-10.4114
▁prosecute	-10.4118
▁space	-10.4126
▁assure	-10.4132
▁draw	-10.4135
▁Trade	-10.4136
out	-10.4143
dissenting	-10.4154
▁defraud	-10.4164
▁legally	-10.4168
▁grievances	-10.4171
▁Harv	-10.4174
▁aspects	-10.4177
▁branch	-10.4177
▁welfare	-10.4177
CIO	-10.4178
▁intervention	-10.4178
▁Sherman	-10.4178
▁perjury	-10.4179
▁■	-10.4179
▁465	-10.418
▁compelling	-10.4181
▁Ross	-10.4183
▁hour	-10.4184
▁362	-10.4185
▁explicitly	-10.419
▁task	-10.4193
▁deduction	-10.4195
▁proposal	-10.4197
▁step	-10.4199
▁subjected	-10.4208
▁across	-10.4214
▁got	-10.4221
▁Newman	-10.4225
▁306	-10.4226
▁1958	-10.4229
▁Supp	-10.423
▁War	-10.4234
▁education	-10.4239
6.	-10.4239
▁pages	-10.424
▁defend	-10.4248
ER	-10.4249
▁sued	-10.4256
▁res	-10.4257
▁101	-10.427
▁achieve	-10.4272
▁contents	-10.428
▁alter	-10.4289
▁Anthony	-10.4294
▁351	-10.4294
▁closing	-10.4295
▁(1958)	-10.4295
▁Estate	-10.4297
▁Parker	-10.4297
▁428	-10.4302
00	-10.4303
▁joined	-10.4307
▁Home	-10.4307
▁prisoners	-10.4313
▁unions	-10.4317
▁enjoined	-10.432
▁suffering	-10.4324
▁waived	-10.4326
▁121	-10.4339
▁345	-10.434
▁$10,000	-10.434
▁Natural	-10.436
▁reporting	-10.4378
▁communications	-10.4383
▁Do	-10.439
▁prospective	-10.4393
▁reaching	-10.4402
▁Commerce	-10.4411
▁Industries	-10.4411
▁Conference	-10.4411
▁bankruptcy	-10.4411
▁Courts	-10.4412
▁properties	-10.4412
▁Zenith	-10.4412
▁understood	-10.4412
▁Commonwealth	-10.4412
▁virtual	-10.4412
▁irrelevant	-10.4412
▁Life	-10.4412
▁mother	-10.4412
▁certification	-10.4413
▁Notice	-10.4413
▁Instead	-10.4414
▁466	-10.4414
▁owed	-10.4415
▁consolidated	-10.4416
▁testing	-10.4417
▁Librium	-10.4417
▁alia	-10.442
▁profits	-10.4426
▁association	-10.4432
▁462	-10.4432
▁421	-10.4433
▁figure	-10.4434
▁d	-10.4435
▁302	-10.4437
▁exhibits	-10.4449
▁road	-10.445
▁cars	-10.4469
▁deprive	-10.447
▁passing	-10.447
▁exclude	-10.4471
▁330	-10.4471
▁425	-10.4479
▁Land	-10.4486
▁(1966).	-10.4488
▁arrests	-10.4506
▁118	-10.4506
Wallace	-10.4506
▁drivers	-10.4513
▁strict	-10.4515
-2	-10.4516
▁implement	-10.4516
▁weeks	-10.4521
▁OPINION	-10.453
▁Protection	-10.453
▁equivalent	-10.453
▁housing	-10.453
▁Virginia	-10.4531
▁collection	-10.4532
proving	-10.4532
▁conferred	-10.4533
▁rejection	-10.4533
▁According	-10.4535
▁incompetent	-10.4537
▁342	-10.4537
▁restricted	-10.4542
▁Indian	-10.4545
▁papers	-10.4546
▁postponement	-10.455
▁firearm	-10.4553
▁Force	-10.4556
▁54	-10.4558
▁475	-10.4567
▁113	-10.457
▁opened	-10.4577
▁Petitioners	-10.4584
▁affecting	-10.4586
▁acquire	-10.46
▁trip	-10.4603
▁amend	-10.4607
▁1965)	-10.4609
▁describe	-10.461
▁crimes	-10.4614
▁patents	-10.4615
▁46	-10.4619
▁protest	-10.4633
time	-10.4633
▁154	-10.4643
▁King	-10.4646
▁High	-10.465
▁essence	-10.4651
▁SBA	-10.4651
▁fide	-10.4651
▁supervision	-10.4651
▁Durham	-10.4651
▁Riss	-10.4651
▁Pub	-10.4652
▁expertise	-10.4652
▁Pacific	-10.4652
▁difficulties	-10.4652
▁ICC	-10.4652
▁438	-10.4655
▁resources	-10.4657
▁assessed	-10.4659
▁Stevens	-10.466
▁constructed	-10.466
▁photograph	-10.466
▁consist	-10.466
▁pleaded	-10.466
▁229	-10.4665
▁452	-10.467
▁ordinance	-10.4673
▁sources	-10.4674
▁client	-10.4675
▁half	-10.4676
▁Comm	-10.4678
▁custom	-10.4681
▁418	-10.4693
▁representations	-10.4694
▁manager	-10.4694
▁move	-10.4712
▁b	-10.4728
u	-10.4738
▁Counts	-10.4738
▁claimants	-10.4756
w	-10.476
ner	-10.4771
der	-10.4771
▁Deputy	-10.4773
▁Minnesota	-10.4773
▁behavior	-10.4773
▁cargo	-10.4773
▁involvement	-10.4773
▁Alyeska	-10.4774
▁presumably	-10.4774
▁accompanie	-10.4774
▁Oct	-10.4775
▁448	-10.4776
▁o	-10.4779
▁establishes	-10.4781
ney	-10.4783
▁picketing	-10.4784
capable	-10.4788
▁More	-10.4795
▁Hall	-10.4797
▁prohibition	-10.4798
▁Not	-10.4806
▁346	-10.482
ine	-10.4821
▁press	-10.4825
▁hear	-10.4826
▁167	-10.4844
▁judgments	-10.4862
related	-10.4867
▁disciplin	-10.4872
▁book	-10.488
▁exact	-10.488
▁Lines	-10.4882
▁departments	-10.4884
▁247	-10.4889
▁else	-10.4896
▁Sennott	-10.4896
▁inapplicable	-10.4896
▁Stockton	-10.4896
▁Terry	-10.4897
▁deliberate	-10.4897
▁AFL	-10.4897
▁key	-10.49
▁therefor	-10.49
▁472	-10.4902
was	-10.4905
rs	-10.4919
▁Reed	-10.4919
▁Judgment	-10.4921
▁occur	-10.4923
▁352	-10.4928
▁52	-10.493
▁corporations	-10.4939
▁Commissioners	-10.4939
▁321	-10.4942
▁pleading	-10.4947
▁consistently	-10.4947
▁440	-10.4955
▁den	-10.4955
▁325	-10.4963
▁Carl	-10.4967
▁dispose	-10.4974
called	-10.4997
▁104	-10.4999
▁respond	-10.4999
▁negative	-10.5006
▁wish	-10.5007
▁functions	-10.5019
▁BOARD	-10.5021
▁cocaine	-10.5021
▁silence	-10.5021
▁Arizona	-10.5021
▁jeopardy	-10.5021
▁Commercial	-10.5022
▁living	-10.5022
▁Agency	-10.5022
▁Klein	-10.5022
▁Center	-10.5022
▁Sec	-10.5023
▁serving	-10.5023
▁chief	-10.5024
▁join	-10.5024
▁381	-10.5025
▁455	-10.5027
▁359	-10.5028
vailability	-10.5028
me	-10.503
▁467	-10.5039
▁294	-10.5042
▁96	-10.5042
▁Post	-10.5045
▁Ga	-10.5045
▁136	-10.505
▁Rogers	-10.5053
▁145	-10.5066
▁197	-10.5077
ithout	-10.5084
▁cease	-10.5086
▁t	-10.5115
▁schedule	-10.5115
▁entering	-10.513
▁concurrent	-10.5131
▁Bar	-10.5133
▁Motors	-10.5139
▁traffic	-10.514
▁promise	-10.5142
▁chose	-10.5145
▁Will	-10.5147
▁JOHN	-10.5148
▁Welfare	-10.5148
▁Reynolds	-10.5148
▁Northern	-10.5148
▁Restatement	-10.5148
▁scene	-10.5149
▁Warden	-10.5149
▁1975	-10.5149
▁void	-10.5152
▁334	-10.5154
▁vary	-10.5157
▁searches	-10.5158
▁223	-10.5158
▁187	-10.5159
▁tender	-10.5161
▁informer	-10.5162
▁426	-10.5164
▁priority	-10.5169
▁communication	-10.5179
▁director	-10.518
▁474	-10.5181
ought	-10.5184
.1972).	-10.5185
▁hands	-10.5187
ized	-10.52
▁respondents	-10.5208
▁scheduled	-10.521
▁168	-10.5214
1971);	-10.5223
▁Ry	-10.5224
▁38	-10.5225
▁furnish	-10.5225
▁leading	-10.5232
if	-10.5232
▁debate	-10.5241
▁Laws	-10.5242
▁residents	-10.5245
▁exercis	-10.5252
▁forum	-10.5255
▁Brief	-10.5259
▁ear	-10.5269
▁concur	-10.5276
▁beneficiary	-10.5276
▁deficiency	-10.5276
▁Wisconsin	-10.5276
▁requisite	-10.5277
▁reliability	-10.5277
▁excessive	-10.5278
▁Adams	-10.528
readily	-10.528
▁affairs	-10.5281
▁stipulated	-10.5281
▁159	-10.5281
▁317	-10.5286
▁374	-10.5287
▁lesser	-10.5288
ve	-10.5288
▁225	-10.5296
▁376	-10.5297
▁brother	-10.5307
▁miles	-10.5307
▁shot	-10.5308
▁109	-10.5311
▁Thos	-10.5315
▁publication	-10.5316
▁owners	-10.5329
▁200	-10.5337
▁310	-10.5339
▁directions	-10.5349
ous	-10.535
▁501	-10.5358
▁293	-10.5367
▁places	-10.537
▁Fort	-10.5371
▁313	-10.5371
▁470	-10.5372
▁desire	-10.5379
▁lay	-10.5388
▁rational	-10.5396
▁Puer	-10.5406
▁surveillance	-10.5406
▁Loan	-10.5406
▁Safety	-10.5406
▁Utah	-10.5406
▁kept	-10.5406
▁interim	-10.5407
▁1857	-10.5408
▁Peoria	-10.5408
▁distinguishable	-10.541
▁inadmissible	-10.5411
▁published	-10.5411
▁Ark	-10.5411
▁prosecutions	-10.5413
▁Div	-10.5417
▁Mf	-10.5426
▁mailed	-10.5426
▁responded	-10.5428
▁infer	-10.5433
ever	-10.5435
▁151	-10.5437
▁advantage	-10.5438
▁male	-10.544
▁footnote	-10.5441
▁resident	-10.5443
▁qualifications	-10.5444
▁274	-10.5448
8,	-10.5448
▁Food	-10.5452
▁Hearing	-10.5452
▁really	-10.5467
▁357	-10.5469
▁invoke	-10.5476
ting	-10.5479
▁interfere	-10.5481
▁218	-10.5486
▁146	-10.5486
▁faced	-10.5492
4.	-10.5513
▁repair	-10.5521
▁speak	-10.5523
ally	-10.5532
▁municipal	-10.5536
▁460	-10.5537
▁Class	-10.5538
▁Detroit	-10.5538
▁People	-10.5538
▁Whitmore	-10.5538
▁expiration	-10.5538
▁Abbott	-10.5538
▁confinement	-10.5538
▁Nathan	-10.5538
▁Atlanta	-10.5538
▁pool	-10.5539
▁Gray	-10.5539
▁Haven	-10.554
▁447	-10.5541
▁applicability	-10.5542
▁goes	-10.5542
▁losses	-10.5543
▁458	-10.5543
▁supplement	-10.5547
▁360	-10.5547
▁Pilot	-10.5572
▁holds	-10.5572
▁utilized	-10.5572
▁allowance	-10.5576
▁44	-10.5577
▁significantly	-10.5598
▁4.	-10.5601
▁Fla	-10.5605
▁domicile	-10.5609
▁En	-10.5625
(2)	-10.5632
19	-10.5636
▁lie	-10.564
▁relate	-10.5647
▁Now	-10.5655
-5(	-10.5657
ability	-10.5661
ant	-10.5663
▁refers	-10.5663
▁Aetna	-10.5671
▁analogous	-10.5671
▁opposition	-10.5671
▁basket	-10.5671
▁deference	-10.5671
▁France	-10.5671
▁Cooperative	-10.5671
▁passengers	-10.5672
▁confronted	-10.5678
▁complied	-10.5679
▁318	-10.5679
▁indirectly	-10.5688
▁120	-10.5697
▁hardship	-10.5704
▁lot	-10.5708
▁picture	-10.5708
▁opening	-10.571
.00	-10.5717
▁249	-10.5732
▁range	-10.5732
▁361	-10.5732
▁288	-10.574
▁176	-10.5742
▁reveals	-10.5745
▁develop	-10.5752
):	-10.5762
▁290	-10.5765
▁figures	-10.5782
▁guarantee	-10.5783
which	-10.5783
▁complex	-10.5804
▁detention	-10.5806
▁Taylor	-10.5806
▁spent	-10.5806
▁occurring	-10.5806
▁concluding	-10.5806
▁crew	-10.5806
▁testator	-10.5806
▁unemployment	-10.5807
▁remedial	-10.5807
▁implementation	-10.5807
▁Canadian	-10.5809
▁1934	-10.5809
▁fairness	-10.581
▁Vol	-10.5813
▁192	-10.5818
▁payable	-10.5823
▁CO	-10.5831
▁119	-10.5834
▁fuel	-10.5836
▁Their	-10.5837
▁objected	-10.5841
▁reservation	-10.5844
▁consequence	-10.5845
▁134	-10.5849
▁send	-10.5852
itting	-10.5854
▁largely	-10.5867
▁closed	-10.5868
▁compare	-10.5869
▁references	-10.5875
▁representing	-10.5886
▁324	-10.589
V	-10.5901
▁ill	-10.5903
▁distinguish	-10.5909
co	-10.591
▁farm	-10.5911
▁148	-10.5915
▁play	-10.5918
▁experts	-10.5927
▁restrict	-10.5929
per	-10.5931
▁Los	-10.594
▁Stein	-10.5941
▁CORPORATION	-10.5943
▁innocence	-10.5943
▁Mutual	-10.5943
▁Leasing	-10.5943
▁uniform	-10.5943
▁Transportation	-10.5943
▁reversible	-10.5944
▁Powell	-10.5944
▁efficient	-10.5944
▁Fox	-10.5944
▁emergency	-10.5944
▁moving	-10.5945
▁conform	-10.5945
▁Marshall	-10.5945
▁Certainly	-10.5947
▁349	-10.5949
▁RE	-10.5966
▁governed	-10.5971
▁id	-10.5979
▁River	-10.5982
▁Senator	-10.5982
▁modification	-10.5983
▁250	-10.599
▁metal	-10.5992
▁invoked	-10.6007
▁namely	-10.6008
▁nom	-10.6009
▁desired	-10.601
▁rape	-10.6017
▁disposed	-10.6018
▁represents	-10.602
▁Nee	-10.6024
0.	-10.6025
▁intervene	-10.6026
▁fourth	-10.6026
▁137	-10.6028
▁suffer	-10.6032
▁102	-10.6038
-1	-10.604
be	-10.6046
▁211	-10.6049
▁282	-10.6049
▁353	-10.6049
▁remove	-10.6058
▁urge	-10.6063
▁prompt	-10.6066
▁exhaust	-10.6067
▁TO	-10.6068
▁start	-10.6071
▁stop	-10.6075
▁Albert	-10.6081
▁Murphy	-10.6082
▁width	-10.6082
▁misconduct	-10.6082
▁Yonan	-10.6082
▁Consequently	-10.6082
▁controls	-10.6085
▁419	-10.6086
supervisory	-10.6086
▁434	-10.6086
▁frequently	-10.6088
dvisory	-10.6089
▁survey	-10.6108
▁counter	-10.611
▁wire	-10.6119
▁division	-10.612
▁remarks	-10.612
▁235	-10.6121
▁Rhode	-10.6123
▁precedent	-10.6125
▁Midwest	-10.6129
▁restrictions	-10.6131
▁174	-10.6134
▁262	-10.6135
▁closely	-10.6136
▁promote	-10.6151
▁pertain	-10.6157
▁classifications	-10.6161
▁demands	-10.617
▁305	-10.617
de	-10.6177
▁cast	-10.6188
▁Cole	-10.6188
▁128	-10.6193
This	-10.62
▁124	-10.6208
▁repeated	-10.6215
▁preserve	-10.6215
▁Okl	-10.6216
▁psychiatri	-10.6219
▁reasoned	-10.622
Mo	-10.6221
▁Mississippi	-10.6223
▁competing	-10.6223
▁curiam	-10.6223
▁identity	-10.6223
▁indemnity	-10.6223
▁running	-10.6223
▁cancellation	-10.6223
NATIONAL	-10.6223
▁meprobamate	-10.6223
▁fell	-10.6223
▁Review	-10.6223
▁pain	-10.6225
▁speedy	-10.6226
▁advice	-10.6231
▁Present	-10.6242
▁contest	-10.6249
▁2000	-10.625
▁343	-10.6251
▁enactment	-10.6261
▁461	-10.6267
▁stockholders	-10.6274
▁132	-10.6275
▁item	-10.6279
▁1967).	-10.6307
▁hire	-10.6309
▁135	-10.6309
▁separately	-10.6312
▁certificates	-10.6312
▁manifest	-10.6314
▁reopen	-10.6316
▁1953	-10.6322
▁241	-10.6329
▁admit	-10.6332
▁432	-10.6342
▁Hart	-10.6343
▁Rev	-10.6345
▁recall	-10.6352
If	-10.6354
▁willing	-10.6358
▁322	-10.6359
▁263	-10.6365
▁offering	-10.6365
▁Gardner	-10.6366
▁Society	-10.6366
▁fiscal	-10.6366
▁proximate	-10.6366
▁Policy	-10.6366
▁Chairman	-10.6366
▁Vietnam	-10.6367
▁surface	-10.6367
▁outset	-10.6367
▁frivolous	-10.6367
▁(1964).	-10.6368
▁308	-10.637
▁let	-10.637
▁Citizens	-10.6371
ell	-10.6374
▁methods	-10.6376
▁processes	-10.6378
▁conflicting	-10.6379
▁takes	-10.6379
▁incorporated	-10.6392
▁323	-10.6397
▁285	-10.6398
▁defect	-10.6411
▁offender	-10.6412
▁417	-10.6413
▁110	-10.6415
▁calls	-10.6419
▁emphasis	-10.6423
▁mailing	-10.6426
▁guaranteed	-10.643
▁1964)	-10.644
▁recorded	-10.6441
▁maintaining	-10.6449
▁ignore	-10.6453
▁familiar	-10.646
▁Ins	-10.6464
▁differences	-10.6465
▁trustees	-10.6472
▁169	-10.6494
▁Desp	-10.6509
▁retail	-10.6509
▁Airlines	-10.6511
▁moment	-10.6511
▁definite	-10.6511
ley	-10.6513
▁groups	-10.6514
▁possess	-10.6514
▁Employees	-10.6516
▁acceptable	-10.6518
▁378	-10.6522
▁shooting	-10.6523
▁secret	-10.6526
▁couple	-10.6527
▁marked	-10.6531
state	-10.6537
▁257	-10.6542
▁privileges	-10.6544
▁uphold	-10.6552
▁mistake	-10.6553
▁jointly	-10.6554
▁variance	-10.6556
▁rev	-10.6557
▁superior	-10.6558
▁consumer	-10.6559
▁Drug	-10.656
▁emission	-10.656
▁expenditure	-10.656
▁327	-10.6561
▁141	-10.6561
▁Nov	-10.6564
▁licensee	-10.6581
▁questioning	-10.6582
▁(1959)	-10.6583
▁(6)	-10.6587
▁supervisor	-10.6591
▁205	-10.6593
▁regulate	-10.6597
irreparable	-10.66
▁advise	-10.6601
▁files	-10.6608
▁413	-10.6609
▁devices	-10.6617
▁ST	-10.6636
▁calling	-10.664
▁progress	-10.6641
▁attend	-10.6649
udicial	-10.6657
adjacent	-10.6658
▁disadvantage	-10.6658
▁Stanley	-10.6658
▁CLARK	-10.6658
▁approving	-10.6658
▁completion	-10.6658
▁Agriculture	-10.6658
▁collision	-10.6658
▁Rico	-10.6658
▁authorizing	-10.6658
▁society	-10.6658
▁Turner	-10.6659
▁sworn	-10.6659
▁harmless	-10.6661
▁duly	-10.6662
▁bona	-10.6663
▁destroyed	-10.667
▁202	-10.667
▁binding	-10.6677
▁Be	-10.6679
.1972)	-10.6689
▁distance	-10.6705
▁hundred	-10.6705
▁origin	-10.6705
▁uses	-10.6706
▁clerk	-10.6707
▁comes	-10.6716
▁188	-10.6736
▁219	-10.6736
▁interpret	-10.6744
7.	-10.6747
▁Le	-10.6755
▁299	-10.6764
▁289	-10.6777
▁success	-10.6785
▁focus	-10.6787
▁searched	-10.679
▁1954	-10.6794
▁terminate	-10.6795
▁435	-10.6801
▁Panhandle	-10.6807
▁Austin	-10.6807
▁Baltimore	-10.6807
▁easily	-10.6807
▁resort	-10.6807
▁struck	-10.6807
▁Reserve	-10.6807
▁Garcia	-10.6807
▁enforcing	-10.6807
▁involuntary	-10.6807
▁Lawrence	-10.6808
▁exhaustion	-10.6808
▁seaman	-10.6809
▁Day	-10.681
▁415	-10.6811
▁prosecuting	-10.6811
▁abandoned	-10.6811
▁affirmance	-10.6813
▁citing	-10.6814
▁competitive	-10.6815
▁171	-10.6816
▁thereunder	-10.6816
▁individually	-10.6816
▁someone	-10.6819
▁Trustee	-10.6824
▁promptly	-10.6824
▁discretionary	-10.6827
▁139	-10.6828
▁precisely	-10.6835
▁125	-10.684
▁cites	-10.6846
▁omission	-10.6859
ke	-10.6868
tion	-10.6879
▁Regulations	-10.688
ical	-10.6893
see	-10.691
▁162	-10.6912
▁buy	-10.6919
▁inside	-10.6922
▁127	-10.6927
▁213	-10.6933
hereinafter	-10.6935
appointed	-10.6935
concurring	-10.6935
▁explicit	-10.6942
▁threats	-10.6949
Rec	-10.6956
▁distinct	-10.6957
▁stations	-10.6957
▁authorizes	-10.6958
▁unique	-10.6958
▁category	-10.6958
▁Express	-10.6958
▁copies	-10.6958
▁Angeles	-10.6959
▁Nebraska	-10.6959
▁certiorari	-10.6959
▁outcome	-10.6959
▁reconsideration	-10.6959
▁disagreement	-10.6959
▁203	-10.696
▁innocent	-10.696
▁clothing	-10.6961
▁happened	-10.6962
News	-10.6963
▁Griffin	-10.6963
▁320	-10.6964
▁accomplish	-10.6964
▁reflects	-10.6972
?”	-10.6972
▁242	-10.6978
▁(1963).	-10.6979
▁coming	-10.6983
▁123	-10.6985
ish	-10.6986
▁command	-10.6992
▁222	-10.6993
▁monthly	-10.6994
▁(1960)	-10.6996
▁acres	-10.6997
▁block	-10.7012
▁Trimble	-10.7012
▁beliefs	-10.7017
▁221	-10.7024
▁233	-10.7028
over	-10.7033
▁173	-10.7055
ter	-10.7062
▁directing	-10.7065
with	-10.7069
:00	-10.707
ur	-10.7074
▁FOR	-10.7077
▁259	-10.708
▁determinations	-10.7087
▁silent	-10.7094
▁Ex	-10.7103
▁(1973)	-10.7105
▁f	-10.711
▁Stefano	-10.7112
▁Transamerica	-10.7112
▁Crimaldi	-10.7112
▁elsewhere	-10.7112
▁FTC	-10.7112
▁occurrence	-10.7113
▁Richardson	-10.7114
▁utility	-10.7115
▁positive	-10.7116
▁412	-10.7116
▁Valium	-10.7118
▁enunciated	-10.7118
▁300	-10.713
▁useful	-10.7131
▁149	-10.7133
▁derived	-10.7139
▁characterized	-10.7141
▁conversations	-10.715
▁Well	-10.7154
age	-10.7156
▁329	-10.7157
▁pressure	-10.7168
▁assessment	-10.7169
(1)	-10.7182
▁Or	-10.7184
▁alternatives	-10.7197
▁Car	-10.7207
ro	-10.7215
▁prepare	-10.7218
wood	-10.7229
▁ch	-10.724
▁Hous	-10.7244
much	-10.7246
▁Kan	-10.7247
▁450	-10.7248
▁deliver	-10.725
▁constructive	-10.7254
▁experienced	-10.7256
▁416	-10.7259
▁297	-10.7263
▁Petition	-10.7267
▁specify	-10.7268
▁spouse	-10.7268
▁insanity	-10.7269
▁legislature	-10.7269
▁impeachment	-10.7269
▁Allied	-10.7269
▁Another	-10.7269
▁probability	-10.7269
▁woman	-10.7269
▁imposing	-10.727
▁fifth	-10.727
▁Harry	-10.7271
▁outstanding	-10.7271
▁VAN	-10.7273
▁(“	-10.7274
▁vested	-10.7275
▁classes	-10.728
▁adduced	-10.7283
▁Once	-10.7286
▁larger	-10.7286
▁consiste	-10.7287
upplemental	-10.7293
▁returns	-10.7309
▁217	-10.7317
▁evening	-10.7325
▁motive	-10.7329
▁contribution	-10.7331
▁concedes	-10.7332
ra	-10.7332
▁Mar	-10.7353
▁withdraw	-10.7383
▁campaign	-10.7388
▁Unions	-10.7422
▁(1957)	-10.7423
▁observations	-10.7426
▁curiae	-10.7427
▁subsidiaries	-10.7427
▁Freight	-10.7427
▁Employment	-10.7427
▁confusion	-10.7427
▁introduction	-10.7427
▁accretion	-10.7427
▁Morrissey	-10.7427
▁Swanson	-10.7427
▁Rodman	-10.7427
▁duration	-10.7428
▁minimal	-10.7428
AMP	-10.7428
▁built	-10.7428
▁Pay	-10.7429
▁flow	-10.7429
▁Gulf	-10.7429
▁withdrawal	-10.7431
▁chosen	-10.7431
▁142	-10.7431
▁x	-10.7432
▁SGA	-10.7432
▁363	-10.7434
▁amicus	-10.7439
▁248	-10.7446
▁1966).	-10.7448
▁Lt	-10.7453
▁meaningful	-10.7456
▁associated	-10.746
▁253	-10.7464
▁registrants	-10.7467
end	-10.7469
▁422	-10.747
▁Did	-10.7474
▁198	-10.7484
▁Mineral	-10.7485
▁theft	-10.7486
▁prevented	-10.7488
▁prerequisite	-10.7488
▁operator	-10.749
▁commitment	-10.7491
▁circumstance	-10.7491
▁Ward	-10.7513
▁Cases	-10.752
▁patients	-10.7521
▁discriminate	-10.7527
▁excuse	-10.7528
▁163	-10.7538
▁224	-10.7538
▁freight	-10.7573
▁selective	-10.7573
▁Radio	-10.7576
Cir	-10.7577
▁112	-10.7578
▁rent	-10.758
▁adhere	-10.758
▁Impact	-10.7588
▁punitive	-10.7588
▁sheriff	-10.7588
▁oath	-10.7588
▁Memorandum	-10.7589
▁continuous	-10.7589
▁Admin	-10.7589
▁Jurisdiction	-10.7589
▁illness	-10.7589
▁boxes	-10.7589
▁destruction	-10.759
▁Younger	-10.759
▁trier	-10.759
▁therefrom	-10.7592
▁Legal	-10.7592
▁destroy	-10.7595
▁(1954)	-10.7596
▁elected	-10.7598
.1971).	-10.7601
▁respectively	-10.7613
▁500	-10.7613
▁anticipated	-10.7614
▁179	-10.762
right	-10.7621
▁sometimes	-10.7622
▁Appella	-10.7626
▁183	-10.7631
ory	-10.7647
▁computer	-10.7649
▁deferment	-10.765
▁admissions	-10.765
▁arbitrator	-10.7651
▁college	-10.7652
▁423	-10.766
▁relying	-10.7672
▁introduce	-10.7692
ling	-10.7694
▁performing	-10.7696
▁430	-10.7697
▁expenditures	-10.7697
▁1960,	-10.7707
▁240	-10.7721
▁organizations	-10.7726
ian	-10.773
court	-10.773
▁entertain	-10.774
▁purport	-10.774
side	-10.7743
ey	-10.7743
▁2255	-10.7747
▁147	-10.7749
▁Penitentiary	-10.7752
▁Tennessee	-10.7752
▁judicata	-10.7752
▁KDI	-10.7752
▁misdemeanor	-10.7752
▁ROSS	-10.7753
▁impermissible	-10.7753
▁Nelson	-10.7753
EPH	-10.7753
▁Later	-10.7754
▁Bryant	-10.7754
▁234	-10.7754
▁fatal	-10.7756
▁Management	-10.7758
▁printed	-10.7758
▁overruled	-10.7761
▁rulemaking	-10.7762
▁326	-10.7763
▁organized	-10.7767
OFFI	-10.777
▁repeatedly	-10.7772
▁(1973).	-10.7775
▁dates	-10.7776
▁266	-10.7779
▁strongly	-10.7793
▁Corrections	-10.7797
▁exclusively	-10.7799
▁counterclaim	-10.7806
▁158	-10.7808
▁route	-10.7821
▁shipment	-10.7821
▁accorded	-10.7825
▁patient	-10.7825
▁assured	-10.7827
▁165	-10.7832
▁limiting	-10.7833
▁unlawfully	-10.7836
▁emissions	-10.7863
ry	-10.7866
▁160	-10.7874
▁modify	-10.7882
BELL	-10.7895
▁convey	-10.7902
▁117	-10.7903
▁311	-10.7911
▁366	-10.7916
▁Young	-10.7918
▁Rubin	-10.7918
▁Small	-10.7919
▁bankrupt	-10.7919
▁Wuensche	-10.7919
▁cement	-10.7919
▁opportunities	-10.7919
▁pollution	-10.7919
▁Walker	-10.7919
▁Morgan	-10.7919
▁Apparently	-10.7919
▁speculative	-10.7919
▁desirable	-10.792
▁Hayes	-10.792
▁Marine	-10.792
▁Assuming	-10.792
▁manufacture	-10.7921
▁raising	-10.7922
▁bills	-10.7923
▁reserve	-10.7927
▁accompanying	-10.7932
▁su	-10.7945
▁Mary	-10.7949
▁talk	-10.7965
defendant	-10.7966
▁systems	-10.7967
ee	-10.7979
▁lose	-10.7981
llowing	-10.7982
▁newspaper	-10.7988
▁restraint	-10.7993
▁demonstrates	-10.7994
et	-10.8006
▁94	-10.8025
▁grants	-10.8034
▁199	-10.8034
▁215	-10.8037
▁172	-10.8039
▁214	-10.8051
▁prepar	-10.8064
▁Join	-10.8065
▁perfect	-10.8068
▁objects	-10.807
▁Doe	-10.8071
▁extreme	-10.8074
ating	-10.8082
placing	-10.8087
▁Delaware	-10.8089
▁restaurant	-10.8089
▁technology	-10.8089
▁Columbus	-10.8089
▁Kahan	-10.8089
▁likewise	-10.8089
▁Henry	-10.8089
▁Grant	-10.8089
▁impression	-10.8089
▁citizenship	-10.809
▁certainty	-10.809
▁Metropolitan	-10.809
▁thorough	-10.809
▁extraordinary	-10.809
▁voting	-10.809
▁Heck	-10.8091
▁adoption	-10.8091
▁XI	-10.8092
▁rear	-10.8092
▁inability	-10.8095
▁learned	-10.8095
▁105	-10.8097
▁referr	-10.8097
▁informal	-10.8098
▁prescribe	-10.81
▁licensed	-10.8103
▁employers	-10.8103
cy	-10.8107
▁measures	-10.8109
▁top	-10.811
▁Ashe	-10.8113
▁How	-10.8118
▁rested	-10.8121
▁arranged	-10.8122
▁demanded	-10.8127
▁283	-10.8128
▁414	-10.8134
▁227	-10.8143
▁Case	-10.815
▁easement	-10.8158
▁package	-10.8159
▁157	-10.816
▁idea	-10.8161
▁hope	-10.8161
ist	-10.8174
▁cart	-10.8175
▁liberal	-10.8187
▁138	-10.8194
ending	-10.8195
▁195	-10.8199
▁frame	-10.8199
▁convince	-10.82
Ann	-10.8218
▁forces	-10.8234
▁internal	-10.8243
▁convincing	-10.8244
▁unsuccessful	-10.8244
▁conclusive	-10.8245
▁load	-10.8246
▁subpoena	-10.8247
▁expect	-10.8248
▁depends	-10.8252
▁(1958).	-10.8259
▁undoubted	-10.8261
responsibilities	-10.8261
▁Cottle	-10.8261
▁Greensphan	-10.8261
▁LABOR	-10.8261
▁Mexico	-10.8261
▁SMITH	-10.8261
▁drove	-10.8261
▁interlocutory	-10.8261
▁married	-10.8261
▁reputation	-10.8261
▁twice	-10.8261
▁Westerman	-10.8261
▁Chemical	-10.8261
▁Gordon	-10.8261
▁Shepard	-10.8261
▁probate	-10.8261
▁CAB	-10.8261
▁violence	-10.8261
▁Bethlehem	-10.8262
▁Wagner	-10.8262
▁Independent	-10.8262
▁entertainment	-10.8262
▁lineup	-10.8263
▁stopped	-10.8265
▁incorrect	-10.8267
▁Cross	-10.8269
▁warrants	-10.8272
▁Tenn	-10.8272
▁filled	-10.8274
▁extremely	-10.8278
▁316	-10.8281
▁238	-10.8285
▁Va	-10.8286
▁reflected	-10.8287
▁numbers	-10.8289
▁articles	-10.8292
▁voters	-10.8292
▁units	-10.8294
▁Ann	-10.8299
▁contributed	-10.8301
▁walk	-10.8305
▁inclusion	-10.8305
▁Pursuan	-10.8312
▁falls	-10.8313
▁prohibits	-10.8314
▁140	-10.8319
▁arm	-10.8319
▁228	-10.8321
▁pick	-10.8323
▁covering	-10.8327
▁manufacturers	-10.8328
▁$1	-10.833
▁begin	-10.8334
▁adjustment	-10.8338
▁volume	-10.834
▁creditor	-10.8345
▁asking	-10.8351
▁216	-10.8356
▁1965).	-10.8362
▁111	-10.837
▁314	-10.8373
▁Sp	-10.8376
▁cure	-10.8377
▁depositions	-10.8378
▁settle	-10.8378
▁pursue	-10.8384
▁194	-10.8388
▁....	-10.8398
▁(1962).	-10.84
▁import	-10.8411
50	-10.8414
▁accurate	-10.8421
▁divide	-10.843
▁Patrol	-10.8435
▁scrutiny	-10.8436
▁Three	-10.8437
▁separation	-10.8437
▁departure	-10.8437
▁pension	-10.8437
▁handling	-10.8438
▁petitions	-10.8442
▁transported	-10.8444
▁overall	-10.8445
▁298	-10.8449
▁accomplished	-10.8456
▁taxpayers	-10.8459
▁estimated	-10.8462
▁disputes	-10.8462
▁303	-10.8463
▁reveal	-10.8464
▁ineffective	-10.8465
▁summarized	-10.8466
▁revoked	-10.8472
▁292	-10.8476
▁wear	-10.8477
▁My	-10.8479
▁Jacobs	-10.848
▁107	-10.8482
▁approached	-10.8483
▁Minn	-10.8485
▁255	-10.849
▁leaves	-10.8516
▁expectation	-10.8516
▁shareholder	-10.8517
▁offices	-10.8526
Cal	-10.8548
*	-10.8549
▁Red	-10.8556
▁construct	-10.8563
▁lies	-10.857
▁280	-10.8576
ENSON	-10.8577
▁#	-10.8596
▁retroactive	-10.8598
▁196	-10.8602
▁protecting	-10.8605
▁environment	-10.8607
▁resist	-10.8614
▁trouble	-10.8615
Footnote	-10.8615
▁BRIGHT	-10.8615
▁Chevron	-10.8615
▁monopoly	-10.8615
▁Duvall	-10.8615
▁Realty	-10.8615
▁redress	-10.8615
▁Falk	-10.8615
▁fellow	-10.8615
▁whatsoever	-10.8615
▁scientific	-10.8615
▁deceased	-10.8615
▁machinery	-10.8615
▁Hunter	-10.8616
▁Mechanical	-10.8616
▁box	-10.8616
▁comparable	-10.8616
▁Given	-10.8617
▁LAY	-10.8617
▁Additionally	-10.862
▁eventually	-10.862
▁Donald	-10.862
▁480	-10.8623
▁Stone	-10.8624
▁705	-10.8624
▁stores	-10.8627
▁Your	-10.8628
▁willfully	-10.8636
▁emphasize	-10.8637
▁exactly	-10.8639
▁determines	-10.8651
▁doubts	-10.8654
▁269	-10.8656
▁129	-10.8658
▁1952	-10.8671
▁291	-10.868
under	-10.8692
▁arrangements	-10.8693
▁revenue	-10.8697
▁ticket	-10.8698
▁installment	-10.8698
▁SLUP	-10.8699
▁Finding	-10.87
▁psychiatrist	-10.8701
▁267	-10.8701
.1970)	-10.872
▁251	-10.8722
▁investigate	-10.8734
▁111.	-10.8737
▁distribute	-10.8737
"	-10.8739
▁newly	-10.874
▁Bo	-10.874
▁con	-10.8745
▁fashion	-10.8746
▁boards	-10.8749
▁Hearings	-10.875
▁warranted	-10.8766
five	-10.8782
lin	-10.8783
▁252	-10.8789
▁intend	-10.8792
▁accepting	-10.8794
▁Authority	-10.8797
▁PELL	-10.8797
▁heavily	-10.8797
▁injustice	-10.8797
▁privacy	-10.8797
▁Kroger	-10.8797
▁Leonard	-10.8797
▁Loft	-10.8797
▁PepsiCo	-10.8797
▁twelve	-10.8797
▁helpful	-10.8797
▁quantity	-10.8797
▁Arthur	-10.8797
▁issuing	-10.8797
▁guidance	-10.8798
▁aggrieved	-10.8798
▁storage	-10.8798
▁Cardi	-10.88
▁682	-10.8804
▁Light	-10.8806
▁confirmed	-10.8806
▁Page	-10.8807
▁reasonableness	-10.8813
▁Van	-10.8814
▁Fred	-10.8819
▁1963)	-10.8822
▁133	-10.8823
▁177	-10.8823
▁furtherance	-10.8825
▁severe	-10.8835
▁ago	-10.8837
▁281	-10.886
▁dictate	-10.8861
▁245	-10.8867
▁interrogation	-10.8876
▁candidate	-10.8883
▁admitt	-10.8884
45	-10.8895
8.	-10.8897
▁earning	-10.8898
ward	-10.8902
▁pump	-10.8927
▁inappropriate	-10.8939
▁212	-10.8952
reasonable	-10.8957
▁son	-10.8963
▁tape	-10.8964
▁es	-10.8977
▁vague	-10.8982
elephone	-10.8982
▁Debtor	-10.8982
▁HEANEY	-10.8982
▁Manufacturing	-10.8982
▁Orleans	-10.8982
▁efficiency	-10.8982
▁garage	-10.8982
▁Diego	-10.8982
▁Forbes	-10.8982
▁Patrick	-10.8982
▁Puco	-10.8982
▁Sanders	-10.8982
▁afternoon	-10.8982
▁clarification	-10.8982
▁poor	-10.8983
▁balancing	-10.8983
▁fifteen	-10.8983
▁accidental	-10.8983
▁inventory	-10.8985
▁Morris	-10.8987
▁FSL	-10.8988
▁Scher	-10.8988
▁nonetheless	-10.8989
▁688	-10.8989
▁misleading	-10.8993
▁contested	-10.9
▁547	-10.9003
am	-10.9004
▁161	-10.9005
▁strictly	-10.9008
▁178	-10.9009
▁initiated	-10.9012
▁forty	-10.9019
RT	-10.9024
▁looked	-10.9025
▁231	-10.9033
▁speaking	-10.9034
▁affirming	-10.9035
▁guide	-10.9036
▁seriously	-10.9047
▁plane	-10.9055
▁Americans	-10.9057
▁Wood	-10.9059
▁relieve	-10.9065
▁franchise	-10.9071
▁1957	-10.9073
▁Sol	-10.9075
examine	-10.9084
▁bid	-10.9088
▁lacking	-10.9092
ING	-10.9094
▁166	-10.9103
▁246	-10.9103
▁periods	-10.9104
▁190	-10.9106
▁litigate	-10.911
▁constitut	-10.9112
▁Action	-10.913
▁communicate	-10.9138
▁Wis	-10.9146
Fla	-10.9149
ost	-10.9149
where	-10.9155
▁attach	-10.9156
▁appoint	-10.9157
▁206	-10.9161
OLD	-10.9163
▁relations	-10.9169
▁affiant	-10.9171
▁competency	-10.9171
▁interrogatories	-10.9171
▁reply	-10.9171
▁Medical	-10.9171
▁convenience	-10.9171
▁multiple	-10.9171
▁installation	-10.9171
▁procurement	-10.9171
▁lend	-10.9171
▁extradition	-10.9171
▁satisfactory	-10.9172
▁workmen	-10.9176
▁undue	-10.9178
▁Corning	-10.9178
▁gone	-10.9183
▁legality	-10.9183
▁483	-10.9184
▁subjective	-10.9189
▁exhausted	-10.9189
▁started	-10.919
▁tendered	-10.9191
▁Works	-10.9194
▁businesses	-10.9194
▁presumed	-10.9196
hough	-10.9205
▁live	-10.9207
▁pounds	-10.9217
▁realized	-10.922
▁Salt	-10.923
▁exceeding	-10.9232
▁Me	-10.9235
▁speed	-10.9248
▁126	-10.9255
▁Clerk	-10.9262
▁ballot	-10.9264
▁Associates	-10.9265
▁violat	-10.9272
▁verdicts	-10.9273
light	-10.928
▁quo	-10.9283
▁goal	-10.9285
▁admittedly	-10.9285
tic	-10.9295
▁Penn	-10.9297
▁listing	-10.93
▁defects	-10.93
▁escape	-10.9302
▁train	-10.9311
▁243	-10.9315
▁discipline	-10.9316
80	-10.9323
coming	-10.9344
▁convict	-10.9349
we	-10.9354
▁willful	-10.9358
▁impartial	-10.9362
▁fifty	-10.9363
▁pistol	-10.9363
▁thrust	-10.9363
▁opposing	-10.9363
▁industrial	-10.9363
▁invitation	-10.9363
▁OCAW	-10.9363
▁contingent	-10.9363
▁Quase	-10.9363
▁sexual	-10.9363
▁Application	-10.9363
▁Wade	-10.9364
▁Collins	-10.9364
▁Specifically	-10.9364
▁occupied	-10.9365
▁quasi	-10.9365
▁prosecutorial	-10.9365
▁Krebiozen	-10.9365
▁Hoffmann	-10.9366
▁replied	-10.9366
▁1981	-10.9366
▁undertaken	-10.9368
▁assess	-10.9369
▁265	-10.9369
ons	-10.9371
▁McGee	-10.9371
▁286	-10.9372
▁mechanical	-10.9373
▁expired	-10.9375
▁Whiting	-10.9375
▁conclusively	-10.9381
hortly	-10.9386
▁Mills	-10.939
▁ready	-10.9394
▁whereas	-10.9399
▁prevail	-10.9408
▁Lum	-10.9408
▁attacked	-10.9412
commencement	-10.9419
Z	-10.9424
▁accounting	-10.9424
ll	-10.9425
▁details	-10.9431
▁meetings	-10.9439
▁510	-10.9443
▁assign	-10.9447
▁commissions	-10.9467
▁Goode	-10.9468
▁assurance	-10.9483
▁Grand	-10.9488
▁bases	-10.9516
ative	-10.9522
wide	-10.9526
▁175	-10.9529
law	-10.9529
Ill	-10.953
▁formed	-10.9533
▁females	-10.9538
▁sides	-10.9542
▁caution	-10.9545
▁evident	-10.9547
▁1973	-10.955
▁Investment	-10.9559
▁Montana	-10.9559
▁suffice	-10.9559
▁probative	-10.9559
▁administrator	-10.9559
▁corroboration	-10.9559
▁Burke	-10.9559
▁Jansen	-10.9559
▁Ralph	-10.9559
▁square	-10.9559
▁Feinberg	-10.9559
▁Total	-10.9559
▁Credit	-10.956
▁severance	-10.956
▁remainder	-10.956
▁novel	-10.956
▁commodity	-10.956
▁subsidiary	-10.956
▁Simmons	-10.956
▁Matter	-10.956
▁story	-10.9561
▁overwhelming	-10.9561
▁throw	-10.9561
▁reliable	-10.9563
▁Jack	-10.9563
▁501(	-10.9564
▁invalidity	-10.9564
▁broader	-10.9569
▁earned	-10.9571
▁inches	-10.9572
▁visited	-10.9573
▁Deal	-10.9574
▁Clean	-10.9578
▁Mine	-10.9585
substantial	-10.9585
▁hereinafter	-10.9589
▁1968.	-10.959
▁institutions	-10.9593
▁suppressed	-10.9594
ping	-10.9598
▁Associate	-10.9599
▁recommendations	-10.9602
▁facto	-10.9604
▁overt	-10.9612
▁inspectors	-10.9619
▁defenses	-10.962
▁constitution	-10.9629
▁avoided	-10.9631
▁defines	-10.9642
▁279	-10.9645
▁fill	-10.9649
▁center	-10.9651
▁solicitation	-10.9653
▁256	-10.9654
▁replacement	-10.9654
▁choose	-10.966
▁implication	-10.966
▁Regulation	-10.9662
▁Claim	-10.9664
▁114	-10.968
▁237	-10.9681
▁stands	-10.9688
▁supervisors	-10.9688
▁270	-10.9698
▁Then	-10.9709
▁272	-10.9713
▁(1946)	-10.9715
▁parte	-10.9721
▁180	-10.9731
foot	-10.9736
month	-10.9742
▁Hampshire	-10.9759
▁Sioux	-10.9759
▁recognizing	-10.9759
▁Nucor	-10.9759
▁Bloomgarden	-10.9759
▁Craven	-10.9759
▁securing	-10.9759
▁Rothbart	-10.9759
▁Finance	-10.9759
▁circumstantial	-10.9759
▁Bartee	-10.9759
▁Institute	-10.9759
▁Kentucky	-10.9759
▁Sandoval	-10.9759
▁Morton	-10.9759
▁RWDSU	-10.9759
▁automatically	-10.9759
▁integrity	-10.9759
▁AEC	-10.9759
crow	-10.9759
▁overcome	-10.9759
▁181	-10.976
▁cell	-10.976
▁determinative	-10.976
▁Immigration	-10.976
▁unknown	-10.976
▁respectfully	-10.9762
▁attendance	-10.9763
▁effectiveness	-10.9765
▁Area	-10.9765
▁thereupon	-10.9766
▁191	-10.9766
▁connected	-10.9767
▁Due	-10.9768
LATIONS	-10.9768
)(1)(	-10.9769
▁hereafter	-10.9771
▁lengthy	-10.9771
▁239	-10.9776
▁sums	-10.978
▁specifications	-10.9782
▁recited	-10.9783
▁proven	-10.9784
▁193	-10.9785
▁j	-10.9786
▁deliberately	-10.9787
line	-10.9792
▁543	-10.9793
▁1962)	-10.9797
▁visit	-10.981
▁Conn	-10.9817
▁buildings	-10.982
▁277	-10.9835
▁moral	-10.9848
▁calendar	-10.9857
▁lawsuit	-10.9859
▁instrument	-10.986
▁finance	-10.9861
▁endorsement	-10.9862
▁shipowner	-10.9864
▁Carrier	-10.9865
▁friend	-10.9865
▁lieu	-10.9889
▁perceive	-10.99
▁coat	-10.9908
▁register	-10.9911
▁fix	-10.9914
▁caus	-10.9915
ex	-10.9915
.1969)	-10.9924
▁Accord	-10.9927
▁492	-10.9927
▁engag	-10.9929
ard	-10.9933
▁research	-10.9934
▁recognizes	-10.9939
▁withhold	-10.9942
▁warnings	-10.9949
▁plead	-10.9956
▁Casualty	-10.9963
▁Diamond	-10.9963
▁Hercules	-10.9963
▁opposite	-10.9963
▁Wigmore	-10.9963
▁penalties	-10.9963
▁pregnancy	-10.9963
▁Brotherhood	-10.9963
▁Perkins	-10.9963
▁Rheingold	-10.9963
▁mis	-10.9963
▁vacation	-10.9964
▁blood	-10.9964
▁producing	-10.9964
▁young	-10.9965
▁Nash	-10.9965
▁Sullivan	-10.9966
La	-10.9967
▁Moss	-10.9969
▁Lead	-10.9969
▁Banc	-10.9971
▁271	-10.9972
▁260	-10.9981
▁logical	-10.9986
▁None	-10.9991
io	-10.9993
▁interviewed	-10.9997
▁posed	-11.0001
▁handled	-11.0011
▁reviewable	-11.0014
▁negotiated	-11.0014
li	-11.0023
▁operates	-11.0028
aritime	-11.0029
▁recording	-11.0033
▁Fire	-11.0034
9.	-11.0037
▁Dist	-11.0043
▁regulated	-11.0052
rbert	-11.0052
K	-11.0053
▁objectives	-11.0064
▁606	-11.0067
▁confrontation	-11.0067
▁276	-11.0067
▁illegitimate	-11.0071
▁164	-11.0083
▁contributions	-11.0091
ler	-11.0095
tally	-11.0114
▁fired	-11.0116
▁broadcast	-11.0132
.1971),	-11.0146
etary	-11.0151
▁1966.	-11.0151
▁implicit	-11.0155
▁Carr	-11.0156
▁defer	-11.0163
aid	-11.0164
▁corn	-11.017
▁Transport	-11.0171
▁BAZELON	-11.0171
▁Borrero	-11.0171
▁Charlotte	-11.0171
▁Connecticut	-11.0171
▁Miami	-11.0171
▁Treasury	-11.0171
▁liabilities	-11.0171
▁participating	-11.0171
▁Graham	-11.0171
▁remote	-11.0171
▁fourteen	-11.0172
▁variety	-11.0172
▁Church	-11.0172
▁valuation	-11.0172
▁Brady	-11.0172
▁CBR	-11.0173
▁arguably	-11.0173
▁dual	-11.0173
▁inferred	-11.0173
▁cooperation	-11.0173
▁Paper	-11.0175
▁retrial	-11.0175
▁undertaking	-11.0176
▁committing	-11.0176
▁withheld	-11.0176
▁copyright	-11.0177
everal	-11.0177
▁514	-11.018
▁obviousness	-11.018
▁administered	-11.0182
▁487	-11.0184
▁deposited	-11.0185
▁Subsequently	-11.0187
▁715	-11.019
▁quot	-11.0194
▁exceeded	-11.0196
▁died	-11.0197
▁tool	-11.0199
71	-11.02
▁Fact	-11.02
▁predicated	-11.0203
▁levels	-11.0204
lan	-11.0208
▁273	-11.0212
▁safeguards	-11.0216
▁affirmatively	-11.0228
▁subordinate	-11.0228
▁amounted	-11.0228
▁apart	-11.024
im	-11.0244
”)	-11.0253
▁discussing	-11.0255
▁bread	-11.0259
▁increases	-11.0261
▁1955	-11.0262
defendants	-11.027
▁comparison	-11.0278
▁concludes	-11.0278
▁leased	-11.028
é	-11.028
iii	-11.0282
▁accounts	-11.0283
▁Motion	-11.0285
▁wall	-11.0287
▁236	-11.0288
▁maintains	-11.0288
▁freely	-11.0289
▁Findings	-11.0289
▁mine	-11.0298
▁deposit	-11.0306
▁purchases	-11.0311
▁secrets	-11.0313
▁liquid	-11.0323
▁foreclose	-11.0325
▁clauses	-11.0337
▁284	-11.0338
ful	-11.0347
▁Am	-11.0362
western	-11.0369
▁unlike	-11.0369
▁enact	-11.0382
▁extra	-11.0382
▁hit	-11.0382
▁1933	-11.0383
▁Command	-11.0384
▁guardian	-11.0384
▁automatic	-11.0384
▁Club	-11.0384
▁Dallas	-11.0384
▁Playskool	-11.0384
▁notify	-11.0384
▁Savings	-11.0384
▁composition	-11.0384
▁methodology	-11.0384
▁Behrens	-11.0384
▁diligence	-11.0384
▁Scarpa	-11.0385
▁foreman	-11.0385
▁sixty	-11.0385
▁clerical	-11.0385
▁bare	-11.0386
▁composed	-11.0386
▁complainant	-11.0386
▁creating	-11.0386
▁Herman	-11.0387
▁unavailable	-11.0387
orld	-11.0388
15	-11.0388
▁supposed	-11.0389
▁Norman	-11.039
▁601	-11.0391
▁ambiguous	-11.0391
▁1361	-11.0393
▁defeat	-11.0393
▁Broadcasting	-11.0394
▁106	-11.0394
▁phone	-11.0403
▁Glass	-11.0405
▁infringed	-11.0409
▁Steele	-11.0411
▁USS	-11.0414
▁296	-11.0416
▁Brooks	-11.042
berg	-11.0422
▁278	-11.0425
▁regularly	-11.0426
▁1962).	-11.0431
▁bombs	-11.0436
▁230	-11.0448
▁founded	-11.0452
▁156	-11.0471
▁nation	-11.0494
▁bids	-11.0496
▁civilian	-11.0499
▁predecessor	-11.0502
▁recipient	-11.0502
▁hazard	-11.0505
▁achieved	-11.0506
▁275	-11.0508
▁eliminated	-11.052
▁mon	-11.0538
▁effectuate	-11.0539
▁625	-11.0576
▁clean	-11.0576
▁err	-11.0587
▁parents	-11.0589
▁186	-11.059
▁arguing	-11.0602
▁daughter	-11.0602
▁driving	-11.0602
▁suspicion	-11.0602
▁Kennedy	-11.0602
▁England	-11.0602
▁university	-11.0602
▁League	-11.0602
▁abstention	-11.0602
▁bottom	-11.0602
▁regulating	-11.0602
▁ABA	-11.0602
▁movement	-11.0602
▁College	-11.0603
▁Meyer	-11.0603
▁Crane	-11.0603
▁milk	-11.0603
▁sovereign	-11.0604
▁Kelly	-11.0604
▁apportioned	-11.0604
▁conformity	-11.0604
▁summons	-11.0607
▁VIII	-11.0608
▁Sept	-11.0608
▁preventing	-11.0608
▁bidding	-11.0609
▁evade	-11.0611
▁130	-11.0612
▁Hence	-11.0612
▁devote	-11.0616
▁bars	-11.0642
▁allows	-11.0644
▁facilitate	-11.0654
▁Simon	-11.0655
▁permanently	-11.0662
▁recovered	-11.0663
▁Zia	-11.0666
clear	-11.0667
2(	-11.0667
▁295	-11.0669
are	-11.0672
▁Al	-11.0674
▁discloses	-11.0694
▁erroneously	-11.0707
▁aboard	-11.0711
▁refund	-11.0721
il	-11.0738
▁spoke	-11.0742
▁264	-11.0743
old	-11.075
▁offers	-11.0755
▁Base	-11.0763
▁locate	-11.0763
▁collect	-11.0768
▁construe	-11.0777
▁Truck	-11.0787
▁170	-11.0789
▁display	-11.0791
▁1947	-11.0792
▁207	-11.08
shall	-11.0807
▁quote	-11.0809
▁assumes	-11.0815
▁Pipe	-11.0823
▁peculiar	-11.0824
▁DOWDY	-11.0824
▁beneficiaries	-11.0824
▁refrain	-11.0824
▁striking	-11.0824
▁Fraley	-11.0824
▁SETH	-11.0824
▁Homestead	-11.0824
▁sister	-11.0824
▁competence	-11.0824
▁Hartford	-11.0824
▁Coast	-11.0824
▁reinstatement	-11.0824
▁Dutton	-11.0824
▁Oregon	-11.0824
▁Rotermund	-11.0824
▁Industrial	-11.0824
▁stake	-11.0824
▁Wheeler	-11.0824
▁auto	-11.0824
▁Military	-11.0825
▁merchandise	-11.0825
heretofore	-11.0825
▁ammunition	-11.0826
▁redeem	-11.0826
▁Jett	-11.0828
▁proffered	-11.0829
▁rock	-11.083
▁consequently	-11.0832
▁withdrawn	-11.0832
▁497	-11.0845
▁historical	-11.0845
▁largest	-11.0847
▁9(	-11.0847
▁played	-11.0848
▁obligated	-11.0851
▁turns	-11.0859
▁dissented	-11.087
▁Edwards	-11.087
▁Constitutional	-11.0871
her	-11.0873
▁restored	-11.0875
▁Op	-11.088
▁participants	-11.0881
▁elect	-11.0886
▁racially	-11.089
▁assignments	-11.0891
ir	-11.09
▁banking	-11.0901
▁preserved	-11.0927
▁principally	-11.094
▁Corps	-11.0948
▁broker	-11.0949
▁appraisal	-11.095
▁Opinion	-11.0951
▁model	-11.0953
▁track	-11.0954
▁holdings	-11.0955
▁(1961).	-11.0957
non	-11.0963
▁asset	-11.0972
▁encourage	-11.0989
▁weigh	-11.099
▁entitle	-11.0999
▁margin	-11.1003
▁VI	-11.1005
▁ap	-11.101
].”	-11.1015
▁$5,000	-11.1022
ities	-11.1026
including	-11.1028
▁Subsequent	-11.1037
There	-11.1039
▁lock	-11.1047
▁COMMISSION	-11.1049
▁849	-11.1049
▁contraband	-11.1051
▁hypothetical	-11.1051
▁inquiries	-11.1051
▁pilot	-11.1051
▁retention	-11.1051
▁Price	-11.1051
▁entity	-11.1051
▁Bradley	-11.1051
▁Francis	-11.1051
▁Goldstein	-11.1051
▁boundaries	-11.1051
▁salary	-11.1051
▁Encarnación	-11.1051
▁uncertainty	-11.1051
▁candidacy	-11.1052
▁posture	-11.1052
▁reversing	-11.1052
▁unwarranted	-11.1052
▁laboratory	-11.1052
▁campus	-11.1053
▁getting	-11.1053
▁punishable	-11.1053
▁deductible	-11.1054
▁Maritime	-11.1055
▁6.	-11.1056
▁1964).	-11.1058
▁Plant	-11.1063
▁collected	-11.1065
▁killed	-11.1066
▁589	-11.107
just	-11.1071
▁acknowledged	-11.1072
▁519	-11.1072
▁Party	-11.1072
▁accurately	-11.1073
▁wished	-11.1076
▁combined	-11.1076
▁232	-11.1078
▁testifying	-11.109
▁narrowly	-11.109
▁827	-11.1092
ill	-11.1092
▁(1943)	-11.1094
▁(1948)	-11.1095
▁fixing	-11.1096
▁withholding	-11.1098
▁564	-11.1108
▁foreclosed	-11.1118
field	-11.1119
▁lived	-11.1127
▁distributed	-11.113
ED	-11.1134
.3	-11.1135
▁exceptional	-11.115
▁engineer	-11.115
▁ended	-11.1154
▁Fair	-11.1159
▁independently	-11.1161
▁Program	-11.1165
▁ways	-11.1165
▁Ala	-11.1174
▁Marshal	-11.118
▁Professor	-11.118
▁motivation	-11.1182
▁gift	-11.1183
LE	-11.1183
▁airport	-11.1183
▁Magistrate	-11.1184
▁Daniel	-11.1185
▁undertake	-11.1185
▁narcotic	-11.1186
§	-11.119
▁differential	-11.1191
▁briefly	-11.1194
▁build	-11.1222
▁waive	-11.1224
▁55,	-11.1228
▁impeach	-11.1232
▁rail	-11.1243
^	-11.126
▁Her	-11.1263
▁fulfill	-11.127
▁repeal	-11.127
▁repeat	-11.127
▁strength	-11.1281
▁Negro	-11.1283
▁Arnold	-11.1284
▁Aviation	-11.1284
▁GIBSON	-11.1284
▁Monsanto	-11.1284
▁Municipal	-11.1284
▁judiciary	-11.1284
▁literature	-11.1284
▁pendent	-11.1284
▁coercive	-11.1284
▁Weinstein	-11.1284
▁imprisoned	-11.1284
▁incumbent	-11.1284
▁Jensen	-11.1284
▁coercion	-11.1284
▁indebtedness	-11.1284
nursing	-11.1284
▁Katz	-11.1284
▁relator	-11.1284
▁attributable	-11.1284
▁ACI	-11.1284
▁Carey	-11.1284
▁Amended	-11.1284
▁2)	-11.1285
▁Clearly	-11.1285
▁referee	-11.1285
▁DUTCH	-11.1286
▁Ferguson	-11.1286
▁daily	-11.1286
▁path	-11.1287
▁empowered	-11.1288
▁vital	-11.1289
onald	-11.1289
▁depressant	-11.129
▁ends	-11.1294
▁704	-11.1294
▁attributed	-11.1299
▁479	-11.1302
▁556	-11.1304
▁643	-11.1306
▁Ho	-11.1309
ick	-11.1316
AL	-11.1318
arry	-11.1322
▁Di	-11.1329
30	-11.1331
▁258	-11.1347
▁(1952)	-11.1349
▁warranty	-11.135
▁characteristics	-11.135
▁imply	-11.1351
▁204	-11.1352
▁collectively	-11.1355
▁breached	-11.1356
▁717	-11.1363
▁reserved	-11.137
▁define	-11.137
▁wagers	-11.1372
▁Had	-11.1374
▁machines	-11.1375
▁focuse	-11.1379
▁Greene	-11.1383
▁broadly	-11.1387
▁believes	-11.1392
▁trusts	-11.1399
▁Del	-11.1401
stein	-11.1412
▁robber	-11.1415
ng	-11.1415
▁terminal	-11.1422
ne	-11.1424
▁demonstration	-11.1425
ta	-11.1436
▁Drugs	-11.1442
▁Ten	-11.1458
▁intimate	-11.1459
his	-11.1462
▁tested	-11.1463
ville	-11.1464
▁evaluate	-11.1469
▁kill	-11.1474
▁proposals	-11.1485
▁Wall	-11.1498
▁1964.	-11.15
cover	-11.15
▁Md	-11.1503
▁reconsider	-11.1508
▁suspend	-11.1508
▁wanton	-11.1509
characterization	-11.1509
▁209	-11.1514
▁church	-11.1521
Tongue	-11.1522
▁Kivitz	-11.1522
▁Lohman	-11.1522
▁Lynch	-11.1522
▁Triplett	-11.1522
▁bonus	-11.1522
▁excise	-11.1522
▁purchasing	-11.1522
▁Viles	-11.1522
▁Between	-11.1522
▁Melley	-11.1522
▁Carroll	-11.1522
▁False	-11.1522
▁formula	-11.1522
▁5010(	-11.1522
▁Referee	-11.1522
▁preponderan	-11.1522
▁intentional	-11.1522
▁concealment	-11.1522
▁motorist	-11.1523
▁+	-11.1523
▁accuracy	-11.1523
ptr	-11.1523
▁vigorous	-11.1524
▁municipality	-11.1524
▁Glasser	-11.1524
▁hatch	-11.1524
▁Foster	-11.1524
mply	-11.1526
▁922(	-11.1526
▁Evans	-11.1527
▁usage	-11.1527
1(	-11.1528
▁examining	-11.153
▁taxation	-11.1533
▁Neb	-11.1535
▁paintings	-11.1535
▁557	-11.1535
▁allowable	-11.1538
▁Kenne	-11.1539
▁Rivera	-11.1539
▁unlikely	-11.154
▁592	-11.1541
▁reopened	-11.1544
▁notices	-11.1557
▁weighing	-11.156
▁appropriated	-11.1564
▁ahead	-11.1577
▁Sea	-11.158
ge	-11.1585
▁adult	-11.1597
▁550	-11.1608
▁concede	-11.1608
▁575	-11.161
▁Pre	-11.1615
1972);	-11.162
▁insubstantial	-11.1622
▁leases	-11.1623
▁dangers	-11.1638
▁Se	-11.164
ich	-11.1641
▁SLUPs	-11.1652
▁sanction	-11.1653
▁spot	-11.166
▁deck	-11.1661
▁phase	-11.1663
▁mechanism	-11.1665
▁Crime	-11.1666
▁thousand	-11.1666
▁meat	-11.1667
▁dollar	-11.1674
▁teaching	-11.1678
▁Go	-11.168
90	-11.1687
-8	-11.1688
[	-11.1695
▁save	-11.1701
16	-11.1709
▁scrip	-11.1709
▁ran	-11.1715
▁226	-11.1726
▁1956	-11.1729
▁(1942)	-11.1736
▁manufactur	-11.1743
more	-11.1749
▁erect	-11.1751
ily	-11.1755
▁zone	-11.1755
▁advisory	-11.1756
▁undu	-11.1757
To	-11.1759
▁Cincinnati	-11.1766
▁Courson	-11.1766
▁English	-11.1766
▁Merriam	-11.1766
▁PHILLIPS	-11.1766
▁Tobacco	-11.1766
▁categories	-11.1766
▁juries	-11.1766
▁superintendent	-11.1766
▁depreciation	-11.1766
▁platform	-11.1766
▁dispositive	-11.1766
▁Fowler	-11.1766
▁fluid	-11.1766
▁incarceration	-11.1766
▁foreclosure	-11.1766
▁confidential	-11.1766
▁shipped	-11.1766
▁Coller	-11.1766
▁Final	-11.1766
▁Wong	-11.1766
▁denies	-11.1767
▁Atlantic	-11.1767
▁WRIGHT	-11.1767
▁deceptive	-11.1767
▁Murray	-11.1768
▁salesmen	-11.1769
▁awareness	-11.1769
▁aimed	-11.1771
▁begun	-11.1772
▁condemned	-11.1772
▁52(	-11.1773
▁Engineers	-11.1774
▁1291	-11.1775
▁477	-11.1777
▁doubtful	-11.178
▁weighed	-11.178
▁618	-11.1781
▁Narcotics	-11.1782
▁vice	-11.1783
▁incidents	-11.1786
▁worthless	-11.1792
▁Cox	-11.1793
▁concepts	-11.1808
▁prevailing	-11.1812
▁contractors	-11.1813
▁Dat	-11.1822
▁El	-11.1826
▁possessing	-11.1828
▁subjects	-11.1832
:30	-11.1833
▁ir	-11.1843
▁108	-11.1846
▁cents	-11.1852
▁Int	-11.1855
▁markets	-11.1862
▁questionable	-11.1867
count	-11.1882
▁illegally	-11.1882
▁1331	-11.1897
▁Stephen	-11.1911
▁message	-11.1913
▁fingerprint	-11.1915
▁subdivision	-11.1915
▁attitude	-11.1917
▁eye	-11.1917
▁patentee	-11.1919
▁table	-11.1919
▁rebut	-11.192
▁Farm	-11.192
▁citation	-11.1922
▁deals	-11.1923
▁Dan	-11.1924
la	-11.1924
▁182	-11.1926
-10	-11.1943
▁realize	-11.1957
▁strip	-11.1958
▁agrees	-11.197
▁Process	-11.1979
▁mandated	-11.1985
▁sea	-11.1987
▁interven	-11.1988
▁defin	-11.1994
▁208	-11.1994
party	-11.1995
▁patented	-11.1996
may	-11.1997
▁574	-11.1998
▁confront	-11.2002
▁remember	-11.2004
erial	-11.2009
▁differently	-11.2009
▁Canada	-11.2012
▁Catholic	-11.2016
▁GIBBONS	-11.2016
▁Monroe	-11.2016
▁compulsion	-11.2016
▁deputy	-11.2016
▁neglect	-11.2016
▁satisfaction	-11.2016
▁Connelly	-11.2016
▁Madison	-11.2016
▁Waldron	-11.2016
▁deficiencies	-11.2016
OYLE	-11.2016
▁confidence	-11.2016
▁speculation	-11.2016
▁film	-11.2016
▁Research	-11.2016
▁Governor	-11.2016
▁planning	-11.2016
▁outweigh	-11.2016
▁Frederick	-11.2016
▁apprehension	-11.2016
▁Avenue	-11.2016
▁Perry	-11.2016
)(	-11.2017
▁Family	-11.2017
▁Sanchez	-11.2017
▁typical	-11.2019
▁victims	-11.2019
▁temporarily	-11.2019
▁intercepted	-11.2021
nut	-11.2021
▁expended	-11.2022
▁courtroom	-11.2022
▁694	-11.2027
▁compromise	-11.2031
▁624	-11.2031
▁619	-11.2032
▁725	-11.2041
▁826	-11.2043
▁856	-11.2043
▁Boyd	-11.2046
▁889	-11.2053
▁1961)	-11.2062
▁Respondents	-11.2074
▁702	-11.2074
▁122	-11.2076
▁circuits	-11.2077
▁developing	-11.2086
▁correction	-11.2087
nce	-11.209
▁partners	-11.2105
▁189	-11.2109
▁discriminated	-11.2112
▁Civ	-11.2115
▁consented	-11.212
▁confer	-11.2136
▁503	-11.2136
▁knows	-11.2152
stored	-11.2155
▁inventor	-11.2167
▁airline	-11.2172
▁premium	-11.2174
▁seller	-11.218
▁584	-11.218
▁manufacturer	-11.2182
▁Trustees	-11.2182
▁Good	-11.2205
▁utilize	-11.222
▁parolee	-11.2229
▁Man	-11.2233
▁Hon	-11.2235
▁pursu	-11.2244
equal	-11.2249
▁slight	-11.2256
▁confirm	-11.2258
▁deed	-11.2264
▁NAS	-11.2267
▁eyewitness	-11.2271
▁Roy	-11.2272
▁Israel	-11.2272
▁Lopez	-11.2272
▁Patterson	-11.2272
▁SWYGE	-11.2272
▁Titus	-11.2272
▁apparatus	-11.2272
▁declaring	-11.2272
▁landlord	-11.2272
▁Campbell	-11.2272
▁challenging	-11.2272
▁immaterial	-11.2272
▁Brooklyn	-11.2272
▁FDIC	-11.2272
▁conscience	-11.2272
▁elicit	-11.2272
▁Nashville	-11.2272
▁condemnation	-11.2272
▁Building	-11.2272
▁Wyoming	-11.2272
▁HUNTER	-11.2272
▁Monarch	-11.2272
▁Wiegand	-11.2272
▁enjoyment	-11.2272
▁Burt	-11.2273
▁Berger	-11.2273
▁readiness	-11.2273
▁NASCAR	-11.2274
▁compulsory	-11.2274
▁Colonial	-11.2274
▁CCC	-11.2274
▁piece	-11.2275
▁Cook	-11.2276
▁Fuller	-11.2277
▁723	-11.2277
▁mistaken	-11.2279
▁Communications	-11.2281
▁478	-11.2282
▁heat	-11.2283
▁541	-11.2284
▁485	-11.2285
▁Many	-11.2285
▁strikers	-11.2286
▁484	-11.2287
▁Within	-11.2287
▁Rever	-11.2287
▁652	-11.2288
▁593	-11.2289
▁apportionment	-11.2291
▁727	-11.2292
▁637	-11.2292
▁intentionally	-11.2293
▁conveyed	-11.2293
▁746	-11.2293
▁749	-11.2294
▁Propos	-11.2297
▁697	-11.2297
den	-11.2303
▁837	-11.2304
▁born	-11.2308
▁departmental	-11.2312
▁imposes	-11.2324
▁voted	-11.2327
▁doctors	-11.2327
▁1950	-11.2329
▁60,	-11.2331
▁Ma	-11.2336
▁options	-11.2338
▁529	-11.2357
such	-11.2359
3(	-11.2359
▁formerly	-11.2368
▁manufactured	-11.2381
▁venture	-11.2382
▁indictments	-11.2385
▁Supplement	-11.2394
thing	-11.2397
▁friends	-11.2397
FR	-11.2399
▁exemptions	-11.2403
▁536	-11.2404
▁suggesting	-11.2406
conspirator	-11.2412
▁489	-11.2417
▁north	-11.2418
▁(1947)	-11.2423
▁engine	-11.2432
▁discontinuance	-11.2435
id	-11.2435
nlike	-11.2437
▁131	-11.2442
sory	-11.2445
▁influenced	-11.2446
▁admits	-11.2451
73	-11.2454
▁(18	-11.2461
▁491	-11.2464
▁specially	-11.2474
▁submitt	-11.2474
▁contribute	-11.2474
▁execute	-11.2474
▁Camp	-11.2475
▁purchaser	-11.2477
▁consists	-11.2484
▁administer	-11.249
▁Turn	-11.2491
▁wager	-11.2492
▁Trans	-11.2492
▁homes	-11.2498
▁trans	-11.2506
▁824	-11.2509
defense	-11.2512
four	-11.2513
▁evaluat	-11.2514
▁votes	-11.2518
▁1-	-11.2523
▁rigid	-11.2534
▁Hardin	-11.2534
Brien	-11.2535
▁FEDERAL	-11.2535
▁Munsingwear	-11.2535
▁admiralty	-11.2535
▁constant	-11.2535
▁prudent	-11.2535
▁Nevada	-11.2535
▁Project	-11.2535
▁Tucker	-11.2535
▁Weaver	-11.2535
▁families	-11.2535
▁Basic	-11.2535
▁Parish	-11.2535
ncillary	-11.2535
▁programming	-11.2536
▁Captain	-11.2536
▁Mayhaus	-11.2536
▁Community	-11.2536
▁Road	-11.2536
▁Spector	-11.2536
▁preferred	-11.2536
▁elections	-11.2537
▁Rush	-11.2537
▁considerably	-11.2537
▁wit	-11.2537
▁desist	-11.2537
▁naturalization	-11.2537
▁acquiescence	-11.2537
▁confirmation	-11.2537
▁Martinez	-11.2537
▁urban	-11.2538
▁deferred	-11.2538
▁broken	-11.2539
▁parked	-11.254
▁allocation	-11.2541
▁warned	-11.2542
▁524	-11.2546
▁Damages	-11.2553
▁forged	-11.2561
ON	-11.2564
▁"	-11.2569
hand	-11.2571
ch	-11.2572
▁ON	-11.2576
▁822	-11.2579
▁506	-11.2582
▁932	-11.2583
▁waiting	-11.2584
▁interviews	-11.259
▁Torts	-11.2595
▁Statutes	-11.2595
board	-11.2596
SON	-11.2605
▁sever	-11.2617
▁litigated	-11.2626
ul	-11.2631
-3	-11.2636
▁pursued	-11.2643
▁appealable	-11.2644
▁1954)	-11.265
▁gravel	-11.2651
▁244	-11.2658
▁handle	-11.2664
▁486	-11.2668
▁(1959).	-11.2671
going	-11.2676
▁promised	-11.2677
employee	-11.268
▁appearing	-11.2688
▁indigent	-11.2703
▁feeder	-11.2705
▁deliberation	-11.2707
▁stockholder	-11.2708
▁1951	-11.2708
▁chemical	-11.2708
▁600	-11.2718
▁signal	-11.2722
▁(1960).	-11.2739
▁restrain	-11.275
▁554	-11.2755
▁220	-11.2766
▁advis	-11.2771
▁inquire	-11.2774
▁1983.	-11.2777
existing	-11.2783
union	-11.2784
▁consult	-11.2789
▁increasing	-11.279
▁bind	-11.279
▁drawing	-11.2793
▁leg	-11.2794
▁502	-11.2797
▁nervous	-11.2805
▁Cranston	-11.2805
▁Hodgson	-11.2805
▁convention	-11.2805
▁faculty	-11.2805
▁investigating	-11.2805
▁misplaced	-11.2805
▁proviso	-11.2805
▁territory	-11.2805
▁unaware	-11.2805
▁unsecured	-11.2805
▁McCoy	-11.2806
▁urging	-11.2806
▁Likewise	-11.2806
▁uncertain	-11.2806
▁Torres	-11.2806
▁disease	-11.2806
▁studies	-11.2806
▁Universal	-11.2806
▁HILL	-11.2806
▁supplies	-11.2806
▁3604(	-11.2806
▁CBS	-11.2806
▁resentencing	-11.2806
▁statistical	-11.2806
▁Bruce	-11.2806
▁practicable	-11.2806
▁Toledo	-11.2806
▁Swann	-11.2806
▁liquidation	-11.2806
▁statistics	-11.2807
▁attendant	-11.2807
▁operative	-11.2807
▁acquitted	-11.2808
▁Liability	-11.2808
▁feasible	-11.2808
▁priests	-11.281
▁complains	-11.281
▁covers	-11.2811
▁680	-11.2812
▁Individually	-11.2812
bout	-11.2812
▁944	-11.2815
▁enhance	-11.2815
▁fishing	-11.2816
▁629	-11.2817
▁advertised	-11.2818
▁675	-11.2819
▁adequacy	-11.282
▁801	-11.2821
▁719	-11.2823
▁743	-11.2824
▁invested	-11.2824
▁653	-11.2828
▁747	-11.2828
▁foot	-11.2833
▁535	-11.2833
▁altered	-11.2837
▁causal	-11.2839
▁concurrently	-11.2841
▁609	-11.2843
▁plants	-11.2844
▁tended	-11.2846
▁Use	-11.2852
▁creates	-11.2855
▁Owens	-11.2857
uch	-11.2858
▁BY	-11.286
▁features	-11.2875
led	-11.2879
▁Based	-11.2881
13	-11.2885
▁1967.	-11.2891
▁645	-11.2897
▁credited	-11.2903
▁effected	-11.2907
▁967	-11.2913
▁sixth	-11.292
Cl	-11.2926
iv	-11.2928
State	-11.2931
-13	-11.2933
ny	-11.295
▁risks	-11.2952
▁finder	-11.2953
kin	-11.2959
4(	-11.2963
▁formulation	-11.2977
▁prescription	-11.2984
▁improvement	-11.2984
▁occupant	-11.2985
▁8.	-11.2986
▁restriction	-11.2987
▁lessor	-11.299
▁(1951)	-11.2993
▁(1953)	-11.2995
▁shell	-11.2995
▁partner	-11.2998
▁measured	-11.3008
▁promis	-11.3011
▁750	-11.3013
▁damaged	-11.3019
▁590	-11.3021
▁occurs	-11.3024
▁507	-11.3025
▁firearms	-11.3032
▁Indians	-11.3032
▁continues	-11.3043
well	-11.3051
profit	-11.306
▁honest	-11.3062
-12	-11.3064
▁261	-11.3066
000	-11.3067
▁1960)	-11.3069
▁expand	-11.307
▁(1954).	-11.3071
▁1)	-11.3074
▁563	-11.3074
un	-11.3079
▁pier	-11.3082
▁voice	-11.3083
▁Educ	-11.3083
incriminating	-11.3083
▁Indianapolis	-11.3083
▁relevance	-11.3083
▁unseaworthiness	-11.3083
▁unwilling	-11.3083
▁CTE	-11.3083
▁Mallet	-11.3083
▁destructive	-11.3083
▁Barnes	-11.3083
▁Federation	-11.3083
▁Property	-11.3083
▁Hawaii	-11.3084
▁planned	-11.3084
Prev	-11.3084
▁Anti	-11.3084
▁Horton	-11.3084
▁$500	-11.3084
▁Comment	-11.3084
▁bought	-11.3084
▁causation	-11.3084
▁Becker	-11.3084
▁bedroom	-11.3084
▁Automotive	-11.3085
▁seamen	-11.3085
▁invidious	-11.3085
▁Detective	-11.3085
▁Paragraph	-11.3085
▁Sirbo	-11.3085
▁prurien	-11.3085
▁Obviously	-11.3085
▁Guy	-11.3085
▁Certificate	-11.3086
▁drastic	-11.3086
▁emotional	-11.3086
▁restrictive	-11.3086
▁416(	-11.3087
▁unjust	-11.3088
▁Opportunit	-11.3088
▁Guam	-11.3089
▁correctness	-11.3089
▁Brothers	-11.309
)(4)	-11.309
▁(1957).	-11.3091
▁arraignment	-11.3093
▁947	-11.3093
▁Dollars	-11.3096
▁Chamberlain	-11.3097
▁616	-11.31
▁622	-11.3103
▁soft	-11.3104
▁ban	-11.3107
▁conditional	-11.3113
ford	-11.3114
▁268	-11.3116
▁deep	-11.3124
▁Records	-11.3133
▁accrued	-11.3134
▁701	-11.3149
other	-11.315
ted	-11.3162
▁blank	-11.3165
▁lawyers	-11.3166
▁deliberations	-11.3186
▁525	-11.3187
▁barr	-11.3192
ig	-11.3215
▁522	-11.3215
▁$5	-11.3222
▁511	-11.3223
bsent	-11.3226
▁742	-11.3228
▁528	-11.3246
ide	-11.3262
▁hair	-11.3266
▁window	-11.3267
hould	-11.3271
▁rental	-11.3273
▁consumers	-11.3275
▁Mess	-11.3284
▁Powers	-11.3288
constitutionally	-11.3294
▁repairs	-11.3295
▁7421	-11.3295
▁promulgate	-11.3312
▁negotiate	-11.3317
▁receipts	-11.3322
▁constru	-11.3338
▁expressing	-11.334
white	-11.3343
▁dispos	-11.3346
▁Ben	-11.3347
road	-11.3347
three	-11.3349
▁Th	-11.3353
▁Hoffman	-11.3366
▁east	-11.3367
▁compete	-11.3368
▁Huff	-11.3369
▁Marcel	-11.3369
▁GOLDBERG	-11.3369
▁MILLER	-11.3369
▁TAMM	-11.3369
▁Townsend	-11.3369
▁WISDOM	-11.3369
▁endeavor	-11.3369
▁muscle	-11.3369
▁pendency	-11.3369
▁BARRETT	-11.3369
▁WILKE	-11.3369
▁desegregation	-11.3369
▁Moody	-11.3369
▁Redmont	-11.3369
▁McENTEE	-11.3369
▁cumulative	-11.3369
▁eighteen	-11.3369
▁lapse	-11.3369
▁Territory	-11.3369
▁concrete	-11.3369
▁neighborhood	-11.3369
▁reckless	-11.3369
▁Eugene	-11.3369
▁ambiguity	-11.3369
▁Hamilton	-11.3369
▁unauthorized	-11.3369
▁Boise	-11.3369
▁Speice	-11.337
▁summer	-11.337
▁residential	-11.337
▁dire	-11.337
▁Wrone	-11.337
▁complicated	-11.337
▁foil	-11.337
▁financing	-11.3371
▁middle	-11.3371
▁possesses	-11.3371
▁Raymond	-11.3371
▁recreational	-11.3371
▁basically	-11.3372
▁Rodriguez	-11.3372
▁achievement	-11.3372
▁facial	-11.3372
▁addresses	-11.3374
▁isolated	-11.3374
▁Kent	-11.3375
▁tlie	-11.3375
▁Brennan	-11.3375
▁773	-11.3376
▁1207	-11.3378
▁processed	-11.3378
▁calculated	-11.3382
▁photographic	-11.3383
▁ball	-11.3384
CHER	-11.3387
▁745	-11.3391
▁657	-11.3391
▁Mark	-11.3392
▁^	-11.3398
▁115	-11.34
▁Gold	-11.3404
▁advances	-11.341
▁869	-11.3412
▁receiver	-11.3419
▁indirect	-11.3423
▁tenure	-11.3424
▁yards	-11.3428
so	-11.3429
▁Bay	-11.3429
▁5(	-11.3431
▁Den	-11.3432
protective	-11.3434
▁inquired	-11.3435
Glo	-11.3442
▁apprise	-11.3444
terior	-11.3444
▁commented	-11.3448
▁separated	-11.3474
▁72-16	-11.3476
▁Un	-11.3483
▁tie	-11.3488
▁553	-11.3489
▁Water	-11.3494
▁contracted	-11.3497
▁516	-11.3511
▁545	-11.3529
▁602	-11.3533
▁orderly	-11.3534
EL	-11.3536
▁motives	-11.355
-6	-11.3556
▁liquor	-11.3557
▁riot	-11.3557
▁chair	-11.3562
▁spirit	-11.3562
▁Gross	-11.3563
▁prayer	-11.3563
▁abortion	-11.3564
▁Representative	-11.3564
▁Development	-11.3564
▁stamp	-11.3565
▁482	-11.3579
term	-11.358
▁pictures	-11.3582
ask	-11.3584
▁grounded	-11.3584
14	-11.3587
▁additionally	-11.3591
▁Nat	-11.3594
excluding	-11.36
▁561	-11.3601
▁(1945)	-11.3603
▁restore	-11.3604
▁discover	-11.3605
▁seeming	-11.3605
▁invalidate	-11.3606
▁confine	-11.3608
▁wait	-11.3613
▁Jeff	-11.3618
72	-11.3619
▁break	-11.3625
▁abstract	-11.3639
two	-11.364
whether	-11.364
would	-11.364
▁Juli	-11.3642
On	-11.365
▁receives	-11.3652
▁(7)	-11.3656
ailure	-11.3661
▁bias	-11.3662
▁BROWN	-11.3663
▁Companies	-11.3663
▁FAIRCHILD	-11.3663
▁FEINBERG	-11.3663
▁MATTHES	-11.3663
▁STEVENS	-11.3663
▁Tulsa	-11.3663
▁contributing	-11.3663
▁identifiable	-11.3663
▁impropriety	-11.3663
▁insolvent	-11.3663
▁Indemnity	-11.3663
▁Hardaway	-11.3663
▁Carrington	-11.3663
▁$25,000	-11.3663
▁Gilbert	-11.3663
▁Macklin	-11.3663
▁Jerry	-11.3663
▁comprehensive	-11.3663
▁Aircraft	-11.3663
▁concurred	-11.3663
▁embodie	-11.3663
▁McCarran	-11.3663
▁summarily	-11.3663
▁whiskey	-11.3663
▁adversary	-11.3664
▁harassment	-11.3664
▁Benson	-11.3664
▁unsupported	-11.3664
▁payroll	-11.3664
▁Petroleum	-11.3664
▁Minneapolis	-11.3664
▁Complaint	-11.3664
▁Nagel	-11.3664
▁Perez	-11.3664
▁integration	-11.3664
▁Beach	-11.3664
▁upset	-11.3664
▁devise	-11.3665
▁disclaimer	-11.3665
▁Newark	-11.3665
hearing	-11.3665
▁Bazelon	-11.3666
▁valuable	-11.3666
▁Unless	-11.3669
▁294(	-11.367
▁37,	-11.367
▁concealed	-11.3671
▁mid	-11.3672
▁reality	-11.3673
▁681	-11.3673
▁meaningless	-11.3673
▁incidental	-11.3675
▁Bush	-11.3675
▁60(	-11.3676
▁539	-11.368
▁736	-11.368
▁577	-11.3681
▁669	-11.3681
▁684	-11.3682
▁672	-11.3682
▁Sales	-11.3683
▁763	-11.3689
▁loaded	-11.3689
▁499	-11.3691
▁495	-11.3691
▁outlined	-11.3694
▁Peppers	-11.3694
▁violators	-11.3694
▁notification	-11.3695
▁exposed	-11.3696
▁832	-11.3701
▁Aid	-11.3703
▁contacted	-11.3703
▁reinstated	-11.3712
▁elaborate	-11.3713
▁Was	-11.3714
▁4(	-11.3716
▁kinds	-11.3718
▁828	-11.3719
▁procured	-11.3722
ver	-11.3725
▁walking	-11.3726
▁loading	-11.3729
▁reimburse	-11.3735
▁interpreting	-11.3738
▁520	-11.3741
▁di	-11.3744
▁Stores	-11.3748
▁568	-11.3764
▁1343	-11.377
41	-11.378
▁grade	-11.3798
▁hazards	-11.3799
ure	-11.38
▁713	-11.3803
ol	-11.3803
▁Lane	-11.3804
▁declare	-11.3804
▁favored	-11.3811
there	-11.3813
person	-11.3821
mong	-11.3821
▁3)	-11.3822
▁184	-11.3823
▁investigations	-11.3826
-15	-11.383
MR	-11.3831
▁(1949)	-11.3834
▁803	-11.3842
▁1963).	-11.3849
▁picke	-11.3852
Ga	-11.3853
▁exhibit	-11.3854
▁railroads	-11.3859
▁values	-11.3861
▁companion	-11.3861
▁chain	-11.3862
▁proportion	-11.3862
▁barge	-11.3864
▁Election	-11.3864
▁disorder	-11.3865
▁compound	-11.3866
▁Samuel	-11.3867
▁Time	-11.3867
lo	-11.3869
▁tenant	-11.3873
▁(1952).	-11.3881
▁1957)	-11.3885
▁males	-11.3889
▁examples	-11.3892
▁Pack	-11.3896
▁72-12	-11.3896
▁Capp	-11.3902
ster	-11.3903
▁commonly	-11.3905
▁automobiles	-11.3907
▁Art	-11.3911
▁transport	-11.3916
▁designate	-11.3918
▁1337	-11.392
▁(1944)	-11.3923
▁Blon	-11.3924
judicial	-11.3944
▁structures	-11.3949
Aid	-11.3949
▁intelligent	-11.395
11	-11.3952
▁457,	-11.3957
▁judicially	-11.396
▁peace	-11.3962
▁detriment	-11.3962
▁Ellin	-11.3965
▁ORDER	-11.3966
▁Barbara	-11.3966
▁Creek	-11.3966
▁Memphis	-11.3966
▁PECK	-11.3966
▁colloquy	-11.3966
▁timing	-11.3966
▁Dooling	-11.3966
▁RONEY	-11.3966
▁marijuana	-11.3966
▁Stolberg	-11.3966
▁domestic	-11.3966
▁master	-11.3966
▁DUSEN	-11.3966
▁sponte	-11.3966
▁announcement	-11.3966
▁ourselves	-11.3966
▁annexation	-11.3966
▁altogether	-11.3966
▁hotel	-11.3966
▁Coppola	-11.3967
▁inconsistency	-11.3967
▁obliged	-11.3967
▁knife	-11.3967
▁Terminal	-11.3967
▁McWILLIAMS	-11.3967
▁Manual	-11.3967
▁Shultz	-11.3967
▁detainer	-11.3967
▁uninsured	-11.3967
▁entirety	-11.3967
▁Jarvis	-11.3967
▁stood	-11.3967
▁compensatory	-11.3967
▁progression	-11.3968
▁rough	-11.3969
▁quickly	-11.3969
▁158(	-11.3971
▁Goldberg	-11.3972
▁968	-11.3973
▁Guard	-11.3974
▁renewed	-11.3975
▁anybody	-11.3976
▁disturbed	-11.3978
▁12(	-11.3979
ue	-11.398
▁555	-11.3983
▁ensure	-11.3983
▁691	-11.399
▁Tools	-11.3992
▁496	-11.3994
▁617	-11.3995
▁conspired	-11.3996
▁bus	-11.3998
▁Bros	-11.4
▁752	-11.4003
▁cartons	-11.4005
▁Ky	-11.4008
▁Processing	-11.4011
▁Hess	-11.4019
▁Burns	-11.402
▁872	-11.4022
▁write	-11.4025
AN	-11.4028
▁adjudicated	-11.4029
▁label	-11.403
▁Roberts	-11.4033
▁red	-11.4034
aturalization	-11.4052
eh	-11.4053
ri	-11.4053
▁926	-11.4053
▁electronic	-11.4061
▁Associated	-11.4062
▁Over	-11.4066
▁720	-11.4067
▁examinations	-11.4079
Mental	-11.4096
hatever	-11.4099
▁hospitals	-11.4103
▁telling	-11.4106
▁associate	-11.412
▁contemplate	-11.4121
▁works	-11.4124
▁importantly	-11.4124
bus	-11.4136
▁$2	-11.4155
na	-11.4159
▁576	-11.4164
▁consultation	-11.4175
▁trademark	-11.4175
▁brake	-11.418
▁licensees	-11.418
ram	-11.4181
65	-11.4181
▁alteration	-11.4182
▁domin	-11.4192
▁alien	-11.4195
▁brothers	-11.4202
▁Arme	-11.4204
10	-11.4217
▁950,	-11.4218
▁injunctions	-11.4223
▁describ	-11.4227
▁worker	-11.4233
▁minds	-11.4234
like	-11.4234
▁548	-11.4237
▁sua	-11.4239
▁acquir	-11.424
os	-11.4242
▁99,	-11.4247
▁Employers	-11.4249
▁659	-11.4255
business	-11.4256
▁Unit	-11.4267
▁(1941)	-11.4271
Edwards	-11.4273
▁pull	-11.4274
▁remov	-11.4274
▁season	-11.4276
▁Boulanger	-11.4279
▁LEVENTHAL	-11.4279
▁MANSFIELD	-11.4279
▁Nooter	-11.4279
▁ROSENN	-11.4279
▁meritorious	-11.4279
▁vicinity	-11.4279
▁comport	-11.4279
▁implies	-11.4279
▁Equipment	-11.4279
▁Russell	-11.4279
▁Shipping	-11.4279
▁consolidation	-11.4279
▁foremen	-11.4279
▁Colson	-11.4279
▁dead	-11.4279
▁Yale	-11.4279
▁Juan	-11.4279
▁economy	-11.4279
▁UNION	-11.4279
▁Agnes	-11.4279
▁Farmers	-11.4279
▁Harvey	-11.4279
▁Draft	-11.4279
▁Valley	-11.428
▁cheek	-11.428
▁Convention	-11.428
▁Echo	-11.428
▁Twitty	-11.428
back	-11.428
▁Franklin	-11.428
▁domain	-11.428
▁raft	-11.428
▁Except	-11.4281
▁threshold	-11.4281
▁mootness	-11.4281
▁resale	-11.4282
▁Marion	-11.4282
▁watch	-11.4282
voir	-11.4282
▁beneficial	-11.4283
▁declarant	-11.4283
▁2201	-11.4283
▁160(	-11.4283
▁documentary	-11.4283
▁validation	-11.4284
▁Provided	-11.4287
▁Harlan	-11.4288
▁540	-11.429
▁departed	-11.4291
▁527	-11.4294
▁731	-11.4295
respective	-11.4296
▁1031	-11.4297
▁679	-11.4305
▁cold	-11.4305
▁explosives	-11.4309
▁580	-11.4313
ay	-11.4317
lee	-11.4318
▁930	-11.4322
▁incapable	-11.4327
▁postponed	-11.4329
ot	-11.4329
▁Sid	-11.4331
▁Moul	-11.4336
▁(1956).	-11.4337
▁787	-11.4341
▁908	-11.4344
▁884	-11.4346
▁32,	-11.4352
▁905	-11.4364
aternity	-11.4367
▁513	-11.437
▁furnishing	-11.437
▁encompasse	-11.4373
▁ours	-11.4376
▁621	-11.4381
▁1017	-11.4386
66	-11.4386
▁assumptions	-11.4388
▁drawings	-11.4394
▁(1947).	-11.4414
▁Reg	-11.4418
▁funding	-11.4419
que	-11.4426
▁runs	-11.4434
▁noticed	-11.4439
▁candidates	-11.4449
sky	-11.4454
▁lying	-11.4455
pproximately	-11.4458
▁583	-11.4459
▁Cove	-11.4461
▁revise	-11.4467
32	-11.4472
▁achiev	-11.4478
footnote	-11.4479
▁Tab	-11.448
▁guard	-11.4487
tor	-11.4491
▁Market	-11.4498
▁solution	-11.4499
▁litigant	-11.4502
▁inspector	-11.4504
▁lessee	-11.4507
▁$1,000	-11.4518
▁cancel	-11.4522
ip	-11.4525
▁promises	-11.4528
▁Ze	-11.4534
▁orally	-11.4535
▁56,	-11.4536
▁1940	-11.4539
▁punish	-11.4547
▁enjoy	-11.4548
▁exceeds	-11.4556
▁attacks	-11.4558
▁talke	-11.4561
▁obstruct	-11.4562
ett	-11.4563
▁mode	-11.4565
upon	-11.457
▁await	-11.457
▁liens	-11.4575
▁convert	-11.4577
established	-11.458
▁derivative	-11.4583
▁56(	-11.4584
▁unanimous	-11.4584
Section	-11.4585
▁contradict	-11.4585
▁wal	-11.4586
▁succeed	-11.4588
▁Mobil	-11.4593
▁551	-11.4594
.1967)	-11.4597
▁music	-11.4597
▁ratio	-11.4598
▁Aguilar	-11.4601
▁Casteel	-11.4601
▁Customs	-11.4601
▁Gutierrez	-11.4601
▁Lincoln	-11.4601
▁Paragon	-11.4601
▁REHEARING	-11.4601
▁Solicitor	-11.4601
▁grocer	-11.4601
▁magnitude	-11.4601
▁temperature	-11.4601
▁Preston	-11.4601
▁Langford	-11.4601
▁grams	-11.4601
▁Shearon	-11.4601
▁recollection	-11.4601
▁Pipeline	-11.4601
▁surety	-11.4602
▁Dancis	-11.4602
▁Kenron	-11.4602
▁manslaughter	-11.4602
▁Whittell	-11.4602
▁birth	-11.4602
▁glass	-11.4602
▁warden	-11.4602
▁motivated	-11.4602
▁RCC	-11.4602
▁923	-11.4603
▁Bodge	-11.4603
▁LCM	-11.4604
▁growth	-11.4604
▁Revise	-11.4604
▁Hamburg	-11.4604
▁anticipation	-11.4604
▁dropped	-11.4604
▁prime	-11.4604
▁world	-11.4606
▁simultaneously	-11.4606
▁reaffirmed	-11.4606
▁integrated	-11.4607
▁treaty	-11.4614
58	-11.4615
▁627	-11.4616
▁954	-11.4617
▁player	-11.4618
▁segregated	-11.462
▁586	-11.4621
sprinkler	-11.4622
beit	-11.4622
▁724	-11.4625
▁academic	-11.4626
▁repealed	-11.4626
▁753	-11.4626
ger	-11.4626
▁enrolle	-11.463
▁722	-11.4631
▁invited	-11.4632
▁threatening	-11.4636
olding	-11.4639
▁gained	-11.4642
▁forwarded	-11.4644
▁Conclusions	-11.4645
▁ordering	-11.4645
▁proposes	-11.4659
▁515	-11.4667
▁508	-11.4669
ber	-11.4671
▁1944	-11.4677
▁Mack	-11.4678
judgment	-11.468
▁formally	-11.4683
▁seizures	-11.4692
▁checked	-11.4692
▁lacks	-11.4692
▁911	-11.4698
ma	-11.47
LY	-11.4703
▁brakes	-11.4705
▁holders	-11.471
dominant	-11.4711
▁Developments	-11.4711
ier	-11.4719
sale	-11.4719
▁904	-11.4731
▁spit	-11.4733
but	-11.4739
▁descriptions	-11.4741
.1970).	-11.4743
▁ignored	-11.4745
new	-11.4755
▁Carriers	-11.476
Va	-11.4761
▁user	-11.4764
▁Sr	-11.4766
▁pose	-11.4769
▁intends	-11.4777
▁40,	-11.4786
▁conditioned	-11.4786
▁Dow	-11.4786
When	-11.4793
▁(1950)	-11.4795
▁drink	-11.4796
-7	-11.4804
▁firms	-11.4807
▁NO	-11.4808
▁Sch	-11.4809
.1	-11.481
▁754	-11.4812
▁817,	-11.4816
▁1956)	-11.4817
ron	-11.4819
▁interception	-11.4832
▁reaction	-11.4835
Conn	-11.4836
▁qualification	-11.4837
▁spring	-11.4837
▁speaks	-11.4848
▁481	-11.4864
▁854	-11.4868
▁compensate	-11.4872
▁replace	-11.4873
ski	-11.4874
▁adjudicate	-11.4877
▁revoke	-11.4878
▁arrange	-11.488
!	-11.4881
▁holder	-11.4882
▁lift	-11.4887
red	-11.4896
▁41,	-11.4896
▁1948	-11.4904
PRE	-11.491
20	-11.491
▁1-2	-11.4911
Second	-11.4911
▁capricious	-11.4917
▁literal	-11.4918
▁unfortunate	-11.4918
Any	-11.4922
42	-11.4923
▁ha	-11.4929
▁494	-11.4929
▁resolv	-11.493
▁Des	-11.4931
▁multi	-11.4934
hroma	-11.4935
▁Biaggi	-11.4935
▁Crampton	-11.4935
▁Friday	-11.4935
▁GODBOLD	-11.4935
▁Gieringer	-11.4935
▁Lodge	-11.4935
▁Number	-11.4935
▁arguendo	-11.4935
▁deportation	-11.4935
▁penitentiary	-11.4935
▁unambiguous	-11.4935
▁arbitrarily	-11.4935
▁trading	-11.4935
▁Levy	-11.4935
▁Philip	-11.4935
▁contemporaneous	-11.4935
▁flexibility	-11.4935
▁technological	-11.4935
▁Beshear	-11.4935
▁Ellerton	-11.4935
▁widespread	-11.4935
▁Abuse	-11.4935
▁Retail	-11.4935
▁exposure	-11.4935
▁solitary	-11.4935
▁marihuana	-11.4935
▁Regard	-11.4935
▁Monday	-11.4935
▁pronouncement	-11.4935
▁Barker	-11.4935
▁Portland	-11.4935
▁incarcerated	-11.4935
▁jure	-11.4935
▁Jancelyn	-11.4935
▁conceivably	-11.4935
▁Albemarle	-11.4935
▁Permian	-11.4935
gold	-11.4935
▁editor	-11.4935
▁alternate	-11.4935
▁Standing	-11.4935
▁monies	-11.4935
▁pregnant	-11.4935
▁rebuttal	-11.4935
▁Freeman	-11.4935
▁game	-11.4935
▁herself	-11.4936
▁Dee	-11.4936
▁Gateway	-11.4936
▁vagran	-11.4936
▁willingness	-11.4936
▁Press	-11.4937
▁indicia	-11.4937
▁entrust	-11.4938
▁conscious	-11.4941
▁pork	-11.4941
▁enforceable	-11.4944
▁wilfully	-11.4946
▁Add	-11.4946
▁718	-11.495
▁Aug	-11.495
▁980	-11.4951
▁538	-11.4951
▁765	-11.4954
▁drilling	-11.4954
▁83,	-11.4955
▁14(	-11.4956
▁coal	-11.4956
▁808	-11.4957
▁819	-11.4958
▁PET	-11.4961
▁791	-11.4964
▁attended	-11.4964
▁757	-11.4969
ls	-11.4969
▁pressed	-11.4972
▁suppliers	-11.4973
▁734	-11.4974
▁488	-11.4976
▁Irons	-11.4977
▁seed	-11.4978
▁corroborated	-11.4978
▁573	-11.4978
▁844	-11.4979
▁mails	-11.498
▁diet	-11.498
▁845	-11.4988
statement	-11.499
▁doors	-11.499
▁706	-11.5005
▁illustrate	-11.5007
▁874	-11.5009
▁Jero	-11.501
▁beer	-11.5013
tle	-11.5036
▁posted	-11.5038
▁’697	-11.5047
▁stamps	-11.5048
▁financially	-11.5057
▁purchasers	-11.5065
▁$10	-11.5068
do	-11.5073
▁towards	-11.5073
▁Roe	-11.5082
▁promoted	-11.5084
▁180,	-11.5085
TAL	-11.5088
▁deposits	-11.5092
▁850	-11.5101
▁$100	-11.5103
▁handed	-11.5104
▁924	-11.5111
▁pumps	-11.5116
78	-11.5124
▁credits	-11.5136
▁796	-11.5137
vin	-11.5137
▁Com	-11.5139
ate	-11.514
has	-11.5154
▁suicide	-11.5171
IN	-11.5172
▁bidder	-11.5177
pellee	-11.5178
▁competitor	-11.518
▁characteristic	-11.5182
▁Store	-11.5183
▁slip	-11.5184
phy	-11.5185
▁negotiation	-11.5186
▁Mid	-11.5188
▁bend	-11.519
▁dealer	-11.5192
▁Foods	-11.5192
ated	-11.5193
▁desires	-11.5194
▁magneti	-11.5195
▁publications	-11.5196
▁560	-11.5201
▁federally	-11.5209
▁cooperate	-11.5219
▁manage	-11.5222
▁reporter	-11.5231
nvironmental	-11.5233
▁shared	-11.5235
▁burn	-11.5238
had	-11.5238
▁severally	-11.5241
Jur	-11.525
▁STATE	-11.525
▁Charge	-11.5252
▁Six	-11.5254
▁demonstrat	-11.5255
40	-11.5255
That	-11.5257
▁avail	-11.5261
▁locations	-11.5261
▁reluctant	-11.5262
▁unilateral	-11.5263
▁disturb	-11.5265
▁impair	-11.5265
▁seat	-11.5266
▁depart	-11.5266
▁marks	-11.5269
▁cogniza	-11.5279
▁Chevrolet	-11.5279
▁Eisler	-11.5279
▁Huyck	-11.5279
▁McCormick	-11.5279
▁McLeod	-11.5279
▁ROBINSON	-11.5279
▁Ritchie	-11.5279
▁counterfeit	-11.5279
▁empty	-11.5279
▁homicide	-11.5279
▁memoranda	-11.5279
▁occupy	-11.5279
▁purse	-11.5279
▁strategy	-11.5279
▁vacancies	-11.5279
▁baggage	-11.5279
▁salaries	-11.5279
▁Register	-11.5279
▁Rizzo	-11.5279
▁television	-11.5279
▁transmission	-11.5279
▁McMahan	-11.5279
▁disapproval	-11.5279
▁indispensable	-11.5279
▁Pierce	-11.5279
▁Laboratories	-11.528
▁Tracy	-11.528
▁tendency	-11.528
▁Landau	-11.528
▁Arney	-11.528
▁viable	-11.528
▁Clarytona	-11.528
▁Compensation	-11.528
▁Sirotta	-11.528
▁permissive	-11.528
▁continuation	-11.528
▁Palmer	-11.528
▁comparative	-11.528
▁Relat	-11.528
▁eliminating	-11.528
▁joinder	-11.528
▁link	-11.528
▁disqualified	-11.5281
▁Elevator	-11.5281
▁Stock	-11.5281
▁extraditable	-11.5281
▁EDWARDS	-11.5281
▁Ehlert	-11.5281
▁appendix	-11.5281
▁ripe	-11.5282
ham	-11.5282
▁sudden	-11.5282
▁intoxication	-11.5282
▁regional	-11.5283
▁obstruction	-11.5283
▁intercity	-11.5283
▁evil	-11.5284
▁secretary	-11.5285
▁won	-11.5285
▁mixed	-11.5285
▁1348	-11.5287
67	-11.529
57	-11.529
55	-11.529
▁encountered	-11.5291
ES	-11.5293
▁contradicted	-11.5294
Neill	-11.5294
▁949	-11.5294
▁Coons	-11.5296
▁Can	-11.5298
▁649	-11.5298
▁970	-11.5299
▁Fay	-11.53
▁precede	-11.5301
▁Ando	-11.5302
▁613	-11.5303
▁811	-11.5304
▁debentures	-11.5306
61	-11.5308
▁552	-11.5311
▁discontinued	-11.5317
▁Congressman	-11.5319
▁investors	-11.532
▁dispensed	-11.5321
om	-11.5325
▁(1939)	-11.5328
▁842	-11.5329
▁Supply	-11.5331
▁bonds	-11.5334
▁wrongfully	-11.5337
▁delegated	-11.5337
▁BRA	-11.534
▁analyzed	-11.5343
▁Br	-11.5344
creation	-11.5349
drew	-11.5358
▁affects	-11.5362
▁disc	-11.5369
▁distinguishing	-11.5373
latitude	-11.538
▁signing	-11.5397
▁Ch	-11.5404
eller	-11.5407
▁pleas	-11.5417
▁excused	-11.542
04	-11.5433
▁trains	-11.5459
▁validly	-11.5467
▁pledge	-11.5467
▁recommend	-11.5479
▁534	-11.5482
▁Seven	-11.549
▁Don	-11.5492
▁1955)	-11.5497
▁marit	-11.552
▁relatives	-11.5522
▁726	-11.5526
▁attacking	-11.5527
▁flag	-11.553
▁Prison	-11.5535
▁discount	-11.5535
▁wiretap	-11.5537
▁quotation	-11.5537
▁guarantees	-11.5537
▁corner	-11.5539
▁Correction	-11.5539
▁scale	-11.5539
▁appropriation	-11.554
▁buyer	-11.554
gar	-11.5541
▁Right	-11.5543
▁leader	-11.555
▁72-17	-11.5554
CAL	-11.5554
▁1950)	-11.5566
▁(1956)	-11.557
▁contending	-11.5573
▁analyze	-11.5577
▁deductions	-11.5582
▁derive	-11.5584
▁neutral	-11.5586
07	-11.5587
▁characterize	-11.5592
▁arrive	-11.5593
▁procure	-11.5594
▁notation	-11.5595
▁comprise	-11.5595
▁believ	-11.5597
order	-11.5599
▁WILLIAM	-11.56
ANCE	-11.5602
ten	-11.5611
induction	-11.5613
good	-11.5613
▁electric	-11.5614
final	-11.5614
without	-11.5615
▁contracting	-11.5616
standing	-11.5616
▁curtail	-11.5623
▁disallow	-11.5623
▁trigger	-11.5624
▁unquestionabl	-11.5627
▁w	-11.5627
▁wholesale	-11.5627
▁bench	-11.5635
▁trench	-11.5635
▁libel	-11.5636
▁Antonio	-11.5637
▁Braverman	-11.5637
▁Consolidate	-11.5637
▁Defender	-11.5637
▁Ecker	-11.5637
▁FRIENDLY	-11.5637
▁History	-11.5637
▁Supra	-11.5637
▁Zimmerman	-11.5637
▁concert	-11.5637
▁conversion	-11.5637
▁expansion	-11.5637
▁investigative	-11.5637
▁methane	-11.5637
▁prosecutrix	-11.5637
▁susceptib	-11.5637
▁testament	-11.5637
▁truly	-11.5637
▁Bragg	-11.5637
▁divestiture	-11.5637
▁Stanford	-11.5637
▁admonition	-11.5637
▁flat	-11.5637
▁Account	-11.5637
▁Gerald	-11.5637
▁restoration	-11.5637
▁hesitate	-11.5637
▁Pulver	-11.5637
▁Otherwise	-11.5637
▁promulgation	-11.5637
▁undermine	-11.5637
▁Comptroller	-11.5637
▁Pontiac	-11.5637
▁Stamford	-11.5637
▁WALLACE	-11.5637
▁presumptive	-11.5637
▁Romero	-11.5637
▁Pope	-11.5637
▁forbidden	-11.5637
▁Chapman	-11.5637
▁Payne	-11.5637
▁audit	-11.5637
▁intersection	-11.5638
▁bodies	-11.5638
▁Chrysler	-11.5638
▁Seymour	-11.5638
▁Urban	-11.5638
▁integral	-11.5638
▁’319	-11.5638
▁burglary	-11.5638
▁165,	-11.5638
▁classify	-11.5639
▁Notwithstanding	-11.564
▁MFC	-11.564
▁code	-11.564
▁arrival	-11.564
▁distributing	-11.5641
▁conception	-11.5642
▁specialized	-11.5642
▁Dock	-11.5643
▁patentability	-11.5643
▁tainted	-11.5643
▁renewal	-11.5644
▁1153	-11.5645
▁unloading	-11.5645
▁forfeited	-11.5645
▁op	-11.5648
▁678	-11.5648
▁disallowed	-11.565
▁Four	-11.5651
▁enjoyed	-11.5652
▁708	-11.5652
▁Electrical	-11.5653
▁adjudged	-11.5654
▁unitary	-11.5655
▁Burton	-11.5658
▁594	-11.566
▁767	-11.566
now	-11.5662
▁stressed	-11.5664
▁614	-11.5666
▁189,	-11.5667
▁Matthews	-11.5671
▁barbiturates	-11.5671
▁Wash	-11.5672
▁proscribed	-11.5676
▁993	-11.5676
▁savings	-11.5677
▁Leg	-11.5677
lie	-11.568
▁transporting	-11.5681
▁affiliated	-11.569
▁patently	-11.569
ious	-11.5692
▁879	-11.5696
▁publicly	-11.5697
▁commissioners	-11.5702
ism	-11.5703
▁Kend	-11.5705
▁shoulder	-11.5705
here	-11.5708
▁(1955)	-11.5717
OL	-11.5719
An	-11.5721
▁signatures	-11.5722
utting	-11.5727
23	-11.5728
vis	-11.5731
▁encouraged	-11.5735
▁litigants	-11.5747
▁honor	-11.5765
▁h	-11.5767
▁delayed	-11.5772
▁544	-11.5773
▁demonstrations	-11.5788
▁engineers	-11.5793
▁alternatively	-11.5795
▁traveling	-11.5796
pe	-11.5797
▁Hear	-11.5809
▁585	-11.5816
84	-11.583
▁632	-11.5842
▁accrue	-11.5844
▁ideas	-11.5847
▁cite	-11.5851
)(1).	-11.5861
▁1961).	-11.5868
▁relationships	-11.5871
third	-11.5882
Cr	-11.5885
▁imp	-11.5891
▁bit	-11.5893
its	-11.5893
▁licenses	-11.5901
▁reservations	-11.5902
▁dividend	-11.5903
▁prediction	-11.5904
tatutory	-11.5905
▁approaching	-11.5905
ors	-11.5906
▁Elizabeth	-11.5907
▁broadcaster	-11.5911
18	-11.5911
▁advantages	-11.5913
ship	-11.5916
▁hat	-11.5919
)(2).	-11.592
▁1952)	-11.5925
▁901	-11.593
port	-11.5939
▁associations	-11.5944
▁delegate	-11.5945
▁persuade	-11.595
▁drop	-11.5954
▁learn	-11.5956
▁surviv	-11.5957
ti	-11.5959
lastic	-11.5962
▁logic	-11.5967
▁spend	-11.5969
▁931	-11.5976
ty	-11.5981
Appendix	-11.5984
March	-11.5984
▁terminat	-11.5984
eligible	-11.5985
▁Ko	-11.5985
owned	-11.5986
took	-11.5987
▁discharg	-11.5988
▁routine	-11.599
▁circumvent	-11.5992
▁Earl	-11.5993
▁eleven	-11.5994
▁523	-11.5995
section	-11.6004
▁l	-11.6005
▁Tech	-11.6007
▁ROBB	-11.6007
▁Conflict	-11.6007
▁Currency	-11.6007
▁Griggs	-11.6007
▁MORGAN	-11.6007
▁Merchant	-11.6007
▁Montgomery	-11.6007
▁Oestereich	-11.6007
▁Richmond	-11.6007
▁SIMPSON	-11.6007
▁Sawatzki	-11.6007
▁Subcommittee	-11.6007
▁Sulphur	-11.6007
▁WEICK	-11.6007
▁commodities	-11.6007
▁damaging	-11.6007
▁wisdom	-11.6007
▁Dangerous	-11.6007
▁Pension	-11.6007
▁concession	-11.6007
▁ladder	-11.6007
▁CRAVEN	-11.6007
▁Laird	-11.6007
▁Machine	-11.6007
▁Spanish	-11.6007
▁elimination	-11.6007
▁Masonbrink	-11.6007
▁clinic	-11.6007
▁(1935)	-11.6007
▁framework	-11.6007
▁stringent	-11.6007
▁Foundation	-11.6007
▁international	-11.6007
▁subchapter	-11.6007
▁Wiley	-11.6007
▁steel	-11.6007
▁contradictory	-11.6007
▁Edison	-11.6007
▁Gibson	-11.6007
▁Perhaps	-11.6007
▁authoritative	-11.6007
▁Franchard	-11.6007
▁Skyline	-11.6007
▁wrongdoing	-11.6007
▁Enforcement	-11.6007
▁Halcon	-11.6007
▁preemption	-11.6007
▁Crust	-11.6008
▁Airport	-11.6008
▁Witnesses	-11.6008
▁Kerr	-11.6008
▁Pitman	-11.6008
▁Discrimination	-11.6008
▁satisfactorily	-11.6008
▁verified	-11.6008
▁cancer	-11.6008
han	-11.6008
▁Dennis	-11.6009
▁1929	-11.6009
▁feasibility	-11.6009
▁MFB	-11.6009
▁contemporary	-11.6009
▁theater	-11.6009
▁everything	-11.601
▁anticonvulsant	-11.601
▁prospect	-11.601
▁FHA	-11.601
▁attachment	-11.6011
▁suggestive	-11.6012
clearly	-11.6012
▁Ariz	-11.6013
▁Income	-11.6013
▁LIVE	-11.6014
▁Harrison	-11.6015
▁41(	-11.6017
▁speculate	-11.6018
▁unequivocally	-11.6018
▁enumerated	-11.6019
▁town	-11.6019
▁installed	-11.6019
▁insolvency	-11.602
▁boat	-11.6021
▁chang	-11.6022
ker	-11.6024
▁Every	-11.6025
▁parking	-11.6027
▁Enterprises	-11.6028
▁759	-11.6028
▁Shoe	-11.6028
▁569	-11.6031
▁741	-11.6032
▁755	-11.6032
▁stages	-11.6033
▁623	-11.6035
▁686	-11.6035
▁751	-11.6036
▁987	-11.6041
▁articulated	-11.6041
▁heart	-11.6041
▁Inso	-11.6043
▁Gary	-11.6048
▁disapproved	-11.6048
▁Rose	-11.605
▁(1942).	-11.6052
▁38,	-11.6052
inger	-11.6053
▁pupils	-11.6054
▁disregarded	-11.6057
▁treble	-11.6064
▁killing	-11.6065
▁remark	-11.6067
▁haulers	-11.6069
▁replaced	-11.6076
▁shoes	-11.608
▁Contracts	-11.6085
▁934	-11.6086
▁interrogatory	-11.6086
▁fraudulently	-11.6086
ek	-11.6089
▁651	-11.6097
▁investigators	-11.6099
▁feeling	-11.6105
▁Funds	-11.6109
mp	-11.6111
▁encompass	-11.6111
▁$3	-11.6112
▁Cab	-11.6113
▁competitors	-11.6115
▁Men	-11.6124
▁(1953).	-11.6127
sis	-11.6129
▁Samuels	-11.613
▁interpretations	-11.6136
▁GE	-11.6141
▁1920	-11.6149
▁thinking	-11.6156
▁privileged	-11.6163
▁1958)	-11.6167
▁whites	-11.617
hen	-11.6175
▁1942	-11.6176
▁notion	-11.6176
▁0	-11.6186
▁IN	-11.6213
▁necessitate	-11.6214
▁1011	-11.6216
▁assertions	-11.622
▁sons	-11.6221
▁insist	-11.6222
▁dues	-11.623
▁533	-11.6236
ural	-11.6239
▁prosecutors	-11.6243
use	-11.6244
▁Wells	-11.6249
op	-11.6257
▁512	-11.6262
▁960	-11.6264
▁offenders	-11.6268
tte	-11.6271
▁author	-11.6274
ire	-11.6281
At	-11.6287
▁tariff	-11.6291
▁channel	-11.6292
▁catalyst	-11.6292
pplying	-11.6293
▁assistant	-11.6293
▁feature	-11.6293
▁participant	-11.6295
▁Roger	-11.6296
▁minute	-11.6299
▁sample	-11.6301
▁Hills	-11.6304
▁710	-11.6317
▁SE	-11.6321
▁1962.	-11.6325
▁refute	-11.6328
▁aggregate	-11.6328
▁postpone	-11.6331
▁strain	-11.6331
▁select	-11.6337
▁72-11	-11.6338
▁summarize	-11.6343
▁signs	-11.635
▁threaten	-11.635
interest	-11.6352
▁penal	-11.6354
▁rehear	-11.6355
09	-11.6357
▁comput	-11.6367
▁declarations	-11.6368
discriminatory	-11.6368
Mass	-11.6369
odor	-11.637
▁1938	-11.6372
Now	-11.6372
▁bags	-11.6372
American	-11.6372
within	-11.6374
▁encounter	-11.6378
▁640	-11.6381
▁gains	-11.6384
See	-11.6385
egislative	-11.639
▁alcohol	-11.6391
executing	-11.6391
▁Cayuga	-11.6391
▁Hammond	-11.6391
▁LEWIS	-11.6391
▁Lucas	-11.6391
▁Maguigad	-11.6391
▁Schaefer	-11.6391
▁Sierra	-11.6391
▁Superintendent	-11.6391
▁TIMBERS	-11.6391
▁depriving	-11.6391
▁guy	-11.6391
▁sensitive	-11.6391
▁struggle	-11.6391
▁Brewer	-11.6392
▁MacKINNON	-11.6392
▁McGOWAN	-11.6392
▁envision	-11.6392
▁INTERNATIONAL	-11.6392
▁Support	-11.6392
▁rehabilitation	-11.6392
▁Ruiz	-11.6392
▁Woosley	-11.6392
▁summation	-11.6392
▁trash	-11.6392
▁Rosenstein	-11.6392
▁trunk	-11.6392
▁Bolton	-11.6392
▁Downs	-11.6392
▁Christian	-11.6392
▁owing	-11.6392
▁correspondence	-11.6392
▁Marvin	-11.6392
▁proxy	-11.6392
▁NSM	-11.6392
▁Jefferson	-11.6392
▁tentative	-11.6392
▁constrain	-11.6392
▁advantageous	-11.6392
▁territorial	-11.6392
▁Allison	-11.6393
▁deliveries	-11.6393
▁Holmes	-11.6393
▁uncontradicted	-11.6393
▁novelty	-11.6393
▁Burger	-11.6393
▁realistic	-11.6393
▁Spotts	-11.6394
▁Block	-11.6394
▁Truth	-11.6394
▁Heckman	-11.6394
▁bodi	-11.6394
▁(15	-11.6394
▁successive	-11.6394
▁surplus	-11.6395
)(4)(	-11.6395
▁AFDC	-11.6395
▁tangible	-11.6395
▁Bennett	-11.6395
▁3006	-11.6395
▁nominal	-11.6395
▁Duke	-11.6395
▁attainment	-11.6395
▁wishes	-11.6395
▁Vale	-11.6395
▁inserted	-11.6396
▁nearby	-11.6396
▁Print	-11.6397
▁exhaustive	-11.6398
▁inclined	-11.6398
▁Friendly	-11.64
▁invasion	-11.64
▁servicemen	-11.64
▁disclaimed	-11.64
-4	-11.64
▁Regents	-11.6401
▁stronger	-11.6403
▁dictum	-11.6404
waiting	-11.6405
▁insisted	-11.6405
▁Dean	-11.6406
▁1127	-11.6406
▁_	-11.6408
▁recoverable	-11.6408
▁TIA	-11.6408
▁971	-11.6409
▁626	-11.6409
▁655	-11.6411
▁1107	-11.6411
▁remembered	-11.6412
▁1151	-11.6413
▁electrical	-11.6416
▁Falls	-11.6417
Laws	-11.6417
▁policeman	-11.6418
▁794	-11.642
▁785	-11.642
▁943	-11.6421
who	-11.6425
▁634	-11.6427
▁accommodate	-11.6427
▁620	-11.6428
▁758	-11.6429
▁withdrew	-11.6431
▁656	-11.6431
▁dissolved	-11.6434
▁sports	-11.6436
▁alley	-11.6437
ITION	-11.6438
▁Packing	-11.6439
▁breaking	-11.644
▁techniques	-11.6444
ably	-11.6446
▁(14	-11.6452
▁widely	-11.6454
▁traditionally	-11.6455
▁1958).	-11.6458
▁633	-11.6461
▁891	-11.6462
And	-11.6464
▁hot	-11.6466
▁lessen	-11.6475
▁(1946).	-11.6478
▁estimates	-11.648
▁Crim	-11.6482
fer	-11.6487
▁Star	-11.6489
▁894	-11.65
▁aided	-11.6502
▁918	-11.6503
▁1001	-11.651
▁refuses	-11.6528
▁748	-11.6531
▁(1940)	-11.6533
▁answering	-11.6544
▁adhered	-11.6551
▁654	-11.6553
▁Cas	-11.6565
▁falsely	-11.6571
▁recipients	-11.6571
▁dep	-11.6574
▁1231	-11.6574
▁ceased	-11.6585
▁falling	-11.6585
▁implications	-11.6587
▁lives	-11.6596
59	-11.6599
▁Pro	-11.66
]:	-11.6605
uring	-11.6607
▁762	-11.6609
87	-11.661
▁grave	-11.6624
▁630	-11.6625
mon	-11.6641
▁vessels	-11.6645
▁picket	-11.6648
As	-11.6655
▁trucks	-11.6657
ization	-11.6657
q	-11.6662
▁639	-11.6662
▁occupation	-11.667
▁discharges	-11.6673
▁delays	-11.6675
▁modifications	-11.6675
▁dealings	-11.6677
.5	-11.6683
▁Eagle	-11.6683
▁stimulant	-11.6683
▁OR	-11.6684
▁bullet	-11.6686
▁vest	-11.6687
▁Metal	-11.6688
▁sweeper	-11.6689
▁Master	-11.6689
▁girl	-11.6692
▁investigator	-11.6692
FM	-11.6693
▁bomb	-11.6693
▁discussions	-11.6694
▁mile	-11.6696
54	-11.6697
▁sheet	-11.6699
▁pound	-11.6703
▁privately	-11.6713
▁LO	-11.6719
▁surprise	-11.6728
▁Dunn	-11.673
▁justifie	-11.6731
▁reinstate	-11.6732
house	-11.6736
▁591	-11.6739
)(2)(	-11.6745
▁conspir	-11.6749
▁certify	-11.6753
▁arriv	-11.6755
▁incorporate	-11.6758
competitive	-11.6767
press	-11.6768
made	-11.6769
▁531	-11.677
will	-11.6773
▁inspect	-11.6775
▁surrender	-11.6778
▁810	-11.6783
▁paint	-11.6785
▁indefinite	-11.6785
▁addict	-11.6789
reliminary	-11.679
ertiorari	-11.6791
▁Alternative	-11.6791
▁863	-11.6791
▁DEFENDANT	-11.6791
▁HASTINGS	-11.6791
▁McCarthy	-11.6791
▁Omaha	-11.6791
▁Telegraph	-11.6791
▁Topeka	-11.6791
▁WINTER	-11.6791
▁consumption	-11.6791
▁tranquilizing	-11.6791
▁vacancy	-11.6791
▁widow	-11.6791
▁Heiney	-11.6792
▁Rollins	-11.6792
▁yield	-11.6792
▁Beaty	-11.6792
▁Beverly	-11.6792
▁Dorsey	-11.6792
▁Wisniewski	-11.6792
▁Bailey	-11.6792
▁dunnage	-11.6792
▁Manager	-11.6792
▁elevator	-11.6792
▁river	-11.6792
▁Grapeland	-11.6792
▁quantities	-11.6792
▁carbon	-11.6792
▁Technical	-11.6792
▁Steelworkers	-11.6792
▁Gravel	-11.6792
▁misled	-11.6792
▁theatre	-11.6792
▁nationwide	-11.6792
▁ninety	-11.6792
ntil	-11.6792
▁powder	-11.6792
▁Gibbs	-11.6792
▁Kasparian	-11.6792
▁recess	-11.6792
▁intrusion	-11.6792
▁1346(	-11.6792
▁standpoint	-11.6792
▁promoting	-11.6792
▁Macon	-11.6792
▁favorably	-11.6793
▁Egan	-11.6793
▁Bache	-11.6793
▁railway	-11.6794
▁contradiction	-11.6794
▁alert	-11.6794
▁unpaid	-11.6794
▁Morrison	-11.6795
▁sat	-11.6795
▁MACV	-11.6795
▁suspicious	-11.6795
▁adjudicatory	-11.6795
▁ministerial	-11.6795
▁Wesley	-11.6795
▁declining	-11.6795
▁annuity	-11.6796
)(7)	-11.6796
▁1908	-11.6796
▁borrowed	-11.6796
▁novo	-11.6798
▁growing	-11.6798
▁BENSON	-11.6799
▁Bright	-11.6799
reclassification	-11.68
▁referral	-11.6801
▁wherever	-11.6801
▁beam	-11.6806
▁impaired	-11.6807
▁764	-11.6808
▁disabled	-11.6809
▁588	-11.681
▁imputed	-11.681
▁totality	-11.6812
▁711	-11.6812
▁532	-11.6814
▁Lab	-11.6814
▁689	-11.6816
▁661	-11.6818
low	-11.6818
▁957	-11.6818
▁739	-11.6818
▁766	-11.6818
▁498	-11.6819
▁invoking	-11.6819
▁modern	-11.6822
▁computed	-11.6825
▁yes	-11.6825
▁reiterated	-11.6826
▁780	-11.6829
▁handbills	-11.683
▁596	-11.6833
▁weapons	-11.6833
▁493,	-11.6833
ns	-11.6837
▁15(	-11.6838
▁693	-11.6838
▁825	-11.6838
▁956	-11.684
▁1930	-11.6842
▁504	-11.6848
njunction	-11.6853
part	-11.6853
▁news	-11.6855
▁IX	-11.6857
▁Sex	-11.6858
▁873	-11.6858
▁broadcasting	-11.6863
ester	-11.6864
▁barriers	-11.6867
▁886	-11.6881
▁talking	-11.6881
▁girls	-11.6892
▁channels	-11.6896
▁shut	-11.6897
▁suggestions	-11.6899
▁identifications	-11.6904
Connor	-11.6906
▁jurisdictions	-11.6907
▁strikes	-11.6911
▁$2,000	-11.6913
ped	-11.6913
,000.00	-11.6915
▁reporters	-11.692
bel	-11.692
▁aliens	-11.6921
conspirators	-11.6922
▁transmitte	-11.6925
ight	-11.6926
▁team	-11.6926
▁commence	-11.6929
▁Agents	-11.6935
▁improvements	-11.6937
▁$7	-11.6944
-11	-11.6944
▁(1936)	-11.6946
▁mandates	-11.6955
.1965)	-11.6957
▁(1950).	-11.6962
aw	-11.6963
▁anew	-11.697
▁1125	-11.6981
▁608	-11.6982
▁Jane	-11.6986
▁Supervisor	-11.6986
lle	-11.6988
▁Eric	-11.6988
▁instruments	-11.6991
▁courses	-11.7004
31	-11.7005
▁1959)	-11.701
▁4-	-11.7013
▁802	-11.7014
▁la	-11.7015
▁installments	-11.7016
▁tickets	-11.7016
ow	-11.7019
▁reh	-11.703
▁directs	-11.7032
▁Mann	-11.7034
▁propositions	-11.7043
EN	-11.7043
▁utter	-11.7047
ock	-11.7048
cross	-11.7057
▁superiors	-11.707
▁Ver	-11.7072
finding	-11.7074
WIN	-11.7082
▁740	-11.7085
sentence	-11.7088
▁Father	-11.7102
▁tractor	-11.7103
▁Bridge	-11.7104
▁camera	-11.7104
▁signature	-11.711
▁successor	-11.711
▁hole	-11.7113
▁schedules	-11.7114
▁periodic	-11.7115
▁pad	-11.7126
▁customs	-11.7126
▁(1948).	-11.7127
▁Forces	-11.7133
down	-11.7136
▁posting	-11.7138
cks	-11.7139
war	-11.7139
▁impede	-11.7142
▁vindicate	-11.7145
▁predicate	-11.7147
▁negate	-11.715
ingham	-11.7152
▁substitut	-11.7152
▁solicit	-11.7157
▁physicians	-11.7158
▁261,	-11.7164
special	-11.7165
ssessing	-11.7168
ception	-11.7172
▁carrie	-11.718
▁sharp	-11.7185
water	-11.7185
drug	-11.7185
property	-11.7185
federal	-11.7185
▁Melvi	-11.7186
oney	-11.7187
▁dock	-11.7188
were	-11.7189
Md	-11.719
▁abuses	-11.719
▁install	-11.7194
▁Gar	-11.7194
í	-11.7204
losing	-11.7205
▁Glen	-11.7206
▁WITNESS	-11.7208
Bonanza	-11.7208
▁ADAMS	-11.7208
▁Beatrice	-11.7208
▁Luedecker	-11.7208
▁MULLIGAN	-11.7208
▁Memorial	-11.7208
▁Mirror	-11.7208
▁Relief	-11.7208
▁Reservation	-11.7208
▁Sohio	-11.7208
▁Speetor	-11.7208
▁Utilities	-11.7208
▁Wainwright	-11.7208
▁Worcester	-11.7208
▁deficient	-11.7208
▁ensuing	-11.7208
▁immunities	-11.7208
▁lottery	-11.7208
▁nexus	-11.7208
▁sponsor	-11.7208
▁subcommittee	-11.7208
▁JONES	-11.7208
▁Chimel	-11.7208
▁studied	-11.7208
▁Moines	-11.7208
▁Future	-11.7208
▁surgery	-11.7208
▁shotgun	-11.7208
▁Bouley	-11.7208
▁Quality	-11.7208
▁malice	-11.7208
▁interscholasti	-11.7208
▁excellen	-11.7208
▁hoist	-11.7208
▁Alexander	-11.7208
▁hereinbefore	-11.7208
▁Basin	-11.7208
▁expungement	-11.7208
▁Volpe	-11.7208
▁KENT	-11.7208
▁Caldwell	-11.7209
▁abandonment	-11.7209
▁Mortgage	-11.7209
▁Treaty	-11.7209
▁Irving	-11.7209
▁sight	-11.7209
▁Halliburton	-11.7209
▁London	-11.7209
▁comprehend	-11.7209
▁Conway	-11.7209
▁Staff	-11.7209
▁Kois	-11.7209
▁revolver	-11.7209
▁disruption	-11.7209
▁Alfred	-11.7209
▁Neff	-11.721
▁969	-11.721
▁easy	-11.721
▁Porter	-11.721
▁crate	-11.721
▁meantime	-11.721
▁intoxicated	-11.7211
▁Milton	-11.7211
▁CITY	-11.7211
▁Coyer	-11.7211
▁instrumentality	-11.7213
▁Abrams	-11.7213
▁transferee	-11.7214
▁unclear	-11.7214
▁194,	-11.7215
▁1332	-11.7215
▁estoppe	-11.7215
▁303(	-11.7216
▁retired	-11.7216
▁101(	-11.7217
▁annexed	-11.7218
BOT	-11.7223
▁airplane	-11.7223
▁solicited	-11.7223
▁685	-11.7224
▁408(	-11.7226
▁parallel	-11.7226
▁commander	-11.7227
▁638	-11.7228
▁deleted	-11.723
▁oxid	-11.7233
▁finality	-11.7233
▁647	-11.7234
▁Hal	-11.7234
▁Jose	-11.7235
▁798	-11.7235
▁975	-11.7236
▁south	-11.7236
▁4705	-11.7239
▁730	-11.7242
▁571	-11.7242
▁838	-11.7242
▁entertained	-11.7243
▁587	-11.7244
po	-11.7245
▁597	-11.7246
▁814	-11.7249
▁unsuccessfully	-11.7249
▁formulated	-11.7249
▁supplemented	-11.7251
▁Z	-11.7252
type	-11.7258
▁expedited	-11.7258
▁1963.	-11.7258
nograph	-11.7264
▁sites	-11.7265
▁ascertained	-11.7266
▁Ca	-11.7267
nder	-11.7269
▁846	-11.7274
▁engineering	-11.7276
▁tip	-11.7278
▁456,	-11.7279
yn	-11.7286
▁936	-11.7286
LEY	-11.7288
▁Mont	-11.7294
▁MY	-11.7297
▁cashed	-11.7301
disqualification	-11.7302
Del	-11.7306
▁sheets	-11.7313
footnotes	-11.7314
ington	-11.7316
▁enabl	-11.7321
▁leaders	-11.733
ka	-11.7332
▁Du	-11.734
▁contemplates	-11.7345
▁(1951).	-11.7347
▁Representatives	-11.7354
▁Bass	-11.7356
▁occupants	-11.736
▁49,	-11.7365
▁74,	-11.7366
▁Port	-11.7368
▁Ham	-11.737
28	-11.7372
▁premiums	-11.7373
▁eyes	-11.7379
▁sanctions	-11.7382
ni	-11.7383
▁degrees	-11.7386
▁Magistrates	-11.739
▁922	-11.7391
▁$4	-11.7394
▁tracks	-11.7395
▁641	-11.74
▁centers	-11.7423
▁(1938)	-11.7425
▁ballots	-11.7429
▁1946	-11.7431
▁please	-11.7432
▁Mode	-11.7434
atic	-11.7443
contract	-11.7445
▁141,	-11.7459
operation	-11.7463
▁Hand	-11.747
▁estimate	-11.7482
▁Far	-11.7486
▁Rep	-11.7489
▁omissions	-11.749
ear	-11.7492
▁582	-11.7499
▁Brit	-11.7504
▁Consider	-11.7508
▁intentions	-11.7508
question	-11.7514
▁definitions	-11.7523
▁72-15	-11.7529
▁functioning	-11.7533
▁map	-11.7538
▁docket	-11.7538
ach	-11.7539
▁804	-11.7541
▁session	-11.7541
▁shipper	-11.7542
▁taxicab	-11.7543
▁184,	-11.7543
tive	-11.7544
▁pocket	-11.7544
▁Statute	-11.7544
▁paragraphs	-11.7545
▁Tort	-11.7547
▁subcontract	-11.7547
▁Instruction	-11.7548
▁acre	-11.7558
nine	-11.7559
1331(	-11.756
▁clients	-11.756
▁952	-11.7564
á	-11.7567
▁714	-11.7569
▁gate	-11.7579
▁Ke	-11.7589
▁Officers	-11.7589
▁initiate	-11.7591
▁supervise	-11.7593
▁anticipate	-11.7594
▁$15,000	-11.7595
▁Dyers	-11.7596
▁Free	-11.7597
▁cuts	-11.7601
fully	-11.7608
▁(1932)	-11.761
▁frequent	-11.7612
▁shoot	-11.7615
Count	-11.7615
▁distinctions	-11.7616
free	-11.7617
Burton	-11.762
tending	-11.762
local	-11.762
▁measur	-11.762
Cross	-11.7624
▁769	-11.7626
▁practiced	-11.7627
▁discern	-11.7629
RVIN	-11.763
Court	-11.7631
▁Ro	-11.7631
▁Hurt	-11.7638
▁Christ	-11.7639
etropolitan	-11.764
For	-11.7642
▁Jen	-11.7643
▁Appropriations	-11.7643
▁Bivens	-11.7643
▁Braseth	-11.7643
▁Chattanooga	-11.7643
▁Deceased	-11.7643
▁Doane	-11.7643
▁Fasano	-11.7643
▁Gibraltar	-11.7643
▁INTERNA	-11.7643
▁Inquiry	-11.7643
▁Jehovah	-11.7643
▁MOORE	-11.7643
▁Milwaukee	-11.7643
▁POWER	-11.7643
▁Personnel	-11.7643
▁Phoenix	-11.7643
▁REVENUE	-11.7643
▁Reeves	-11.7643
▁Ruckelshaus	-11.7643
▁Sicilia	-11.7643
▁Stafos	-11.7643
▁THORNBERRY	-11.7643
▁Vincent	-11.7643
▁asphalt	-11.7643
▁lumber	-11.7643
▁presiding	-11.7643
▁province	-11.7643
▁residing	-11.7643
▁semester	-11.7643
▁WORKERS	-11.7643
▁immune	-11.7643
▁conclusory	-11.7643
▁marriage	-11.7643
▁discriminating	-11.7643
▁Manchester	-11.7643
▁Settlement	-11.7643
▁Senak	-11.7643
▁2516(1)	-11.7643
▁ceiling	-11.7643
▁Orrach	-11.7643
▁rescind	-11.7643
▁Doerner	-11.7643
▁Lumber	-11.7643
▁fight	-11.7643
▁generate	-11.7643
▁Wayne	-11.7643
▁Brewster	-11.7644
▁Fleming	-11.7644
▁Jesus	-11.7644
▁Mansfield	-11.7644
▁Wheelabrator	-11.7644
▁futile	-11.7644
▁prescribing	-11.7644
▁Avon	-11.7644
▁Pangborn	-11.7644
▁Handbook	-11.7644
▁missing	-11.7644
▁Friedman	-11.7644
▁entitlement	-11.7644
▁Dugan	-11.7644
▁manual	-11.7644
▁monopolize	-11.7644
▁2,4,5-	-11.7645
▁Information	-11.7645
▁Zwaanpoly	-11.7645
▁delinquent	-11.7645
▁Ozark	-11.7645
▁scienter	-11.7645
▁cage	-11.7645
▁1972-73	-11.7645
▁movant	-11.7645
▁cutting	-11.7645
▁Twin	-11.7645
▁predominant	-11.7645
▁root	-11.7646
▁Colum	-11.7646
▁Wallin	-11.7646
▁IRS	-11.7646
fair	-11.7647
▁controversies	-11.7647
▁credible	-11.7647
▁convenient	-11.7647
▁AMERICAN	-11.7647
▁raid	-11.7647
▁Baird	-11.7648
▁NDA	-11.7648
▁Beto	-11.7648
▁upright	-11.7649
▁Frankfurter	-11.7649
▁Potter	-11.7649
based	-11.7649
▁Tender	-11.7649
▁Aeronautics	-11.765
▁popular	-11.765
▁Ayers	-11.7654
AM	-11.7655
Citation	-11.7657
▁overtime	-11.7658
▁768	-11.7661
▁612	-11.7661
▁punished	-11.7661
▁equality	-11.7662
▁riding	-11.7662
▁core	-11.7663
▁leaflets	-11.7663
▁finishing	-11.7664
▁945	-11.7665
▁expanded	-11.7665
▁intangible	-11.7665
▁610	-11.7665
▁953	-11.7666
▁wise	-11.7666
▁959	-11.7667
▁1194	-11.7667
▁precautions	-11.7667
▁963	-11.7667
▁1267	-11.7669
▁1213	-11.767
▁acid	-11.767
▁673	-11.7671
▁slightly	-11.7671
▁corresponding	-11.7672
▁809	-11.7673
▁Point	-11.7678
▁rented	-11.768
▁974	-11.768
▁674	-11.7682
▁predict	-11.7682
▁severely	-11.7683
▁1006	-11.7683
03	-11.7684
▁liberally	-11.7686
▁recalled	-11.7691
▁slope	-11.7692
▁implemented	-11.7693
▁spell	-11.7694
▁$100,000	-11.7694
▁conceived	-11.7696
▁836	-11.7698
ME	-11.7703
▁Rogallos	-11.7703
▁Love	-11.7704
▁administering	-11.7705
some	-11.7707
▁evidenced	-11.7709
37	-11.7712
▁impeaching	-11.7713
▁853	-11.7721
▁833	-11.7722
▁938	-11.7725
▁tactics	-11.7734
▁impliedly	-11.7735
▁invalidated	-11.774
▁Min	-11.7746
▁vis	-11.7751
▁841	-11.7755
onne	-11.7756
▁Streets	-11.7762
▁Victor	-11.7763
istic	-11.7764
▁709	-11.7765
▁53,	-11.7768
▁$50	-11.777
▁%	-11.7772
▁subordinated	-11.7774
▁booking	-11.7776
▁associates	-11.7785
▁865	-11.7787
▁maker	-11.7789
▁Inn	-11.7795
▁1960).	-11.7797
▁framed	-11.7803
▁416,	-11.7807
52	-11.7812
▁concentrate	-11.7823
▁corrected	-11.7835
Hist	-11.7836
▁r	-11.7861
▁tall	-11.7864
08	-11.7866
▁intermedia	-11.787
▁actionable	-11.7871
only	-11.7875
▁ambi	-11.7886
▁expectations	-11.7894
▁fields	-11.7896
▁(1937)	-11.7897
▁routes	-11.7911
▁shipments	-11.7911
▁903	-11.7913
▁demanding	-11.792
▁factually	-11.7923
▁operators	-11.7927
▁embrace	-11.7934
▁affiliate	-11.7935
sen	-11.794
▁clerks	-11.7943
▁1941	-11.795
▁EN	-11.7954
▁Sen	-11.7956
▁30-	-11.7965
▁port	-11.7968
▁Non	-11.797
▁wound	-11.7978
ize	-11.7979
▁juvenile	-11.7989
▁Mason	-11.7994
▁media	-11.7996
▁Objection	-11.7997
▁parcel	-11.7998
▁shortage	-11.7998
▁safeguard	-11.7999
▁nomination	-11.8006
▁648	-11.8006
▁Lord	-11.8008
▁Just	-11.8015
25	-11.8018
60	-11.8022
▁921	-11.8023
ash	-11.8025
▁799	-11.8025
OR	-11.8029
▁reduc	-11.8029
▁substantiate	-11.8035
▁oppose	-11.8036
▁minimize	-11.8037
▁631	-11.8038
wise	-11.8039
▁presume	-11.8041
▁invest	-11.8041
▁Geo	-11.8046
▁extract	-11.8051
▁57,	-11.8052
▁shifts	-11.8055
▁ti	-11.8058
▁Coal	-11.8059
▁appel	-11.806
itz	-11.8065
▁Summ	-11.8071
except	-11.8071
Librium	-11.8074
▁vacat	-11.8075
Super	-11.8075
▁Blu	-11.8076
▁Gene	-11.808
▁consequent	-11.8081
▁balanced	-11.8083
▁renew	-11.8083
▁poll	-11.8084
▁negotiat	-11.8085
luminum	-11.8086
ATION	-11.8094
aught	-11.8095
▁Chase	-11.8095
▁harsh	-11.8095
▁Hugh	-11.8096
urgeon	-11.8097
▁Elec	-11.8097
▁solid	-11.8097
▁indemnif	-11.8097
▁Admittedly	-11.8097
▁CHAMBERS	-11.8097
▁COLEMAN	-11.8097
▁Financial	-11.8097
▁Henderson	-11.8097
▁Lexington	-11.8097
▁Refining	-11.8097
▁Surety	-11.8097
▁Thirteen	-11.8097
▁WGLN	-11.8097
▁Yellowstone	-11.8097
▁crane	-11.8097
▁criterion	-11.8097
▁delegation	-11.8097
▁handwriting	-11.8097
▁receivable	-11.8097
▁reluctance	-11.8097
▁Batliner	-11.8098
▁luggage	-11.8098
▁Sirica	-11.8098
▁exculpatory	-11.8098
▁Bolack	-11.8098
▁array	-11.8098
▁Maxwell	-11.8098
▁unqualified	-11.8098
▁Affton	-11.8098
▁Humble	-11.8098
▁convertible	-11.8098
▁Pierson	-11.8098
▁Providence	-11.8098
▁unjustified	-11.8098
▁Alden	-11.8098
▁dissemination	-11.8098
▁situs	-11.8098
Recognizing	-11.8098
▁myself	-11.8098
▁Consideration	-11.8098
▁Consumer	-11.8098
▁Flavette	-11.8098
▁Staires	-11.8098
▁Testimony	-11.8098
▁mephenesin	-11.8098
▁receptacle	-11.8098
▁secrecy	-11.8098
▁stricken	-11.8098
▁initiative	-11.8098
▁injection	-11.8098
▁enrollment	-11.8098
▁repetition	-11.8098
▁Cruz	-11.8098
▁Bear	-11.8098
▁Gregory	-11.8098
▁bulk	-11.8099
▁1202(	-11.8099
▁clarify	-11.8099
▁Freedom	-11.8099
▁Grosso	-11.81
▁exigent	-11.81
▁poison	-11.81
▁resistance	-11.8101
▁Answer	-11.8101
▁stuff	-11.8101
▁Negroes	-11.8101
▁Sam	-11.8102
▁complexity	-11.8102
▁forthwith	-11.8102
▁spread	-11.8102
em	-11.8102
▁570	-11.8102
▁shirt	-11.8102
▁COMMISSIONER	-11.8102
▁dependence	-11.8103
▁detrimental	-11.8103
▁float	-11.8105
▁Ibid	-11.8105
▁25,000	-11.8105
▁dwelling	-11.8105
▁1148	-11.8105
▁spoken	-11.8107
▁boundary	-11.8108
▁priorities	-11.8108
▁appreciate	-11.8109
▁Aluminum	-11.8109
▁reflection	-11.8109
▁Hyde	-11.8109
▁10%	-11.811
▁adjusted	-11.811
▁converter	-11.8113
▁diminished	-11.8114
▁605	-11.8114
▁999	-11.8114
▁originated	-11.8115
▁salesman	-11.8116
ular	-11.8116
▁inflicted	-11.8116
▁660	-11.8117
▁1245	-11.8117
▁782	-11.8118
▁994	-11.8118
▁642	-11.8118
▁1019	-11.8119
▁1029	-11.812
▁accumulated	-11.812
▁559	-11.812
▁restrained	-11.8121
▁972	-11.8122
▁erected	-11.8123
▁feed	-11.8126
▁733	-11.8126
▁1322	-11.8127
▁662	-11.8128
▁merged	-11.8128
▁800	-11.813
▁813	-11.813
53	-11.8134
▁Sessions	-11.8135
▁664	-11.8135
▁899	-11.8135
lic	-11.8136
▁evidently	-11.8137
▁777	-11.8139
▁578	-11.814
▁retroactively	-11.8141
▁stipulations	-11.8141
▁substantiality	-11.8142
▁771	-11.8144
▁barn	-11.8146
▁preferences	-11.8146
▁848	-11.8151
1-0	-11.8153
▁chambers	-11.8153
▁887	-11.8153
▁Springs	-11.8156
ball	-11.816
▁783	-11.816
SEN	-11.8162
▁BELL	-11.8163
▁Wo	-11.8163
▁876	-11.8164
38	-11.8165
▁636	-11.8166
▁226,	-11.8175
▁565	-11.8176
▁cleaning	-11.8176
-29	-11.8176
▁892	-11.8178
64	-11.818
▁extensively	-11.8184
▁1382	-11.8185
▁pulle	-11.8187
▁managed	-11.8188
this	-11.8191
By	-11.8192
▁881	-11.8197
▁147,	-11.8199
▁reconcile	-11.8202
▁Ar	-11.8204
▁1152	-11.8207
▁ho	-11.8212
▁samples	-11.8217
35	-11.8221
▁broadcasters	-11.8222
12	-11.8227
▁tri	-11.8233
▁1928	-11.8233
ions	-11.8241
▁Ha	-11.8244
▁transfers	-11.8255
our	-11.8256
▁Field	-11.8258
▁909	-11.8259
▁54,	-11.8261
▁shells	-11.8264
atch	-11.8265
▁prop	-11.8265
▁counted	-11.8268
▁youth	-11.8277
▁bounds	-11.8287
▁thousands	-11.8288
▁...”	-11.8304
▁80,	-11.8306
▁mines	-11.8316
▁shipowners	-11.8326
ual	-11.8329
▁(1938).	-11.833
▁chooses	-11.833
▁Contract	-11.8333
▁reinforce	-11.8359
▁Pr	-11.8362
▁Jeffre	-11.8363
▁arms	-11.8364
▁restraints	-11.8373
70	-11.8375
mann	-11.8377
ca	-11.8379
▁912	-11.8381
▁incomplete	-11.8383
uel	-11.8391
▁assessments	-11.8397
bore	-11.8399
void	-11.8402
▁Pan	-11.8413
▁conceal	-11.8414
▁(1949).	-11.8414
▁print	-11.842
▁sells	-11.8423
▁complying	-11.8426
▁490	-11.8426
hold	-11.8428
▁Bi	-11.8429
88	-11.8433
-2(	-11.8435
case	-11.8436
▁721	-11.8437
95	-11.8438
appeal	-11.8442
▁vast	-11.8451
▁tank	-11.8452
▁dicta	-11.846
▁906,	-11.8465
▁Taxpayer	-11.8465
▁accomplice	-11.8468
▁criticism	-11.8469
▁revision	-11.8471
▁advertisement	-11.8472
▁computation	-11.8473
▁symbol	-11.8473
▁distributor	-11.8474
▁tactic	-11.8475
labor	-11.8475
▁accountant	-11.8476
▁intervenor	-11.8476
▁invitee	-11.8477
▁arrestee	-11.8478
▁prohibitions	-11.848
▁yard	-11.8484
▁Kings	-11.8488
46	-11.8489
▁belonging	-11.8491
▁lists	-11.8492
pa	-11.8494
sey	-11.8495
▁acquisitions	-11.8497
▁sometime	-11.8498
oid	-11.85
All	-11.8504
.1968).	-11.851
▁1940).	-11.8511
▁Brand	-11.8511
▁corroborate	-11.8513
▁institute	-11.8517
au	-11.8518
▁frustrate	-11.8519
▁493	-11.8522
75	-11.8523
▁INSUR	-11.8532
▁mass	-11.8535
36	-11.8536
▁accompany	-11.8537
lton	-11.854
▁33,	-11.8541
▁lightly	-11.8542
point	-11.8547
▁earn	-11.8548
▁Cr	-11.8548
available	-11.8549
necessary	-11.8549
▁774	-11.8549
Minn	-11.855
Chamberlain	-11.855
Robert	-11.8551
Ohio	-11.8551
1973.	-11.8551
employer	-11.8551
explained	-11.8552
could	-11.8552
mate	-11.8554
▁mechanic	-11.8555
Gen	-11.8556
▁malicious	-11.8557
▁abandon	-11.856
▁inflict	-11.856
hereafter	-11.8564
▁Po	-11.8566
▁Elliot	-11.8568
▁cab	-11.857
eyond	-11.8571
▁impart	-11.8573
▁quant	-11.8573
▁caveat	-11.8573
Act	-11.8573
▁inevitab	-11.8573
misunderstanding	-11.8574
▁Accurate	-11.8574
▁Affairs	-11.8574
▁Argersinger	-11.8574
▁Assistance	-11.8574
▁Coolidge	-11.8574
▁Erdos	-11.8574
▁Hopkins	-11.8574
▁Joyner	-11.8574
▁Kilpatrick	-11.8574
▁McGowan	-11.8574
▁McKnight	-11.8574
▁Morales	-11.8574
▁Reliable	-11.8574
▁Ridge	-11.8574
▁Tilwick	-11.8574
▁adapt	-11.8574
▁analogy	-11.8574
▁atmosphere	-11.8574
▁beneath	-11.8574
▁convening	-11.8574
▁decisive	-11.8574
▁disabilities	-11.8574
▁falsity	-11.8574
▁fictitious	-11.8574
▁gasoline	-11.8574
▁gravity	-11.8574
▁headquarters	-11.8574
▁hypothesis	-11.8574
▁kitchen	-11.8574
▁predisposition	-11.8574
▁underwriter	-11.8574
▁unregistered	-11.8574
▁violent	-11.8574
▁wagon	-11.8574
▁1625.2	-11.8574
▁OAKES	-11.8574
▁Schwartz	-11.8574
▁Sistare	-11.8574
▁Wilmington	-11.8574
▁hidden	-11.8574
▁occupancy	-11.8574
▁caliber	-11.8574
▁Pollack	-11.8574
▁Prince	-11.8574
▁petty	-11.8574
▁Laughlin	-11.8574
▁diagnosis	-11.8574
▁vertical	-11.8574
▁Establishment	-11.8574
▁dissimilar	-11.8574
▁JAMESON	-11.8574
▁Bowles	-11.8574
▁entail	-11.8574
▁secular	-11.8574
Chavez	-11.8574
▁Judd	-11.8574
▁assailant	-11.8574
▁nitrog	-11.8574
▁propound	-11.8574
▁Moses	-11.8574
▁democratic	-11.8574
▁4208(	-11.8574
▁inevitable	-11.8574
▁Automobile	-11.8574
▁diligent	-11.8574
▁possibilities	-11.8574
▁verify	-11.8574
▁voluntariness	-11.8574
▁Economic	-11.8574
▁concentration	-11.8575
▁introducing	-11.8575
▁arraigned	-11.8575
▁edge	-11.8575
▁Shorty	-11.8575
▁Armstrong	-11.8575
▁Cardinal	-11.8575
▁Monti	-11.8575
▁Rundle	-11.8576
▁Erie	-11.8576
▁GSA	-11.8576
▁somehow	-11.8576
▁casual	-11.8577
▁alibi	-11.8577
▁sophisticated	-11.8577
▁consignee	-11.8577
▁Chasen	-11.8577
▁transpired	-11.8577
▁discourage	-11.8578
▁sincerity	-11.8578
▁Warner	-11.8578
▁divest	-11.8578
▁unloaded	-11.8578
▁cancelled	-11.8578
▁ELY	-11.8579
▁upward	-11.8579
fact	-11.8579
▁advancement	-11.858
▁1099	-11.858
▁divorce	-11.858
▁LSD	-11.8583
▁1199	-11.8584
▁Shell	-11.8585
▁Ra	-11.8586
▁Bob	-11.8588
▁Group	-11.8588
▁111,	-11.8589
▁rarely	-11.859
▁stairs	-11.8591
▁Whoever	-11.8592
▁Sain	-11.8592
inherently	-11.8592
▁Kahn	-11.8593
▁Rate	-11.8595
▁988	-11.8596
▁ensued	-11.8596
▁optional	-11.8597
▁530	-11.8597
Connell	-11.8598
▁misse	-11.8598
▁appropriateness	-11.8599
▁allocate	-11.8599
izing	-11.8602
▁789	-11.8602
▁confused	-11.8603
▁seal	-11.8603
▁546	-11.8603
▁carbamate	-11.8603
▁35(	-11.8604
49	-11.8604
▁699	-11.8604
▁797	-11.8605
▁579	-11.8605
▁806	-11.8606
▁790	-11.8608
▁977	-11.8608
▁objectionable	-11.8609
▁therewith	-11.8609
▁683	-11.8609
▁707	-11.8609
▁DX	-11.861
▁colleagues	-11.861
▁implicitly	-11.8612
▁stems	-11.8615
▁soliciting	-11.8617
▁explored	-11.8617
▁910	-11.8621
▁deter	-11.8621
▁831	-11.8623
▁wheels	-11.8625
▁enlarged	-11.8626
rabbed	-11.8629
▁6(	-11.8632
▁geographical	-11.8633
par	-11.864
▁Ya	-11.8641
▁economical	-11.8642
▁hourly	-11.8644
▁792	-11.8649
▁exemplar	-11.8651
ST	-11.8654
▁Trucking	-11.8654
▁remind	-11.8655
▁Sons	-11.8657
▁880	-11.8661
▁drafted	-11.8661
▁933	-11.8667
▁exemplars	-11.8673
▁hereof	-11.8678
▁Sylv	-11.8679
hyl	-11.8683
39	-11.8684
▁Tel	-11.8686
▁897	-11.8696
▁843	-11.8696
▁2(	-11.8697
▁1949)	-11.8704
▁43,	-11.8709
▁th	-11.871
▁913	-11.871
▁intra	-11.8712
▁slips	-11.8714
21	-11.8715
▁asks	-11.8717
▁evaluated	-11.8726
▁tenants	-11.8734
▁Leo	-11.8738
▁Ab	-11.8746
▁prescriptions	-11.8749
▁viewing	-11.8755
▁829	-11.8767
▁Reports	-11.8777
▁Col	-11.8783
▁567	-11.8783
win	-11.879
▁heading	-11.8796
▁tools	-11.8811
IC	-11.8813
▁2593	-11.8813
▁governs	-11.8819
▁665	-11.8823
tra	-11.8825
▁unsafe	-11.8837
ins	-11.8839
▁excepted	-11.8841
▁Actions	-11.8845
▁35,	-11.8845
CT	-11.885
▁Does	-11.8868
▁950	-11.8873
ria	-11.8882
▁191,	-11.8889
▁commands	-11.8894
01	-11.89
asse	-11.89
▁Sun	-11.8901
▁1939	-11.8903
significant	-11.8907
You	-11.891
▁pertains	-11.8923
▁stops	-11.8926
eo	-11.8932
ise	-11.8938
▁News	-11.894
▁220,	-11.8952
wage	-11.8954
▁830	-11.8955
).”	-11.8962
▁quarter	-11.8963
He	-11.8967
▁1945	-11.8969
▁overlook	-11.8973
▁guest	-11.8974
▁shoe	-11.8976
▁tract	-11.8976
▁Hunt	-11.8976
▁servant	-11.8978
▁assignee	-11.8979
▁Andrew	-11.8981
▁(1943).	-11.8981
have	-11.8986
▁995	-11.8992
employment	-11.8992
▁Homes	-11.8995
mer	-11.8996
▁706(	-11.9001
▁770,	-11.901
▁improve	-11.9013
take	-11.902
▁Jim	-11.9024
stand	-11.9031
▁procur	-11.9037
from	-11.904
LA	-11.9041
▁adjust	-11.9043
▁deceit	-11.9043
▁warn	-11.9044
06	-11.9048
clock	-11.905
▁contraven	-11.905
Although	-11.9051
United	-11.9051
unlawful	-11.9051
▁cur	-11.9052
Trial	-11.9052
unless	-11.9052
▁unexpected	-11.9054
▁geographic	-11.9055
▁streets	-11.9055
▁Offices	-11.9056
satisfied	-11.9056
▁licens	-11.9057
▁commenc	-11.9057
netheless	-11.9057
▁rare	-11.9057
▁rob	-11.906
election	-11.9063
▁Walsh	-11.9065
▁residu	-11.9065
▁subscribe	-11.9066
▁Pape	-11.9069
▁¡	-11.9071
▁sweep	-11.9072
▁contacts	-11.9072
▁Baum	-11.9073
>	-11.9073
apital	-11.9073
irearms	-11.9073
▁Roche	-11.9074
▁Major	-11.9074
▁harbor	-11.9074
▁APPENDIX	-11.9074
▁Aerojet	-11.9074
▁Albuquerque	-11.9074
▁Bluhdorn	-11.9074
▁CELEBREZZE	-11.9074
▁Cadillac	-11.9074
▁Children	-11.9074
▁Comunale	-11.9074
▁Conspiracy	-11.9074
▁HOLLOWAY	-11.9074
▁McLean	-11.9074
▁Pollution	-11.9074
▁Resources	-11.9074
▁Restaurant	-11.9074
▁Rosenthal	-11.9074
▁TUTTLE	-11.9074
▁Wohl	-11.9074
▁aforesaid	-11.9074
▁confusing	-11.9074
▁conspiracies	-11.9074
▁corridor	-11.9074
▁embargo	-11.9074
▁encouraging	-11.9074
▁entrant	-11.9074
▁erosion	-11.9074
▁inapposite	-11.9074
▁relevancy	-11.9074
▁vitiate	-11.9074
▁DYER	-11.9074
▁grasp	-11.9074
▁rescission	-11.9074
▁Belcher	-11.9074
▁Eubanks	-11.9074
▁Sheriff	-11.9074
▁embody	-11.9074
▁imbalance	-11.9074
▁pantry	-11.9074
▁rival	-11.9074
▁Attica	-11.9074
▁Rothwacks	-11.9074
▁constable	-11.9074
▁Distributors	-11.9074
▁Prosser	-11.9074
▁Apex	-11.9074
▁surgic	-11.9074
▁Platt	-11.9074
▁Travelers	-11.9074
▁salutary	-11.9074
▁evasion	-11.9074
▁nobis	-11.9074
▁capability	-11.9074
▁Montague	-11.9074
▁Biggin	-11.9074
▁Export	-11.9074
▁scarce	-11.9074
▁Idaho	-11.9074
▁Barlow	-11.9074
▁recruitment	-11.9074
▁Harvester	-11.9074
▁Women	-11.9074
91-513	-11.9074
▁Sunday	-11.9074
▁Speck	-11.9074
▁sick	-11.9074
▁Rod	-11.9074
▁preferential	-11.9074
▁Vega	-11.9074
▁MARY	-11.9074
▁unfavorable	-11.9074
▁flood	-11.9074
▁theretofore	-11.9074
▁Rubber	-11.9074
▁Spinelli	-11.9074
▁inconsistencies	-11.9074
▁2113(	-11.9074
▁Marchetti	-11.9074
▁whereabouts	-11.9074
▁Kilberg	-11.9074
▁Subsection	-11.9074
▁Sears	-11.9075
▁Taft	-11.9075
▁unreasonably	-11.9075
▁deception	-11.9075
▁memory	-11.9075
▁Hughes	-11.9075
Rul	-11.9075
▁accomplishment	-11.9075
▁Deere	-11.9075
▁abundant	-11.9075
▁shipping	-11.9075
▁Schmidt	-11.9075
▁Summary	-11.9075
▁Junior	-11.9076
▁preferable	-11.9076
▁Frankel	-11.9076
▁1292(	-11.9076
▁Berna	-11.9076
▁Veterans	-11.9077
▁BMA	-11.9077
▁Doyle	-11.9078
▁impressed	-11.9078
▁equipped	-11.9078
worthy	-11.9078
▁distilled	-11.9078
▁disposal	-11.908
▁facing	-11.908
▁303,	-11.9081
▁anxiety	-11.9081
▁Salem	-11.9081
▁commuter	-11.9081
▁Lang	-11.9081
▁Thereupon	-11.9082
▁standardized	-11.9083
▁Lastly	-11.9083
▁Are	-11.9083
▁sharing	-11.9084
▁NASA	-11.9084
▁1229	-11.9085
▁(1941).	-11.9086
▁overturned	-11.9086
▁1733	-11.9086
▁301(	-11.9087
▁exaction	-11.9087
▁521	-11.9088
▁conferences	-11.9088
▁arisen	-11.9088
▁occasionally	-11.9088
▁older	-11.9089
▁inspected	-11.9091
▁1111	-11.9091
▁inadequacy	-11.9092
▁761	-11.9092
mund	-11.9092
▁728	-11.9093
▁criticized	-11.9093
▁Pate	-11.9094
▁961	-11.9094
▁Town	-11.9094
▁965	-11.9096
▁1130	-11.9096
▁interposed	-11.9096
▁663	-11.9096
▁1344	-11.9097
▁77(	-11.9098
▁595	-11.9098
▁1871	-11.9099
▁Common	-11.91
▁intelligently	-11.9102
▁985	-11.9103
▁height	-11.9104
▁698	-11.9107
▁955	-11.9109
▁McN	-11.9109
▁bureaus	-11.9112
▁materiality	-11.9113
▁printing	-11.9113
▁677	-11.9113
▁resumed	-11.9114
▁779	-11.9116
▁939	-11.9118
tax	-11.9118
▁Win	-11.9122
My	-11.9122
▁Officials	-11.9123
▁518	-11.9125
▁670	-11.9125
paralyzant	-11.9126
▁repaired	-11.9126
▁nowhere	-11.9127
▁893	-11.9127
▁indications	-11.9129
▁drinking	-11.9131
▁851	-11.9133
▁816	-11.9134
▁improved	-11.9136
.1966)	-11.9136
▁rem	-11.9137
▁components	-11.9138
▁writer	-11.914
▁rata	-11.9146
▁784	-11.9148
▁patentable	-11.9148
▁preclud	-11.915
▁intelligence	-11.9151
ap	-11.9157
ak	-11.9162
▁additions	-11.9168
eight	-11.9169
▁happen	-11.9169
▁naturally	-11.9171
▁882	-11.9171
▁Andrews	-11.9174
▁guests	-11.9174
▁agricultural	-11.9176
▁agreeing	-11.9177
▁3(	-11.9178
▁fashioning	-11.9179
▁constructing	-11.918
▁parcels	-11.9186
▁taxicabs	-11.919
▁Bat	-11.9194
▁inaction	-11.9195
▁practically	-11.9199
▁130,	-11.9202
▁insists	-11.9207
▁Elizabeths	-11.9211
▁God	-11.9211
▁928	-11.9212
▁developments	-11.9222
▁834	-11.9222
▁907	-11.9223
▁lessees	-11.9233
▁927	-11.9238
▁defending	-11.9239
▁917	-11.9239
ft	-11.925
▁Parts	-11.9255
ieutenant	-11.9261
och	-11.9283
▁929	-11.9314
▁domiciled	-11.9316
▁Inter	-11.933
net	-11.9332
-20	-11.9341
▁1171	-11.9357
▁revenues	-11.9358
rel	-11.936
▁lights	-11.936
▁867	-11.9366
▁Anna	-11.9372
▁Still	-11.9378
▁72-170	-11.939
▁infringe	-11.9396
ded	-11.9408
hose	-11.9409
zar	-11.9409
▁52,	-11.9413
▁/	-11.942
▁700	-11.942
▁penalize	-11.9423
▁73,	-11.9424
▁reside	-11.9441
▁roads	-11.9445
▁Fore	-11.9446
▁919	-11.9447
att	-11.9449
▁disagreed	-11.9465
hroughout	-11.947
Plaintiff	-11.9472
plaintiff	-11.9473
▁Buck	-11.9478
New	-11.948
▁experiment	-11.9483
▁Gr	-11.9486
▁fugitive	-11.9492
▁accusation	-11.9494
▁auditor	-11.9495
▁entrance	-11.9496
▁drain	-11.9496
▁Member	-11.9498
both	-11.9499
▁barrier	-11.9501
hard	-11.9501
▁detective	-11.9502
pp	-11.9507
▁observer	-11.9514
▁120,	-11.9517
▁preserv	-11.9518
▁Jay	-11.952
▁1949,	-11.9524
▁misrepresent	-11.9527
▁arbitrate	-11.9533
▁decrease	-11.9535
▁conceive	-11.9538
▁imagine	-11.9538
known	-11.9538
rew	-11.9541
(2	-11.9552
▁skills	-11.9557
▁Operat	-11.957
▁hy	-11.9572
▁138,	-11.9576
▁condemn	-11.9576
departmental	-11.9577
McGee	-11.9577
Alaska	-11.9577
amount	-11.9577
book	-11.9577
Order	-11.9577
Judge	-11.9577
application	-11.9579
page	-11.9579
Mich	-11.9579
▁survive	-11.9581
▁wilful	-11.9583
▁crash	-11.9585
▁Certain	-11.9587
VE	-11.9587
ave	-11.959
63	-11.9593
▁Holland	-11.9598
▁dark	-11.9598
▁boil	-11.9599
▁315,	-11.96
▁BREITENSTEIN	-11.96
▁Bulletin	-11.96
▁CUMMINGS	-11.96
▁Coppoletta	-11.96
▁Grievance	-11.96
▁HUFSTEDLER	-11.96
▁Haines	-11.96
▁Newspaper	-11.96
▁Pisacano	-11.96
▁Presumably	-11.96
▁SERVICE	-11.96
▁Swersky	-11.96
▁Trailer	-11.96
▁Watson	-11.96
▁communities	-11.96
▁distress	-11.96
▁guise	-11.96
▁illicit	-11.96
▁medicine	-11.96
▁oppressive	-11.96
▁psychological	-11.96
▁responsive	-11.96
▁undesirable	-11.96
▁Cuomo	-11.96
▁Merrill	-11.96
▁lodge	-11.96
▁tribal	-11.96
▁untimely	-11.96
▁1960-63	-11.96
▁Circular	-11.96
▁Steamship	-11.96
▁offensive	-11.96
▁Jeffries	-11.96
▁abstain	-11.96
▁unidentified	-11.96
▁Analysis	-11.96
▁Seconal	-11.96
ITZ	-11.96
▁Giglio	-11.96
▁deterrent	-11.96
▁Harper	-11.96
05	-11.96
▁Hotel	-11.96
▁Renshaw	-11.96
▁copper	-11.96
▁Hensley	-11.96
▁Seide	-11.96
▁sixteen	-11.96
▁Woodard	-11.9601
▁Navy	-11.9601
▁1971-72	-11.9601
▁surgeon	-11.9601
▁impairment	-11.9601
▁hazardous	-11.9601
▁pecuniar	-11.9601
▁slow	-11.9601
▁GMAC	-11.9601
▁Hobbs	-11.9601
▁Manhattan	-11.9601
▁frequency	-11.9601
▁pornography	-11.9601
▁Gravette	-11.9601
▁Pratt	-11.9601
▁consummation	-11.9601
▁classroom	-11.9601
▁Udall	-11.9601
▁layoff	-11.9601
▁Bread	-11.9602
▁unjustifiable	-11.9602
▁summoned	-11.9602
▁dynamite	-11.9602
▁Webster	-11.9602
▁plural	-11.9602
▁incentive	-11.9602
▁ineffectiveness	-11.9602
▁custodian	-11.9602
▁APA	-11.9602
even	-11.9602
▁Donna	-11.9602
▁candy	-11.9602
▁iron	-11.9602
▁reimbursement	-11.9603
▁CSA	-11.9603
▁Shields	-11.9603
▁Initially	-11.9603
▁Ervin	-11.9603
▁Sportscaster	-11.9603
▁eminent	-11.9604
▁Witness	-11.9605
▁Mission	-11.9606
▁Elliott	-11.9606
▁belonged	-11.9608
▁gear	-11.9608
actic	-11.9608
▁graduate	-11.9608
▁Immediately	-11.9609
▁[1]	-11.9609
▁casing	-11.9609
▁DU	-11.9611
ua	-11.9613
▁1188	-11.9613
▁sit	-11.9614
▁1101	-11.9615
▁IAM	-11.9615
▁1292	-11.9616
▁ice	-11.9616
oreign	-11.9617
▁illegality	-11.9618
ck	-11.9618
▁soil	-11.9619
▁962	-11.9619
▁Weber	-11.962
▁consummated	-11.962
▁1280	-11.9623
▁donor	-11.9624
▁labeled	-11.9624
▁waited	-11.9625
▁insufficiency	-11.9626
▁646	-11.9626
▁Sa	-11.9628
▁1217	-11.9628
▁815	-11.963
▁fast	-11.963
▁fulfilled	-11.9631
▁“(3)	-11.9632
▁658	-11.9633
▁756	-11.9634
▁948	-11.9634
▁562	-11.9635
▁737	-11.9637
▁558	-11.9637
▁23(	-11.9639
ino	-11.964
▁subpoenaed	-11.9642
▁615	-11.9643
▁inequitable	-11.9643
▁lite	-11.9643
▁mortgagee	-11.9644
▁invoices	-11.9645
▁Station	-11.9648
▁advisers	-11.9648
▁selecting	-11.9651
▁closer	-11.9653
▁1021	-11.9654
▁671	-11.9654
▁Mayes	-11.9657
▁835	-11.9658
▁lias	-11.9661
▁bath	-11.9664
▁549	-11.9665
und	-11.9667
Id	-11.9667
junctive	-11.9669
▁855	-11.9669
▁940	-11.967
▁900	-11.9677
▁883	-11.9678
▁108,	-11.9682
▁publicity	-11.9684
▁Deaktors	-11.9684
▁forbids	-11.9685
▁Fish	-11.9687
▁annually	-11.9693
▁603	-11.9694
▁trailers	-11.9695
▁nominations	-11.9717
▁Instructions	-11.9723
HY	-11.9724
▁conspirators	-11.9727
▁IT	-11.9727
▁895	-11.9727
ev	-11.9728
▁loose	-11.9732
▁1602	-11.9737
▁phrases	-11.974
▁responses	-11.9745
▁appropriations	-11.975
▁races	-11.9751
43	-11.9756
ack	-11.976
▁852	-11.9762
hoe	-11.9762
ina	-11.9775
▁Ka	-11.9776
▁compounds	-11.9778
▁stopp	-11.9781
▁briefed	-11.9782
▁CR	-11.9785
▁$3,000	-11.9793
ru	-11.9793
eries	-11.9794
▁914	-11.9798
art	-11.9801
▁72-13	-11.9807
▁1002	-11.9811
▁807	-11.9837
81	-11.9839
▁dam	-11.9842
▁predecessors	-11.985
76	-11.9855
▁ambit	-11.9856
▁1163	-11.987
-23	-11.9882
▁goals	-11.9883
▁781	-11.9887
▁wording	-11.9893
▁840	-11.9911
▁cru	-11.9912
rey	-11.9917
▁wood	-11.992
▁fly	-11.9924
▁PA	-11.9937
week	-11.994
▁possessor	-11.9944
▁(1940).	-11.9953
verage	-11.9958
▁fo	-11.9959
paid	-11.9961
ilton	-11.9973
▁690	-11.9984
ery	-11.9988
ik	-11.9988
▁precedents	-11.999
▁Pe	-11.9991
▁propose	-11.9995
▁1960.	-11.9997
omic	-11.9999
▁ships	-12.0004
▁Record	-12.0017
▁stress	-12.0019
purpose	-12.0024
Defendant	-12.0026
▁debates	-12.0027
clusion	-12.0028
▁(1955).	-12.0031
100%	-12.0044
▁sidewalk	-12.0047
▁bridge	-12.0048
▁deferral	-12.0049
▁tribunal	-12.0053
▁Cooley	-12.0053
▁Intervenor	-12.0058
▁trailer	-12.006
▁(8)	-12.006
▁Teamster	-12.0061
▁Letter	-12.0069
▁noise	-12.007
▁commissioner	-12.0074
▁fears	-12.0081
.10	-12.0082
▁denials	-12.0082
aken	-12.0088
▁disapprove	-12.0094
▁Sheet	-12.0094
▁obligate	-12.0096
tracted	-12.0097
▁taxed	-12.0097
▁obviate	-12.0101
▁140,	-12.0101
▁Whit	-12.0103
▁overturn	-12.0104
▁voter	-12.0104
▁97,	-12.0105
till	-12.0106
▁conspirator	-12.0107
▁Foo	-12.0107
▁prefer	-12.0108
▁assemble	-12.0117
▁interfer	-12.0117
▁526,	-12.0117
▁Tank	-12.0118
▁correspond	-12.0118
▁mortgages	-12.0121
1963	-12.0122
▁utiliz	-12.0123
construction	-12.0131
progressive	-12.0132
_	-12.0132
Valium	-12.0132
mentioned	-12.0132
General	-12.0133
Federal	-12.0133
when	-12.0133
knowledge	-12.0133
must	-12.0133
Every	-12.0133
Where	-12.0134
May	-12.0135
Tex	-12.0135
subordinate	-12.0135
hill	-12.0136
▁Name	-12.0137
▁$20	-12.0139
▁unequivocal	-12.0139
▁forfeit	-12.014
ung	-12.0141
Colo	-12.0141
▁thwart	-12.0142
▁Tom	-12.0142
▁connect	-12.0143
Ky	-12.0145
hour	-12.0145
▁reward	-12.0145
mental	-12.0146
▁Sta	-12.0147
▁plate	-12.0147
▁strengthen	-12.0149
▁bo	-12.015
written	-12.015
▁cataly	-12.0152
▁finger	-12.0155
eclaratory	-12.0155
▁match	-12.0155
▁Bloom	-12.0156
▁strenuous	-12.0156
.1962)	-12.0156
▁(1917)	-12.0156
▁Arbitration	-12.0156
▁Cheyenne	-12.0156
▁Concern	-12.0156
▁Corbett	-12.0156
▁Cordova	-12.0156
▁Croix	-12.0156
▁Doctrine	-12.0156
▁Flannery	-12.0156
▁Froniabarger	-12.0156
▁Helpers	-12.0156
▁MEHAFFY	-12.0156
▁Masszonia	-12.0156
▁Schneider	-12.0156
▁Study	-12.0156
▁Trausch	-12.0156
▁WNJR	-12.0156
▁battery	-12.0156
▁choosing	-12.0156
▁concurrence	-12.0156
▁delicate	-12.0156
▁gentleman	-12.0156
▁squir	-12.0156
▁untrue	-12.0156
▁Cosmetic	-12.0156
▁Geiermann	-12.0156
▁KILEY	-12.0156
▁Landoe	-12.0156
▁Pickering	-12.0156
▁Schroering	-12.0156
▁Skolek	-12.0156
▁averment	-12.0156
▁copied	-12.0156
▁observing	-12.0156
▁McKart	-12.0156
▁Omni	-12.0156
▁indemnitee	-12.0156
▁Tinker	-12.0156
▁ANDERSON	-12.0156
▁Bullock	-12.0156
▁Lyson	-12.0156
▁unpersuasive	-12.0156
▁Graff	-12.0156
▁Parham	-12.0156
▁Resor	-12.0156
▁seventeen	-12.0156
▁chronic	-12.0156
▁demonstrators	-12.0156
▁Leroce	-12.0156
▁Sabo	-12.0156
▁Lipton	-12.0156
▁abide	-12.0156
▁accumulation	-12.0156
▁stevedoring	-12.0156
▁Glori	-12.0156
▁intercourse	-12.0156
▁Clinic	-12.0156
▁cruel	-12.0156
▁stoppage	-12.0156
▁utilization	-12.0156
▁overlap	-12.0156
▁Dillon	-12.0156
▁municipalities	-12.0156
▁Interest	-12.0156
▁CMHA	-12.0156
▁Prugh	-12.0156
▁Solomon	-12.0156
▁inferior	-12.0156
▁unresolved	-12.0156
▁equities	-12.0156
▁conjecture	-12.0156
Malley	-12.0156
▁Blumberg	-12.0156
▁imminent	-12.0156
▁Wyman	-12.0157
▁Miles	-12.0157
▁elapsed	-12.0157
▁hospitalization	-12.0157
▁Dictionary	-12.0157
▁Vito	-12.0157
▁Tenney	-12.0157
▁slightest	-12.0157
▁tbe	-12.0157
▁ferr	-12.0157
▁2254(	-12.0157
▁Million	-12.0157
▁Louisville	-12.0157
▁bushe	-12.0157
▁Benjamin	-12.0158
▁Lloyd	-12.0158
▁controversial	-12.0158
▁Sylvania	-12.0158
▁assembly	-12.0158
▁Maine	-12.0158
▁Roman	-12.0158
▁unreported	-12.0158
▁misstatement	-12.0159
▁Train	-12.0159
ible	-12.0159
▁Dale	-12.0159
▁desirability	-12.0159
▁continual	-12.016
▁Sergeant	-12.016
▁bulletin	-12.016
▁Siegel	-12.016
▁Joe	-12.016
▁skin	-12.016
▁basement	-12.016
▁Oakland	-12.0161
▁gassy	-12.0161
▁robbed	-12.0161
▁irrevocable	-12.0161
▁Out	-12.0161
▁Holding	-12.0161
▁Silver	-12.0162
▁1117	-12.0162
▁Byrd	-12.0162
▁581	-12.0163
▁Milk	-12.0163
▁carriage	-12.0164
▁flexible	-12.0164
▁circle	-12.0166
▁visible	-12.0166
▁Annot	-12.0166
▁mindful	-12.0166
▁apprehended	-12.0167
▁interruptible	-12.0168
▁tolled	-12.0168
ified	-12.017
▁1318	-12.017
▁Mobile	-12.017
)(6)	-12.0171
▁1319	-12.0172
▁understandable	-12.0173
▁somewhere	-12.0173
▁941	-12.0173
▁54(	-12.0173
▁adds	-12.0173
▁stabbing	-12.0174
▁989	-12.0176
▁occupational	-12.0176
▁1178	-12.0176
▁attacker	-12.0177
▁Nolan	-12.0177
▁depth	-12.0178
▁3731	-12.0178
▁Cities	-12.0179
▁converted	-12.0179
▁succeeded	-12.018
▁reissue	-12.0181
▁402(	-12.0182
▁628	-12.0182
▁HAYS	-12.0182
▁consulted	-12.0184
▁732	-12.0184
▁adjunct	-12.0184
▁695	-12.0184
▁667	-12.0185
▁687	-12.0185
▁1009	-12.0188
▁similarity	-12.0189
▁Stow	-12.0191
▁defeated	-12.0192
▁pri	-12.0193
▁$9,000	-12.0195
▁572	-12.0195
▁805	-12.0196
▁coerced	-12.0197
▁Forms	-12.0197
96	-12.0199
▁supposedly	-12.02
▁775	-12.0202
▁forwarder	-12.0203
▁Mull	-12.0204
▁966	-12.0204
▁978	-12.0204
▁526	-12.0206
602(	-12.0208
▁517	-12.0209
99	-12.0209
▁1926	-12.0209
▁Coming	-12.0218
▁WILLIAMS	-12.0219
▁resided	-12.0223
▁858	-12.0223
91	-12.0232
▁tires	-12.0233
▁frustrated	-12.0233
Transfer	-12.0236
▁870	-12.0241
ert	-12.0246
rian	-12.0248
▁supervised	-12.0251
ification	-12.0256
▁plates	-12.0256
chlordiazepoxide	-12.0256
▁935	-12.0257
ancy	-12.0258
▁concededly	-12.0259
▁detectives	-12.0262
HOL	-12.0269
▁1424	-12.027
▁(1945).	-12.0271
▁intervenors	-12.0274
▁1071	-12.0275
nie	-12.0278
examined	-12.0281
▁transcripts	-12.0288
being	-12.0288
▁Through	-12.0304
▁1945)	-12.0306
away	-12.0306
▁playing	-12.0311
▁farming	-12.0311
▁insignificant	-12.0318
inal	-12.0322
▁illustrates	-12.0325
▁Arm	-12.0326
▁assur	-12.0328
ological	-12.0329
brid	-12.0338
▁Times	-12.0344
▁proportions	-12.0344
▁beside	-12.0346
ther	-12.0357
cal	-12.0361
)(3).	-12.0362
▁reclassifi	-12.0372
▁Har	-12.0378
suitable	-12.0381
▁terminals	-12.0397
▁citations	-12.0401
▁Mil	-12.0412
▁inhibit	-12.0415
▁1953).	-12.0424
▁walls	-12.0426
▁Facts	-12.0429
itt	-12.0438
▁925	-12.0439
▁inventions	-12.044
▁interfered	-12.0443
▁Mines	-12.0448
inter	-12.045
▁64,	-12.0453
med	-12.0455
▁Con	-12.0457
▁Bor	-12.0457
ou	-12.0457
▁1956).	-12.0462
▁Overt	-12.0463
▁1931	-12.0472
mel	-12.0473
▁emphasizes	-12.0476
▁1275	-12.0483
▁carts	-12.049
ied	-12.0512
▁RO	-12.0517
▁waste	-12.0526
▁Trimbles	-12.0533
direct	-12.0541
▁remanding	-12.0544
THE	-12.0545
▁tap	-12.0557
▁666	-12.0562
▁812	-12.0565
ign	-12.0566
defined	-12.0568
▁Rhodes	-12.0569
▁365,	-12.0578
lees	-12.059
▁Pilots	-12.0593
▁$50,000	-12.0608
ccident	-12.0611
0)	-12.0615
▁Judgments	-12.0623
.1971)	-12.0625
▁valve	-12.0636
▁relocation	-12.0636
▁disturbance	-12.064
▁household	-12.064
▁era	-12.0641
▁surveyor	-12.0641
▁envelope	-12.0642
▁860	-12.0645
▁Brook	-12.0645
▁crystal	-12.0648
▁hauler	-12.065
▁1955).	-12.0652
▁border	-12.0668
ha	-12.067
▁(1933)	-12.0674
▁1949	-12.0679
after	-12.0683
▁satisfie	-12.0683
▁dissolve	-12.0684
▁discontinue	-12.0684
1)	-12.0687
▁expedite	-12.0687
ella	-12.069
▁combine	-12.0692
▁photo	-12.0693
body	-12.0695
(5)	-12.0698
▁proscribe	-12.0699
▁68,	-12.07
▁haul	-12.0704
▁disqualify	-12.0707
▁Serv	-12.0711
▁practic	-12.0715
SULLIVAN	-12.0718
Me	-12.0718
indictment	-12.0719
fraud	-12.072
McKinney	-12.072
Kahn	-12.072
Ark	-12.0721
faith	-12.0721
▁overrid	-12.0721
TIA	-12.0722
income	-12.0722
evidence	-12.0722
Under	-12.0722
But	-12.0722
▁converse	-12.0727
▁rapid	-12.0727
legal	-12.0727
▁expeditious	-12.0728
mons	-12.0728
29	-12.0728
▁eventual	-12.0729
▁Additional	-12.073
▁annex	-12.073
▁proffer	-12.073
▁disclaim	-12.0731
▁forfeitures	-12.0732
bill	-12.0734
▁244,	-12.0736
▁Kean	-12.0737
▁expend	-12.0738
▁Safe	-12.0743
IDEN	-12.0743
▁hall	-12.0743
▁servi	-12.0743
▁recruit	-12.0743
▁(1923)	-12.0744
▁64.702(	-12.0744
▁AINSWORTH	-12.0744
▁ASSOCIATION	-12.0744
▁DUNIWAY	-12.0744
▁Dewey	-12.0744
▁Dickerson	-12.0744
▁Gissel	-12.0744
▁Guzman	-12.0744
▁Improvement	-12.0744
▁Kaiser	-12.0744
▁Kaufman	-12.0744
▁Lehman	-12.0744
▁Llewellyn	-12.0744
▁MERRILL	-12.0744
▁Navigation	-12.0744
▁Oliver	-12.0744
▁RUSSELL	-12.0744
▁Saturday	-12.0744
▁Spoonhunter	-12.0744
▁Squella	-12.0744
▁Welsh	-12.0744
▁Westinghouse	-12.0744
▁ancient	-12.0744
▁backlog	-12.0744
▁capacities	-12.0744
▁currency	-12.0744
▁disavow	-12.0744
▁domiciliary	-12.0744
▁earliest	-12.0744
▁efficacy	-12.0744
▁filthy	-12.0744
▁levy	-12.0744
▁purview	-12.0744
▁sequence	-12.0744
▁syndrome	-12.0744
▁thirteen	-12.0744
▁traverse	-12.0744
▁utilities	-12.0744
▁Aidala	-12.0744
▁Bartlett	-12.0744
▁Brewing	-12.0744
▁Volkswagen	-12.0744
▁indemnification	-12.0744
▁radical	-12.0744
▁GOODWIN	-12.0744
▁Strong	-12.0744
▁hostility	-12.0744
▁ALDRICH	-12.0744
▁Collier	-12.0744
▁McCREE	-12.0744
▁Shareholders	-12.0744
▁Adrian	-12.0744
▁Gun	-12.0744
▁McDonald	-12.0744
▁Sewer	-12.0744
▁Hicks	-12.0744
▁Reorganization	-12.0744
▁blast	-12.0744
▁tension	-12.0744
▁deterioration	-12.0744
▁foster	-12.0744
▁Steward	-12.0744
▁bribery	-12.0744
▁prominent	-12.0744
OSTER	-12.0744
▁boom	-12.0744
▁expectancy	-12.0744
▁Pierre	-12.0744
▁Ashley	-12.0744
▁Treas	-12.0744
▁troublesome	-12.0744
▁Cannon	-12.0744
▁Classification	-12.0744
▁ORDERED	-12.0744
▁dependency	-12.0744
▁$20,000	-12.0744
▁patriae	-12.0744
▁Cobb	-12.0744
▁accommodation	-12.0744
▁insistence	-12.0744
▁Airways	-12.0744
▁unaffiliated	-12.0744
▁candor	-12.0744
▁perspective	-12.0744
▁Dixon	-12.0744
▁Jenkins	-12.0745
▁MHWM	-12.0745
▁Schedule	-12.0745
▁Vaughan	-12.0745
▁monitor	-12.0745
▁untenable	-12.0745
▁cognizant	-12.0745
▁dair	-12.0745
▁Montre	-12.0745
▁Warehouse	-12.0745
▁offset	-12.0745
▁BARNES	-12.0745
▁Keller	-12.0745
▁Stricklin	-12.0745
▁pursuit	-12.0745
▁sympathy	-12.0745
▁ipsa	-12.0745
▁Troy	-12.0746
▁Munn	-12.0746
niform	-12.0746
▁overruling	-12.0746
▁target	-12.0746
▁venue	-12.0746
▁Tavtigian	-12.0746
▁unwise	-12.0746
▁(1926)	-12.0746
▁Georgetown	-12.0747
▁Rowe	-12.0747
▁Crawford	-12.0747
▁Nutter	-12.0747
▁sham	-12.0748
vided	-12.0749
▁Abraham	-12.0749
▁du	-12.0749
▁somebody	-12.0749
▁instructive	-12.075
▁gap	-12.075
▁fresh	-12.075
▁Why	-12.075
▁Canal	-12.075
ux	-12.075
hart	-12.075
▁realization	-12.0751
▁ABC	-12.0751
▁bypass	-12.0751
▁Engineering	-12.0752
▁Key	-12.0752
▁blow	-12.0752
▁Butler	-12.0752
▁round	-12.0753
▁tit	-12.0753
action	-12.0754
▁1120	-12.0755
▁1230	-12.0756
▁1323	-12.0756
▁202(	-12.0756
▁blue	-12.0757
MAN	-12.0757
▁everyone	-12.0757
▁Ba	-12.0757
▁rank	-12.0758
▁738	-12.0758
▁profitable	-12.0758
▁1068	-12.0758
▁CAST	-12.0759
▁oriented	-12.0759
▁3109	-12.076
▁1304	-12.076
▁1069	-12.076
▁endorsed	-12.0761
)(3)(	-12.0761
▁reaches	-12.0761
▁realm	-12.0762
▁compiled	-12.0763
▁hereunder	-12.0763
▁voyage	-12.0765
▁1079	-12.0765
annie	-12.0766
▁inaccurate	-12.0766
▁acquiesced	-12.0766
▁herewith	-12.0767
▁McKinney	-12.0768
▁doubtless	-12.0771
▁973	-12.0771
▁598	-12.0771
▁ounces	-12.0771
▁unilaterally	-12.0773
▁1170	-12.0774
▁Wise	-12.0774
▁Pleas	-12.0774
▁401(	-12.0775
▁incorporation	-12.0775
arlington	-12.0776
▁formation	-12.0776
▁1015	-12.0776
▁990	-12.0778
▁1037	-12.0778
▁Way	-12.078
These	-12.078
▁increasingly	-12.0781
▁disqualifying	-12.0781
▁validated	-12.0782
▁964	-12.0783
▁2%	-12.0784
▁566	-12.0784
▁specificity	-12.0784
▁32(	-12.0785
▁serviceman	-12.0787
▁sky	-12.0792
▁disbursements	-12.0796
▁Johnston	-12.0797
▁publish	-12.0797
▁604	-12.0799
▁859	-12.08
▁incompatible	-12.0801
▁818	-12.0801
▁fruits	-12.0802
▁1010	-12.0805
-38	-12.0808
▁knowledgeable	-12.0809
▁impermissib	-12.0815
▁878	-12.0816
▁839	-12.0824
▁closet	-12.0824
-32	-12.0826
▁narrowed	-12.0826
▁888	-12.0827
▁alleviate	-12.0828
▁SSS	-12.0831
▁boys	-12.0833
▁868	-12.0835
▁542	-12.0835
dded	-12.0842
▁Mink	-12.0844
▁770	-12.0848
RY	-12.0848
▁affix	-12.0853
▁servants	-12.0864
ral	-12.0864
ake	-12.0866
▁distributors	-12.087
sser	-12.0871
▁Wa	-12.0871
IAL	-12.0872
▁modifying	-12.0879
▁subcontracts	-12.0882
▁50,	-12.0886
ants	-12.0888
▁explains	-12.0892
▁buying	-12.0894
▁beams	-12.0895
▁Myr	-12.0896
▁assistants	-12.0901
▁Ash	-12.0903
▁875	-12.0903
▁repudiate	-12.0906
69	-12.0909
▁wiretaps	-12.0913
▁sew	-12.0925
▁78,	-12.0926
▁BE	-12.0927
let	-12.0934
▁alterations	-12.0938
89	-12.0938
27	-12.0945
ETT	-12.0953
▁1157	-12.0954
▁Sir	-12.0955
47	-12.0962
utterly	-12.0972
-21	-12.0983
▁Misc	-12.1005
▁cl	-12.1007
▁Dis	-12.101
▁Par	-12.1011
ERS	-12.1012
▁nations	-12.1026
▁36,	-12.1028
les	-12.1039
▁coats	-12.1042
▁visits	-12.1046
▁462.	-12.1057
▁touch	-12.1057
ug	-12.1063
▁284,	-12.1068
▁1115	-12.1069
plain	-12.1072
▁decedents	-12.1079
];	-12.1081
▁Typ	-12.1084
▁volumes	-12.1095
▁dispense	-12.11
▁reserves	-12.111
mark	-12.1115
▁McGra	-12.1115
lli	-12.1123
▁1959).	-12.1126
▁commitments	-12.1126
▁175,	-12.1132
▁comfort	-12.1133
▁847	-12.1143
tions	-12.1146
con	-12.1146
▁Lowe	-12.1155
▁qua	-12.1156
▁95,	-12.1157
▁teams	-12.1159
UM	-12.1163
Ex	-12.1169
▁cap	-12.1175
▁Patents	-12.118
▁Mac	-12.1181
92	-12.1183
▁75,	-12.1183
▁west	-12.1187
-19	-12.1192
▁rang	-12.1193
▁drill	-12.1195
head	-12.1197
RON	-12.1198
▁72-10	-12.1199
▁lots	-12.1203
ging	-12.1207
ada	-12.1211
▁recite	-12.1213
▁diminish	-12.1214
aries	-12.1216
trinsic	-12.1217
yes	-12.1217
Up	-12.1219
ail	-12.1224
▁1943	-12.1224
fringe	-12.1233
cceptance	-12.1236
set	-12.1236
▁waters	-12.1236
▁1098	-12.1241
▁par	-12.1252
▁turning	-12.1254
▁ordinances	-12.1254
Rule	-12.1256
)]	-12.1257
▁executor	-12.1264
▁Investigation	-12.1265
▁Contractor	-12.1266
▁athletic	-12.1267
▁Deaktor	-12.1269
▁Flower	-12.1269
▁gallon	-12.1271
▁cup	-12.1272
▁Ball	-12.1274
▁minister	-12.1276
▁847,	-12.1278
▁enterprises	-12.1286
position	-12.1289
▁forbid	-12.1299
▁incriminate	-12.13
▁1953)	-12.1305
▁misuse	-12.1305
▁suppose	-12.1309
▁enlarge	-12.131
▁formulate	-12.131
▁Term	-12.1318
▁119,	-12.1325
▁expose	-12.1327
▁outline	-12.1328
▁(1934)	-12.1328
▁advocate	-12.1331
▁mislead	-12.1332
▁cont	-12.1335
▁50,000	-12.1336
make	-12.1343
common	-12.1344
°	-12.1344
prong	-12.1344
boat	-12.1344
Whoever	-12.1345
Const	-12.1345
examining	-12.1345
Tenn	-12.1346
John	-12.1346
security	-12.1346
insurance	-12.1346
purchase	-12.1346
conviction	-12.1346
first	-12.1346
▁complet	-12.1346
although	-12.1347
▁belated	-12.1351
▁confess	-12.1353
▁Weis	-12.1354
▁relinquish	-12.1355
their	-12.1355
▁impound	-12.1355
▁premature	-12.1356
▁Gu	-12.1356
dealing	-12.1357
igan	-12.1357
▁broke	-12.1361
emporary	-12.1362
▁detect	-12.1364
▁tub	-12.1366
▁Deposit	-12.1366
▁advisor	-12.1367
▁senior	-12.1368
▁disrupt	-12.1368
HOUT	-12.1368
▁drunk	-12.1368
onciliation	-12.1368
▁bottle	-12.1368
extraneous	-12.1369
▁Academy	-12.1369
▁Birmingham	-12.1369
▁Exercis	-12.1369
▁Fuentes	-12.1369
▁GOVERNMENT	-12.1369
▁Ginzburg	-12.1369
▁HEARING	-12.1369
▁Hartshorn	-12.1369
▁Herreman	-12.1369
▁Imlay	-12.1369
▁LUMBARD	-12.1369
▁Problem	-12.1369
▁Roberson	-12.1369
▁Sledjeski	-12.1369
▁Texaco	-12.1369
▁Viruet	-12.1369
▁anomalous	-12.1369
▁congestion	-12.1369
▁discarded	-12.1369
▁fortiori	-12.1369
▁homosexual	-12.1369
▁monolith	-12.1369
▁proximity	-12.1369
▁sketch	-12.1369
▁statutorily	-12.1369
▁swpra	-12.1369
▁unenforceable	-12.1369
▁Mclnerney	-12.1369
▁Roebuck	-12.1369
▁Tamm	-12.1369
▁alarm	-12.1369
▁impossibility	-12.1369
▁porch	-12.1369
▁spoil	-12.1369
▁verification	-12.1369
▁INGRAHAM	-12.1369
▁Route	-12.1369
▁blind	-12.1369
▁clarity	-12.1369
▁Natale	-12.1369
▁naming	-12.1369
▁dissolution	-12.1369
▁Barrett	-12.1369
▁inescapable	-12.1369
▁1343(3)	-12.1369
▁century	-12.1369
▁diazepam	-12.1369
▁inquest	-12.1369
▁Singleton	-12.1369
▁Cause	-12.1369
▁Olson	-12.1369
▁breakdown	-12.1369
▁vindication	-12.1369
▁Vernon	-12.1369
▁Workmen	-12.1369
▁Drivers	-12.1369
▁7237(	-12.1369
▁wonder	-12.1369
▁medication	-12.1369
▁Dumbaugh	-12.1369
▁Indictment	-12.1369
▁Denial	-12.1369
▁Grimshaw	-12.137
▁plenary	-12.137
▁unnecessarily	-12.137
▁Huston	-12.137
▁Coralville	-12.137
▁Venada	-12.137
devastating	-12.137
▁Hickel	-12.137
▁Jacksonville	-12.137
▁recourse	-12.137
▁diversion	-12.137
wald	-12.137
▁plausible	-12.137
▁Burnett	-12.137
▁Omark	-12.137
▁Healy	-12.137
▁dry	-12.137
▁Auto	-12.137
▁pickup	-12.137
▁cities	-12.1371
▁Tyler	-12.1371
▁5861(	-12.1371
▁ride	-12.1371
▁vocation	-12.1371
▁reemployment	-12.1371
mergency	-12.1371
▁Carlson	-12.1371
▁couched	-12.1371
▁Reid	-12.1371
▁AMERICA	-12.1372
abrie	-12.1372
▁Colvin	-12.1372
▁NEW	-12.1372
▁candid	-12.1372
▁Would	-12.1372
▁upstairs	-12.1372
▁Myers	-12.1373
▁TWA	-12.1373
▁impartiality	-12.1373
▁creed	-12.1373
▁overhead	-12.1373
▁succession	-12.1373
▁Documents	-12.1373
▁acquainted	-12.1373
▁disappeared	-12.1375
▁[2]	-12.1375
▁(1912)	-12.1375
▁transcribed	-12.1375
▁volunteered	-12.1375
▁sect	-12.1376
alvage	-12.1376
▁Lahr	-12.1376
▁‘[	-12.1377
▁mission	-12.1377
▁Clay	-12.1377
▁Lois	-12.1378
▁1988	-12.1379
▁recitation	-12.1379
▁codified	-12.1379
▁partisan	-12.138
▁combat	-12.1382
aving	-12.1383
▁Blacks	-12.1383
▁hung	-12.1383
▁Circle	-12.1384
▁verbal	-12.1384
▁approaches	-12.1385
▁1868	-12.1385
▁Luck	-12.1385
▁experimental	-12.1386
▁transferor	-12.1386
▁craft	-12.1387
▁2281	-12.1387
▁1061	-12.1388
▁rich	-12.1388
▁Wake	-12.1388
▁predicted	-12.1389
▁mud	-12.1389
▁inclusive	-12.139
▁consumed	-12.1391
▁Pol	-12.1391
▁599	-12.1393
sch	-12.1395
▁aids	-12.1396
▁1045	-12.1396
▁1074	-12.1396
▁1113	-12.1399
▁772	-12.1401
▁1041	-12.1401
▁statewide	-12.1401
(4)	-12.1402
▁Chambers	-12.1405
▁commentators	-12.1405
▁sanctioned	-12.1406
▁wind	-12.1408
▁981	-12.141
▁lender	-12.141
ountain	-12.141
▁Issues	-12.1411
▁LINE	-12.1412
▁cautioned	-12.1413
▁hauling	-12.1414
▁Benn	-12.1417
▁courthouse	-12.1418
▁concealing	-12.1419
▁821	-12.1419
▁defender	-12.142
▁17(	-12.1422
▁997	-12.143
▁Persons	-12.143
▁enlist	-12.1433
▁learning	-12.1433
▁scores	-12.1437
▁outlets	-12.1437
▁Luke	-12.1441
▁professors	-12.1444
▁variations	-12.1444
ano	-12.1448
▁Cor	-12.1449
▁Wil	-12.1449
ef	-12.1457
▁footing	-12.1457
▁(1944).	-12.1459
▁182,	-12.146
▁useless	-12.1466
▁Particular	-12.1466
▁mount	-12.1466
▁deprivations	-12.1468
▁gallons	-12.147
▁Pi	-12.1471
▁Weiss	-12.1471
▁862	-12.1473
▁864	-12.1476
▁937	-12.1477
▁collecting	-12.1478
▁793	-12.1482
▁1(	-12.1482
▁guns	-12.1482
▁Cit	-12.1484
▁Cy	-12.1484
5)	-12.1487
ontrary	-12.1489
▁pledged	-12.149
.1969).	-12.1491
▁942	-12.1498
▁revok	-12.1499
ographical	-12.1501
wa	-12.1506
▁1555	-12.1509
▁1341	-12.1524
mining	-12.154
▁legitimately	-12.1541
▁st	-12.1557
▁purposeful	-12.1565
▁dispens	-12.157
▁traded	-12.1571
▁insur	-12.1571
▁650,	-12.1571
▁amending	-12.1573
▁overly	-12.1579
▁declares	-12.1584
San	-12.1585
ag	-12.1585
92,	-12.1593
▁Forest	-12.1598
▁62,	-12.1599
62	-12.16
▁300,	-12.1613
▁Jo	-12.1622
58,	-12.1622
▁inventors	-12.1623
▁severed	-12.1624
▁confers	-12.1624
baum	-12.1626
▁Cold	-12.1628
▁subdivisions	-12.1629
-0	-12.1635
▁1020	-12.1636
▁Daniels	-12.1648
▁differentials	-12.1649
▁(1937).	-12.1656
▁aim	-12.166
▁á	-12.1664
▁1732	-12.1675
▁4)	-12.1679
▁Au	-12.1686
▁openly	-12.1688
iel	-12.1692
▁Country	-12.1694
▁106,	-12.1698
oli	-12.1712
▁WE	-12.1717
▁1252	-12.1725
02	-12.1731
▁adjustments	-12.1743
▁Sand	-12.1746
▁newspapers	-12.1757
▁383,	-12.1768
▁SU	-12.177
▁zon	-12.1774
lay	-12.1793
▁1,3	-12.1793
▁adher	-12.1799
mas	-12.1824
ENTAL	-12.1841
▁crossed	-12.1844
▁Goods	-12.1845
▁appearances	-12.1849
00)	-12.1853
▁Writ	-12.1856
▁400,	-12.1865
▁Edw	-12.1866
mar	-12.1866
▁owns	-12.1868
ium	-12.1869
▁861	-12.1871
▁(1949),	-12.1872
▁1947).	-12.1875
▁Search	-12.1875
act	-12.1878
▁forma	-12.1884
▁distinguishe	-12.1885
▁Ste	-12.1886
terrogatory	-12.1894
▁disclosures	-12.1897
gricultural	-12.19
▁61,	-12.1901
EY	-12.1905
▁protests	-12.1916
▁intercept	-12.1916
▁2,000	-12.1918
rn	-12.1921
▁bribe	-12.1928
▁Battersby	-12.1929
72.	-12.1931
▁magazine	-12.1932
▁calculation	-12.1932
▁pleasure	-12.1932
▁Proceeding	-12.1935
▁landowner	-12.1935
▁1103	-12.1939
▁suitcase	-12.194
▁(1939).	-12.1944
rt	-12.1951
▁542,	-12.1952
▁approximate	-12.1955
▁Adm	-12.1956
▁boy	-12.1956
▁Mill	-12.1959
▁convene	-12.1969
▁style	-12.1969
▁undi	-12.197
▁historic	-12.1973
lyn	-12.1973
work	-12.1974
▁(11	-12.1975
▁invite	-12.1975
▁adduce	-12.1977
▁articulate	-12.1978
nor	-12.1979
▁shield	-12.1982
-14	-12.1985
▁park	-12.1988
▁Let	-12.1988
▁teach	-12.1996
found	-12.1996
▁dump	-12.1997
▁1014	-12.1998
▁Wi	-12.2003
▁(29	-12.2006
knowing	-12.2007
born	-12.201
RICH	-12.201
counsel	-12.201
▁desir	-12.2011
raw	-12.2011
▁adjudicat	-12.2011
Part	-12.2011
Chi	-12.2012
Defense	-12.2012
Special	-12.2012
Iowa	-12.2012
individual	-12.2012
April	-12.2012
subject	-12.2012
Congress	-12.2012
While	-12.2013
rnest	-12.2013
bona	-12.2014
exceptional	-12.2014
▁halt	-12.2015
Our	-12.2016
Kan	-12.2017
▁Recent	-12.2018
approved	-12.2018
▁Similar	-12.2019
earned	-12.202
go	-12.2021
▁deduct	-12.2021
▁abolish	-12.2022
▁empower	-12.2022
▁truthful	-12.2023
urate	-12.2029
OMIN	-12.2031
▁arguabl	-12.2031
racial	-12.2031
▁Bryan	-12.2034
rift	-12.2035
worthiness	-12.2035
▁guess	-12.2035
„	-12.2035
▁125-37	-12.2035
▁Ackles	-12.2035
▁Advertising	-12.2035
▁Alderman	-12.2035
▁Arlington	-12.2035
▁BOREMAN	-12.2035
▁Babcock	-12.2035
▁Broushett	-12.2035
▁Error	-12.2035
▁Frazier	-12.2035
▁Friedlander	-12.2035
▁Gideon	-12.2035
▁Glickman	-12.2035
▁Helvering	-12.2035
▁KAUFMAN	-12.2035
▁KILKENNY	-12.2035
▁Litigation	-12.2035
▁Maenza	-12.2035
▁Nernberg	-12.2035
▁Nursing	-12.2035
▁Ordinance	-12.2035
▁Snyder	-12.2035
▁TRASK	-12.2035
▁Taketa	-12.2035
▁Technician	-12.2035
▁corollary	-12.2035
▁deletion	-12.2035
▁dubious	-12.2035
▁incompetency	-12.2035
▁justifiably	-12.2035
▁levied	-12.2035
▁progeny	-12.2035
▁subpena	-12.2035
▁vacant	-12.2035
▁BUTZNER	-12.2035
▁Bishop	-12.2035
▁Century	-12.2035
▁Modrey	-12.2035
▁Schauffler	-12.2035
▁compartment	-12.2035
▁executrix	-12.2035
▁monoxide	-12.2035
▁unavailability	-12.2035
civic	-12.2035
▁Duncan	-12.2035
▁dilemma	-12.2035
▁null	-12.2035
▁Amritt	-12.2035
▁Emmons	-12.2035
▁Logan	-12.2035
▁Perini	-12.2035
▁View	-12.2035
▁Werner	-12.2035
▁Cheung	-12.2035
▁Esther	-12.2035
▁McDowell	-12.2035
▁Village	-12.2035
▁Wyo	-12.2035
▁longshoremen	-12.2035
▁reseal	-12.2035
▁Transmission	-12.2036
▁Vaughn	-12.2036
▁Camden	-12.2036
▁Dutch	-12.2036
▁cantilever	-12.2036
▁loyalty	-12.2036
▁viz	-12.2036
▁Prud	-12.2036
▁disinterested	-12.2036
▁flash	-12.2036
▁discernible	-12.2036
▁imperative	-12.2036
▁retirement	-12.2036
▁destination	-12.2036
▁Reference	-12.2036
▁enormous	-12.2036
▁Temple	-12.2036
▁censorship	-12.2036
martial	-12.2036
▁Boyce	-12.2036
▁Engel	-12.2036
▁Reform	-12.2036
▁bottlers	-12.2036
▁unsatisfactory	-12.2036
▁taught	-12.2036
▁1963-66	-12.2036
▁refresh	-12.2036
▁Grier	-12.2036
▁paren	-12.2036
▁Garber	-12.2036
▁brokerage	-12.2036
▁Neu	-12.2036
▁slot	-12.2036
▁Blavier	-12.2036
▁demeanor	-12.2036
▁justiciable	-12.2036
▁Dodge	-12.2036
▁Molina	-12.2036
▁Christensen	-12.2036
▁jurisprudence	-12.2036
▁nondisclosure	-12.2036
▁Receiver	-12.2037
▁Grace	-12.2037
▁disaffiliation	-12.2037
▁extortion	-12.2037
▁Taking	-12.2037
▁clothes	-12.2037
▁harmful	-12.2037
▁Room	-12.2037
▁Goodyear	-12.2037
▁Acres	-12.2037
▁redirect	-12.2037
▁$10,000.00	-12.2038
▁Jesse	-12.2038
▁urgent	-12.2038
▁precipitate	-12.2038
▁Golden	-12.2038
▁Condition	-12.2038
▁Next	-12.2038
▁advocacy	-12.2038
▁Goldman	-12.2038
▁Hollander	-12.2038
▁Half	-12.2038
▁Klaw	-12.2038
▁Pinto	-12.2038
▁vitality	-12.2039
▁sensible	-12.2039
4)	-12.2039
▁72-1637	-12.2039
▁BNDD	-12.204
▁attaches	-12.204
▁hinge	-12.204
▁hint	-12.204
▁Tate	-12.204
ency	-12.204
▁23.1	-12.204
▁Sims	-12.204
▁excusable	-12.2041
▁Domicile	-12.2041
▁Berman	-12.2041
▁XII	-12.2041
▁layman	-12.2041
▁Shaw	-12.2041
▁flagrant	-12.2041
▁uniformity	-12.2041
▁furnishes	-12.2042
▁JAMES	-12.2042
▁Plastic	-12.2043
▁mutuality	-12.2043
▁1985	-12.2043
▁prize	-12.2043
▁discusses	-12.2044
▁2042	-12.2044
▁definitive	-12.2045
▁gentlemen	-12.2045
▁recount	-12.2045
▁1498	-12.2045
▁passive	-12.2045
▁external	-12.2045
▁prolonged	-12.2046
▁(§	-12.2047
▁NIC	-12.2047
▁navigation	-12.2047
▁1051	-12.2048
49,	-12.2048
▁Penal	-12.205
▁fn	-12.205
▁impounded	-12.205
▁1270	-12.205
▁undercut	-12.205
▁1228	-12.2051
▁1000	-12.2052
▁1356	-12.2052
▁1158	-12.2052
▁1221	-12.2052
▁reductions	-12.2052
▁duplicate	-12.2053
▁unfairness	-12.2053
▁******	-12.2054
▁Whitney	-12.2055
▁Apart	-12.2055
▁farmers	-12.2055
▁occasional	-12.2055
▁sealed	-12.2055
▁te	-12.2055
▁1112	-12.2055
▁Hood	-12.2056
▁Status	-12.2057
▁1209	-12.2057
▁Levin	-12.2057
▁Plann	-12.2057
▁interrogated	-12.2057
▁stationary	-12.2058
▁1294	-12.2059
▁1186	-12.2059
▁Publications	-12.206
▁Investors	-12.2061
▁cred	-12.2061
Yes	-12.2061
▁curtailed	-12.2061
▁billion	-12.2061
▁1139	-12.2062
▁976	-12.2062
▁1173	-12.2063
▁1827	-12.2064
▁1027	-12.2064
▁Walla	-12.2065
▁982	-12.2066
▁survivors	-12.2066
▁1241	-12.2067
▁songs	-12.2067
▁(1925)	-12.2067
▁kickbacks	-12.2068
▁Injunction	-12.2068
▁696	-12.2069
▁Like	-12.207
841(	-12.207
Breed	-12.2071
▁1058	-12.2071
▁1030	-12.2072
▁Drive	-12.2072
▁1110	-12.2073
▁latest	-12.2073
▁Wedg	-12.2073
▁Electronics	-12.2075
▁735	-12.2075
▁sec	-12.2075
▁1243	-12.2076
▁locked	-12.2077
▁2022	-12.2081
▁Recording	-12.2081
▁superseded	-12.2082
▁equated	-12.2083
dating	-12.2089
Patm	-12.209
▁992	-12.2092
▁proofs	-12.2093
▁Nation	-12.2094
▁emerged	-12.2096
▁Have	-12.21
▁1509	-12.2101
▁Systems	-12.2101
rule	-12.2105
▁1105	-12.2106
▁principals	-12.2109
tz	-12.2109
▁Mayor	-12.2111
▁journey	-12.2116
▁compris	-12.2117
▁defrauded	-12.2117
▁conferr	-12.2118
▁$250	-12.212
NER	-12.2122
▁directives	-12.2123
▁dimensions	-12.2123
▁ratings	-12.2123
▁differed	-12.2124
pt	-12.2125
▁Organizations	-12.213
nburg	-12.2131
▁Forte	-12.2135
▁attain	-12.2137
ern	-12.2139
▁safely	-12.2139
▁fares	-12.2141
▁Bon	-12.2141
Sup	-12.2144
ray	-12.2145
▁mo	-12.2153
full	-12.2156
▁896	-12.2158
▁Intervenors	-12.2158
due	-12.2158
▁Tri	-12.2162
mic	-12.2165
bility	-12.2169
▁aider	-12.2172
▁871	-12.2176
▁symbols	-12.2179
▁barrel	-12.2183
▁charters	-12.2183
▁877	-12.2183
▁160,	-12.2187
▁Banking	-12.2192
▁1302	-12.2192
▁Clar	-12.2196
▁decides	-12.2204
▁explanations	-12.2207
sell	-12.2214
▁537	-12.2215
▁necessitates	-12.2217
▁Low	-12.2219
Wis	-12.2222
▁quotations	-12.2229
IT	-12.2231
▁hereto	-12.2234
▁Sit	-12.2239
▁96,	-12.224
perfectly	-12.2246
wit	-12.2247
▁guards	-12.2251
▁906	-12.2255
ose	-12.2255
▁hu	-12.2258
▁culminate	-12.226
▁labels	-12.2261
ridge	-12.2267
▁houses	-12.2268
▁Kane	-12.2268
▁pronounce	-12.2269
▁spirits	-12.2272
▁915	-12.2274
▁Attorneys	-12.2278
))	-12.2283
98	-12.2294
tap	-12.2297
▁Mon	-12.2298
mi	-12.2298
▁Expert	-12.2299
CH	-12.2305
lest	-12.2306
▁deeds	-12.2308
oo	-12.2309
▁1182	-12.2313
▁patentees	-12.2317
▁170,	-12.2319
▁mechanisms	-12.2322
▁persist	-12.2327
56	-12.2331
▁airports	-12.2336
▁Opinions	-12.2343
▁611	-12.2349
▁contexts	-12.2352
▁Belle	-12.2354
▁Brito	-12.2359
▁fork	-12.2362
▁illegitimates	-12.2372
▁forcibl	-12.2375
▁abettor	-12.2381
▁burdens	-12.2382
▁experiences	-12.2385
▁prevails	-12.2396
▁Clerks	-12.2401
AND	-12.2405
▁Ge	-12.2405
▁finish	-12.2427
▁frauds	-12.2432
▁164,	-12.2433
▁backed	-12.244
85	-12.2442
▁fled	-12.2448
mo	-12.2451
▁cha	-12.2452
▁1942)	-12.2454
▁colleges	-12.2466
▁recit	-12.2472
▁prerequisites	-12.2474
▁pressures	-12.2488
▁blocks	-12.2496
active	-12.2512
▁Vaca	-12.2516
RM	-12.2536
iff	-12.2546
▁$2,	-12.2563
ame	-12.2574
upper	-12.2574
▁$1,	-12.2584
ette	-12.2591
dicative	-12.2596
▁phrased	-12.2597
NS	-12.26
ttached	-12.2605
.1963).	-12.2609
▁1944)	-12.261
▁1943,	-12.261
▁1957).	-12.2616
▁totall	-12.2619
▁qui	-12.262
180	-12.262
member	-12.2621
▁Directors	-12.2628
▁lawn	-12.2632
▁tradition	-12.264
▁captain	-12.2644
▁chattel	-12.2646
▁Exception	-12.2646
▁Hot	-12.2649
▁Organization	-12.2649
▁Claimant	-12.265
▁Rogallo	-12.265
▁technique	-12.2651
▁Conclusion	-12.2651
▁tire	-12.2655
▁drawer	-12.2656
▁maxim	-12.266
5%	-12.2664
.38	-12.2665
▁issuer	-12.267
▁cable	-12.2672
▁quota	-12.2683
ouble	-12.2685
▁reiterate	-12.2688
What	-12.2691
“	-12.2691
▁listen	-12.2692
▁explore	-12.2692
reed	-12.2703
▁breache	-12.2705
▁announce	-12.2706
▁Hu	-12.2706
mere	-12.2708
▁actor	-12.2708
▁seize	-12.2708
▁Organize	-12.2709
die	-12.2709
»	-12.2715
▁profession	-12.2716
place	-12.2722
insured	-12.2725
Proc	-12.2725
major	-12.2725
▁Gut	-12.2726
dictum	-12.2726
south	-12.2726
Management	-12.2727
Okl	-12.2727
gambling	-12.2727
•	-12.2727
contact	-12.2727
service	-12.2727
Chief	-12.2727
Griffin	-12.2727
ourt	-12.2727
78,	-12.2728
▁initiat	-12.2728
robation	-12.2728
door	-12.2729
▁Hay	-12.2731
Party	-12.2731
▁ALD	-12.2732
▁Berg	-12.2732
▁Schools	-12.2733
▁71-16	-12.2733
▁Individual	-12.2733
▁List	-12.2734
▁depict	-12.2736
▁RIVE	-12.2737
town	-12.2737
mont	-12.2738
Well	-12.2739
▁Osborn	-12.2741
Ala	-12.2744
Air	-12.2744
▁Wolf	-12.2745
▁roof	-12.2746
rofessional	-12.2747
rivate	-12.2747
▁Wheat	-12.2748
▁irrational	-12.2748
▁Webb	-12.2748
▁lunch	-12.2749
▁Duffy	-12.275
▁debris	-12.275
▁horse	-12.275
▁knee	-12.275
▁timber	-12.275
................	-12.275
EXAMIN	-12.275
grievous	-12.275
▁Amount	-12.275
▁Assoc	-12.275
▁COMMUNICATION	-12.275
▁Craig	-12.275
▁Felix	-12.275
▁GENERAL	-12.275
▁Jaffe	-12.275
▁Jennings	-12.275
▁Judiciary	-12.275
▁Lenhard	-12.275
▁Liechtenstein	-12.275
▁Mandamus	-12.275
▁Manufacturers	-12.275
▁Stubbs	-12.275
▁Teachers	-12.275
▁Television	-12.275
▁Travia	-12.275
▁clutch	-12.275
▁escort	-12.275
▁friction	-12.275
▁invocation	-12.275
▁junior	-12.275
▁larceny	-12.275
▁loquitur	-12.275
▁motel	-12.275
▁ordained	-12.275
▁reprisal	-12.275
▁royalties	-12.275
▁steam	-12.275
▁telegraph	-12.275
▁ALDISERT	-12.275
▁Blumenfeld	-12.275
▁Donnelly	-12.275
▁Europe	-12.275
▁Flynn	-12.275
▁Harshaw	-12.275
▁INDUSTRI	-12.275
▁Massiah	-12.275
▁Mempa	-12.275
▁Nixon	-12.275
▁Subject	-12.275
▁Treatise	-12.275
▁afraid	-12.275
▁brown	-12.275
▁impulse	-12.275
▁unchanged	-12.275
▁Sentencing	-12.275
▁Tariff	-12.275
▁blame	-12.275
▁juncture	-12.275
▁Barraco	-12.275
▁Conduct	-12.275
▁Norris	-12.275
▁Radbill	-12.275
▁STEEL	-12.275
▁Stafford	-12.275
▁culpability	-12.275
▁Corbin	-12.275
▁Shannon	-12.275
Gomez	-12.275
▁delicti	-12.275
▁mockery	-12.275
▁McGinnis	-12.275
▁overseas	-12.275
▁Blair	-12.275
▁Maple	-12.275
▁conceivable	-12.275
▁parochial	-12.275
▁Brenden	-12.275
▁intestate	-12.275
▁MARKU	-12.275
▁Modern	-12.275
▁trend	-12.275
▁Dairy	-12.275
▁retaliation	-12.275
▁Branch	-12.275
▁Thurs	-12.275
▁pauperis	-12.275
▁desk	-12.275
▁lamp	-12.275
▁remuneration	-12.275
▁McDonnell	-12.275
▁uncontroverted	-12.275
▁CHOY	-12.275
▁Landrum	-12.275
▁Isham	-12.275
▁Everson	-12.275
▁interruption	-12.275
▁Cataldo	-12.275
▁Hansen	-12.275
▁acreage	-12.275
oliday	-12.275
▁countries	-12.275
▁BANK	-12.275
▁ALPA	-12.275
▁SCHO	-12.275
▁trustworthy	-12.2751
▁ignorance	-12.2751
▁backpay	-12.2751
▁Keating	-12.2751
▁conciliation	-12.2751
▁grace	-12.2751
▁Directive	-12.2751
▁flame	-12.2751
▁Boilermakers	-12.2751
▁Costello	-12.2751
▁comity	-12.2751
▁pervasive	-12.2751
▁Fidelity	-12.2751
▁catch	-12.2751
▁Cotton	-12.2751
ubic	-12.2751
▁Wingo	-12.2751
▁leasehold	-12.2751
approximately	-12.2751
▁sanity	-12.2751
▁weekend	-12.2751
▁Krause	-12.2751
▁diverse	-12.2751
Div	-12.2751
▁Bobby	-12.2751
▁caveator	-12.2752
▁nonpayment	-12.2752
▁Joel	-12.2752
▁SUB	-12.2752
▁Wharton	-12.2752
▁justifiable	-12.2752
▁Irwin	-12.2752
▁Lindenbaum	-12.2752
▁[3]	-12.2752
▁corroborative	-12.2752
▁thin	-12.2753
▁discrepancy	-12.2753
▁Currie	-12.2753
▁Dade	-12.2754
▁McKie	-12.2754
▁Function	-12.2754
▁symptoms	-12.2754
▁dioxin	-12.2754
▁recreation	-12.2754
▁quiet	-12.2754
▁Minter	-12.2754
▁preservation	-12.2755
▁tower	-12.2755
▁conveyance	-12.2755
▁uncovered	-12.2755
▁4332(2)	-12.2755
▁host	-12.2756
▁Stamp	-12.2756
▁sand	-12.2757
▁FAA	-12.2757
▁MARIS	-12.2757
▁highlight	-12.2758
▁1083	-12.2758
▁1086	-12.2758
▁Early	-12.2759
▁Decker	-12.2759
▁suprem	-12.2759
▁206(	-12.2759
▁Leventhal	-12.2759
▁Eastman	-12.276
▁peaceful	-12.276
bidding	-12.276
▁Chile	-12.2761
▁Materials	-12.2761
▁soap	-12.2761
▁alluded	-12.2762
▁honesty	-12.2762
tagged	-12.2762
▁modest	-12.2763
▁1129	-12.2763
emocratic	-12.2763
personal	-12.2764
▁Stern	-12.2764
▁deducted	-12.2765
▁narrower	-12.2765
▁flee	-12.2765
▁Barber	-12.2765
▁abolished	-12.2765
▁1632.2	-12.2766
▁1100	-12.2766
▁1313	-12.2767
▁artificial	-12.2768
delega	-12.2768
▁1065	-12.2769
▁15%	-12.2769
▁cow	-12.277
▁Anno	-12.277
▁1256	-12.2773
▁commentary	-12.2773
▁1172	-12.2774
▁74(	-12.2774
▁951	-12.2774
▁1093	-12.2775
▁1090	-12.2776
▁remarked	-12.2777
alley	-12.2777
▁1063	-12.2778
▁belt	-12.2778
▁460,	-12.2779
▁Guidelines	-12.2779
▁1889	-12.2779
▁1999	-12.2779
▁sharply	-12.2779
▁1232	-12.2779
▁1357	-12.2779
▁nolo	-12.2781
▁1381	-12.2783
▁676	-12.2783
▁routinely	-12.2784
▁institutional	-12.2784
▁rolling	-12.2785
▁Rio	-12.2785
▁1161	-12.2786
▁liquidated	-12.2787
▁Super	-12.2787
burn	-12.2787
▁1503	-12.2787
substantially	-12.279
▁1731	-12.279
▁technicians	-12.2791
▁owes	-12.2791
need	-12.2791
▁bylaws	-12.2792
▁1033	-12.2792
▁MO	-12.2792
▁Scha	-12.2793
▁788	-12.2794
▁991	-12.2796
▁986	-12.2796
▁pg	-12.2798
▁Sciences	-12.2799
▁drugstores	-12.2799
six	-12.2799
▁compels	-12.2807
▁particularity	-12.2808
▁reexamine	-12.2809
▁24(	-12.281
▁Singer	-12.2814
undred	-12.2814
97	-12.2819
▁coin	-12.282
gas	-12.2822
▁1049	-12.2822
appel	-12.2822
▁surveyed	-12.2822
▁doses	-12.2823
▁perpetrate	-12.2825
▁animals	-12.2827
▁795	-12.2828
▁42(	-12.284
▁highways	-12.2846
.1968)	-12.2847
key	-12.2854
▁Proceedings	-12.2859
▁embraced	-12.2859
▁suburb	-12.2862
▁ministers	-12.2867
▁Bri	-12.287
▁crystals	-12.2874
▁expressions	-12.2877
▁Blum	-12.2879
▁wrongs	-12.2883
fold	-12.2884
opies	-12.2887
▁harmed	-12.2892
▁def	-12.2902
▁Brands	-12.2905
▁Holm	-12.2912
TA	-12.2916
▁1948)	-12.2916
▁Per	-12.2922
nnual	-12.2926
▁857	-12.2927
▁Kar	-12.2932
▁lowered	-12.2934
▁Mad	-12.2936
▁Li	-12.2937
▁Cl	-12.2939
▁Being	-12.294
▁tariffs	-12.2943
▁authors	-12.2944
▁Ot	-12.2945
▁token	-12.2947
hat	-12.2949
▁1122	-12.2951
▁ante	-12.2955
▁buyers	-12.296
▁collaterally	-12.2964
sum	-12.2967
▁compar	-12.2972
▁drinks	-12.2975
200	-12.2976
▁Generally	-12.2976
citing	-12.2977
▁Na	-12.2977
▁509	-12.2982
▁644	-12.2984
should	-12.2988
▁canon	-12.299
▁920	-12.2995
▁escaped	-12.2995
▁1007	-12.2996
cited	-12.2999
▁Wal	-12.3
pi	-12.3002
▁1940)	-12.3006
▁investigated	-12.3008
▁Orr	-12.3009
▁AIR	-12.3009
▁Cu	-12.3011
▁1941)	-12.3013
▁forest	-12.3023
NG	-12.3032
▁discontinuances	-12.3035
▁cured	-12.3038
▁guid	-12.304
▁doctrines	-12.3042
▁46,	-12.3046
▁Farms	-12.3051
▁teachings	-12.3059
inch	-12.3063
ook	-12.3063
misappropriation	-12.3064
▁gifts	-12.3074
▁607,	-12.3076
▁Ku	-12.3087
▁Rosen	-12.309
22	-12.309
ens	-12.3102
▁Ac	-12.3106
▁praye	-12.3112
▁contra	-12.3112
▁illustrat	-12.3119
▁classic	-12.3124
era	-12.3128
(6)	-12.3137
(3)	-12.3138
▁attract	-12.3145
gh	-12.3148
▁Ag	-12.3149
▁$6	-12.3156
▁landing	-12.3156
jury	-12.3157
93	-12.3159
79	-12.3162
▁spaced	-12.3162
bo	-12.3174
oon	-12.3177
▁react	-12.3183
▁Coin	-12.3185
gone	-12.3194
▁prescribes	-12.3194
▁72-137	-12.3198
▁toll	-12.3207
▁counterclaims	-12.3208
▁Has	-12.3212
▁arbitrators	-12.3215
45.	-12.3219
step	-12.3225
▁pen	-12.3233
imply	-12.3241
▁Bur	-12.3242
my	-12.3243
▁Clau	-12.3245
▁favors	-12.3251
▁omit	-12.3254
NA	-12.3258
▁(1928).	-12.3261
▁restate	-12.3262
asper	-12.3268
▁wants	-12.3269
IES	-12.3274
▁Bru	-12.3277
rick	-12.3278
wed	-12.3286
▁pains	-12.3288
▁surveys	-12.3294
▁509,	-12.3297
▁Loss	-12.3305
▁Kro	-12.3308
▁contemplat	-12.3314
ese	-12.3317
▁presumptions	-12.3318
▁im	-12.3326
▁PI	-12.3329
▁71-15	-12.3335
▁461,	-12.3337
▁537,	-12.3338
▁manag	-12.3339
▁stored	-12.3344
put	-12.3346
▁pile	-12.335
cause	-12.335
▁Qui	-12.3355
▁sk	-12.3356
get	-12.3357
▁729	-12.3357
▁acknowledge	-12.3364
▁roll	-12.3366
▁ward	-12.3368
▁screen	-12.3382
ctivities	-12.3387
▁testimonial	-12.3395
constitutional	-12.3396
▁supervis	-12.3396
▁CA	-12.3402
Law	-12.3404
▁HO	-12.3408
▁59,	-12.3408
▁Iron	-12.341
▁tasks	-12.3413
▁0.	-12.3415
▁Arrest	-12.3415
▁inducement	-12.3416
▁practitioner	-12.3417
▁sedative	-12.3417
▁brochure	-12.3418
▁Spring	-12.3418
▁Belgi	-12.3419
▁component	-12.3419
▁dimension	-12.3419
▁pupil	-12.342
▁coupon	-12.342
▁Work	-12.3421
▁Book	-12.3421
▁Walters	-12.3421
▁rider	-12.3423
▁rating	-12.3424
▁transcription	-12.3425
▁carton	-12.3436
uck	-12.3437
upp	-12.3443
rock	-12.3446
▁HAY	-12.3447
▁big	-12.3447
borne	-12.3448
▁deceive	-12.3454
▁directive	-12.3456
▁jeopardize	-12.3457
▁resume	-12.3457
▁Fr	-12.3457
▁commen	-12.3461
▁fines	-12.3463
mis	-12.3472
▁entitl	-12.3473
present	-12.3474
¡	-12.3476
bad	-12.3476
bid	-12.3479
▁deserve	-12.3479
▁steal	-12.3481
▁Broadcast	-12.3482
▁(1925).	-12.3483
ition	-12.3485
▁sur	-12.3486
Treasurer	-12.3491
product	-12.3494
acre	-12.3495
Kansas	-12.3496
normal	-12.3496
December	-12.3496
October	-12.3496
January	-12.3496
statute	-12.3496
exempt	-12.3496
separate	-12.3496
agency	-12.3496
obscene	-12.3496
▁emerge	-12.3497
jurisdictional	-12.3497
Sec	-12.3498
▁Southeast	-12.3499
▁evidenc	-12.35
working	-12.35
ile	-12.3503
ged	-12.3506
filed	-12.3506
▁portray	-12.3506
▁indict	-12.3506
Wright	-12.3507
Since	-12.351
▁mix	-12.3511
▁wa	-12.3512
▁die	-12.3514
▁Direct	-12.3516
uart	-12.3516
▁trespass	-12.3516
▁inherit	-12.3518
▁scholar	-12.3518
▁camp	-12.3518
▁suspects	-12.3518
▁73-10	-12.3519
▁entrap	-12.3519
▁Bankrupt	-12.3519
▁Allegheny	-12.3519
▁Appliance	-12.3519
▁Assembly	-12.3519
▁Cavallaro	-12.3519
▁Cummings	-12.3519
▁Durovic	-12.3519
▁EAST	-12.3519
▁Frizzell	-12.3519
▁Garrett	-12.3519
▁Hampson	-12.3519
▁Headquarters	-12.3519
▁Honolulu	-12.3519
▁Jellum	-12.3519
▁KBTR	-12.3519
▁Loaders	-12.3519
▁Lumpkin	-12.3519
▁Malcolm	-12.3519
▁McClellan	-12.3519
▁Murdock	-12.3519
▁Phelps	-12.3519
▁Randolph	-12.3519
▁Rehabilitati	-12.3519
▁Schriever	-12.3519
▁THIS	-12.3519
▁Talbot	-12.3519
▁Tampa	-12.3519
▁Tremarco	-12.3519
▁WYZANSKI	-12.3519
▁Wholesale	-12.3519
▁Wisdom	-12.3519
▁abeyance	-12.3519
▁arbitrariness	-12.3519
▁cloak	-12.3519
▁complicity	-12.3519
▁concomitant	-12.3519
▁dignity	-12.3519
▁energy	-12.3519
▁evasive	-12.3519
▁expansive	-12.3519
▁explosion	-12.3519
▁fortuitous	-12.3519
[...]
