{
  "version": "1.0",
  "truncation": null,
  "padding": null,
  "added_tokens": [
    {
      "id": 0,
      "content": "[PAD]",
      "single_word": false,
      "lstrip": false,
      "rstrip": false,
      "normalized": false,
      "special": true
    },
    {
      "id": 1,
      "content": "[UNK]",
      "single_word": false,
      "lstrip": false,
      "rstrip": false,
      "normalized": false,
      "special": true
    },
    {
      "id": 2,
      "content": "[CLS]",
      "single_word": false,
      "lstrip": false,
      "rstrip": false,
      "normalized": false,
      "special": true
    },
    {
      "id": 3,
      "content": "[SEP]",
      "single_word": false,
      "lstrip": false,
      "rstrip": false,
      "normalized": false,
      "special": true
    },
    {
      "id": 4,
      "content": "[MASK]",
      "single_word": false,
      "lstrip": false,
      "rstrip": false,
      "normalized": false,
      "special": true
    }
  ],
  "normalizer": {
    "type": "Sequence",
    "normalizers": [
      {
        "type": "NFKC"
      }
    ]
  },
  "pre_tokenizer": {
    "type": "Whitespace"
  },
  "post_processor": null,
  "decoder": null,
  "model": {
    "type": "WordPiece",
    "unk_token": "[UNK]",
    "continuing_subword_prefix": "##",
    "max_input_chars_per_word": 100,
    "vocab": {
      "[PAD]": 0,
      "[UNK]": 1,
      "[CLS]": 2,
      "[SEP]": 3,
      "[MASK]": 4,
      "!": 5,
      "\"": 6,
      "#": 7,
      "$": 8,
      "%": 9,
      "&": 10,
      "'": 11,
      "(": 12,
      ")": 13,
      "*": 14,
      "+": 15,
      ",": 16,
      "-": 17,
      ".": 18,
      "/": 19,
      "0": 20,
      "1": 21,
      "2": 22,
      "3": 23,
      "4": 24,
      "5": 25,
      "6": 26,
      "7": 27,
      "8": 28,
      "9": 29,
      ":": 30,
      ";": 31,
      "<": 32,
      "=": 33,
      ">": 34,
      "?": 35,
      "@": 36,
      "A": 37,
      "B": 38,
      "C": 39,
      "D": 40,
      "E": 41,
      "F": 42,
      "G": 43,
      "H": 44,
      "I": 45,
      "J": 46,
      "K": 47,
      "L": 48,
      "M": 49,
      "N": 50,
      "O": 51,
      "P": 52,
      "Q": 53,
      "R": 54,
      "S": 55,
      "T": 56,
      "U": 57,
      "V": 58,
      "W": 59,
      "X": 60,
      "Y": 61,
      "Z": 62,
      "[": 63,
      "\\": 64,
      "]": 65,
      "^": 66,
      "_": 67,
      "`": 68,
      "a": 69,
      "b": 70,
      "c": 71,
      "d": 72,
      "e": 73,
      "f": 74,
      "g": 75,
      "h": 76,
      "i": 77,
      "j": 78,
      "k": 79,
      "l": 80,
      "m": 81,
      "n": 82,
      "o": 83,
      "p": 84,
      "q": 85,
      "r": 86,
      "s": 87,
      "t": 88,
      "u": 89,
      "v": 90,
      "w": 91,
      "x": 92,
      "y": 93,
      "z": 94,
      "{": 95,
      "|": 96,
      "}": 97,
      "~": 98,
      "¡": 99,
      "£": 100,
      "¥": 101,
      "¦": 102,
      "§": 103,
      "©": 104,
      "«": 105,
      "®": 106,
      "°": 107,
      "±": 108,
      "¶": 109,
      "·": 110,
      "»": 111,
      "¿": 112,
      "À": 113,
      "Á": 114,
      "Â": 115,
      "Ä": 116,
      "Æ": 117,
      "Ç": 118,
      "È": 119,
      "É": 120,
      "Ê": 121,
      "Ë": 122,
      "Í": 123,
      "Î": 124,
      "Ï": 125,
      "Ð": 126,
      "Ñ": 127,
      "Ò": 128,
      "Ó": 129,
      "Ô": 130,
      "Ö": 131,
      "×": 132,
      "Ú": 133,
      "Û": 134,
      "Ü": 135,
      "Þ": 136,
      "à": 137,
      "á": 138,
      "â": 139,
      "ã": 140,
      "ä": 141,
      "å": 142,
      "æ": 143,
      "ç": 144,
      "è": 145,
      "é": 146,
      "ê": 147,
      "ë": 148,
      "ì": 149,
      "í": 150,
      "î": 151,
      "ï": 152,
      "ð": 153,
      "ñ": 154,
      "ò": 155,
      "ó": 156,
      "ô": 157,
      "ö": 158,
      "÷": 159,
      "ù": 160,
      "ú": 161,
      "û": 162,
      "ü": 163,
      "ý": 164,
      "þ": 165,
      "ÿ": 166,
      "Ā": 167,
      "ā": 168,
      "Ă": 169,
      "ă": 170,
      "ć": 171,
      "Ē": 172,
      "ē": 173,
      "ĕ": 174,
      "Ė": 175,
      "ė": 176,
      "ě": 177,
      "ī": 178,
      "ĭ": 179,
      "ĺ": 180,
      "ł": 181,
      "Ō": 182,
      "ō": 183,
      "ŏ": 184,
      "œ": 185,
      "ş": 186,
      "Š": 187,
      "ţ": 188,
      "Ū": 189,
      "ū": 190,
      "ŭ": 191,
      "ŵ": 192,
      "Ŷ": 193,
      "ŷ": 194,
      "Ÿ": 195,
      "ż": 196,
      "Ʋ": 197,
      "Ʒ": 198,
      "ƿ": 199,
      "ǣ": 200,
      "Ȧ": 201,
      "ȳ": 202,
      "ʃ": 203,
      "ʐ": 204,
      "ʒ": 205,
      "ʗ": 206,
      "́": 207,
      "̄": 208,
      "̆": 209,
      "̇": 210,
      "͜": 211,
      "Α": 212,
      "Β": 213,
      "Γ": 214,
      "Δ": 215,
      "Ε": 216,
      "Ζ": 217,
      "Η": 218,
      "Θ": 219,
      "Ι": 220,
      "Κ": 221,
      "Λ": 222,
      "Μ": 223,
      "Ν": 224,
      "Ξ": 225,
      "Ο": 226,
      "Π": 227,
      "Ρ": 228,
      "Σ": 229,
      "Τ": 230,
      "Υ": 231,
      "Φ": 232,
      "Χ": 233,
      "Ψ": 234,
      "Ω": 235,
      "ά": 236,
      "α": 237,
      "β": 238,
      "γ": 239,
      "δ": 240,
      "ε": 241,
      "ζ": 242,
      "η": 243,
      "θ": 244,
      "ι": 245,
      "κ": 246,
      "λ": 247,
      "μ": 248,
      "ν": 249,
      "ξ": 250,
      "ο": 251,
      "π": 252,
      "ρ": 253,
      "ς": 254,
      "σ": 255,
      "τ": 256,
      "υ": 257,
      "φ": 258,
      "χ": 259,
      "ψ": 260,
      "ω": 261,
      "а": 262,
      "ḟ": 263,
      "ḡ": 264,
      "Ṗ": 265,
      "Ṡ": 266,
      "ṡ": 267,
      "ṫ": 268,
      "ẋ": 269,
      "ẍ": 270,
      "ẏ": 271,
      "ỳ": 272,
      "Ἀ": 273,
      "ἰ": 274,
      "Ἰ": 275,
      "ὁ": 276,
      "Ὀ": 277,
      "ὰ": 278,
      "‐": 279,
      "–": 280,
      "—": 281,
      "‖": 282,
      "‘": 283,
      "’": 284,
      "“": 285,
      "”": 286,
      "„": 287,
      "†": 288,
      "‡": 289,
      "•": 290,
      "′": 291,
      "‹": 292,
      "›": 293,
      "⁂": 294,
      "⁄": 295,
      "€": 296,
      "℈": 297,
      "℘": 298,
      "℞": 299,
      "℣": 300,
      "℥": 301,
      "ↁ": 302,
      "ↂ": 303,
      "↑": 304,
      "−": 305,
      "√": 306,
      "∞": 307,
      "∠": 308,
      "∣": 309,
      "∫": 310,
      "∴": 311,
      "∵": 312,
      "∶": 313,
      "∷": 314,
      "∺": 315,
      "∼": 316,
      "∽": 317,
      "≠": 318,
      "⌊": 319,
      "␣": 320,
      "╌": 321,
      "■": 322,
      "□": 323,
      "▪": 324,
      "▭": 325,
      "△": 326,
      "▵": 327,
      "◦": 328,
      "★": 329,
      "☉": 330,
      "☊": 331,
      "☋": 332,
      "☌": 333,
      "☍": 334,
      "☜": 335,
      "☞": 336,
      "☧": 337,
      "☽": 338,
      "☿": 339,
      "♀": 340,
      "♁": 341,
      "♂": 342,
      "♃": 343,
      "♄": 344,
      "♈": 345,
      "♉": 346,
      "♊": 347,
      "♋": 348,
      "♌": 349,
      "♍": 350,
      "♎": 351,
      "♏": 352,
      "♐": 353,
      "♑": 354,
      "♒": 355,
      "♓": 356,
      "♥": 357,
      "♦": 358,
      "♩": 359,
      "♪": 360,
      "♭": 361,
      "♮": 362,
      "♯": 363,
      "✚": 364,
      "✶": 365,
      "❍": 366,
      "❛": 367,
      "⟨": 368,
      "⟩": 369,
      "##a": 370,
      "##s": 371,
      "##t": 372,
      "##i": 373,
      "##n": 374,
      "##g": 375,
      "##I": 376,
      "##T": 377,
      "##e": 378,
      "##W": 379,
      "##o": 380,
      "##c": 381,
      "##d": 382,
      "##y": 383,
      "##r": 384,
      "##u": 385,
      "##w": 386,
      "##p": 387,
      "##h": 388,
      "##f": 389,
      "##z": 390,
      "##l": 391,
      "##E": 392,
      "##M": 393,
      "##O": 394,
      "##S": 395,
      "##m": 396,
      "##A": 397,
      "##ú": 398,
      "##x": 399,
      "##R": 400,
      "##N": 401,
      "##J": 402,
      "##v": 403,
      "##j": 404,
      "##1": 405,
      "##9": 406,
      "##2": 407,
      "##6": 408,
      "##é": 409,
      "##q": 410,
      "##b": 411,
      "##ʒ": 412,
      "##B": 413,
      "##U": 414,
      "##0": 415,
      "##k": 416,
      "##P": 417,
      "##L": 418,
      "##Y": 419,
      "##V": 420,
      "##C": 421,
      "##G": 422,
      "##H": 423,
      "##ï": 424,
      "##F": 425,
      "##D": 426,
      "##5": 427,
      "##Z": 428,
      "##K": 429,
      "##7": 430,
      "##Q": 431,
      "##ō": 432,
      "##4": 433,
      "##8": 434,
      "##3": 435,
      "##Ʋ": 436,
      "##â": 437,
      "##X": 438,
      "##ó": 439,
      "##.": 440,
      "##,": 441,
      "##-": 442,
      "##\"": 443,
      "##á": 444,
      "##*": 445,
      "##è": 446,
      "##í": 447,
      "##’": 448,
      "##'": 449,
      "##[": 450,
      "##ü": 451,
      "##æ": 452,
      "##:": 453,
      "##î": 454,
      "##ē": 455,
      "##”": 456,
      "##ĕ": 457,
      "##ô": 458,
      "##ë": 459,
      "##ä": 460,
      "##þ": 461,
      "##—": 462,
      "##+": 463,
      "##]": 464,
      "##û": 465,
      "##ê": 466,
      "##ŷ": 467,
      "##;": 468,
      "##ā": 469,
      "##_": 470,
      "##?": 471,
      "##)": 472,
      "##>": 473,
      "##ò": 474,
      "##!": 475,
      "##Ι": 476,
      "##Λ": 477,
      "##Α": 478,
      "##Δ": 479,
      "##Ε": 480,
      "##Φ": 481,
      "##ù": 482,
      "##à": 483,
      "##↑": 484,
      "##£": 485,
      "##§": 486,
      "##ö": 487,
      "##Ó": 488,
      "##ç": 489,
      "##/": 490,
      "##<": 491,
      "##ì": 492,
      "##^": 493,
      "##ŵ": 494,
      "##%": 495,
      "##ĺ": 496,
      "##■": 497,
      "##Υ": 498,
      "##Σ": 499,
      "##&": 500,
      "##ʃ": 501,
      "##(": 502,
      "##̄": 503,
      "##ȳ": 504,
      "##ñ": 505,
      "##®": 506,
      "##|": 507,
      "##É": 508,
      "##œ": 509,
      "##=": 510,
      "##▪": 511,
      "##ĭ": 512,
      "##′": 513,
      "##~": 514,
      "##«": 515,
      "##`": 516,
      "##Ν": 517,
      "##Η": 518,
      "##Μ": 519,
      "##ă": 520,
      "##‖": 521,
      "##Τ": 522,
      "##Ω": 523,
      "##Ç": 524,
      "##}": 525,
      "##@": 526,
      "##\\": 527,
      "##•": 528,
      "##È": 529,
      "###": 530,
      "##å": 531,
      "##$": 532,
      "##ī": 533,
      "##Κ": 534,
      "##̇": 535,
      "##☉": 536,
      "##̆": 537,
      "##Ο": 538,
      "##»": 539,
      "##{": 540,
      "##ū": 541,
      "##†": 542,
      "##Þ": 543,
      "##“": 544,
      "##♯": 545,
      "##Í": 546,
      "##α": 547,
      "##ι": 548,
      "##μ": 549,
      "##ε": 550,
      "##σ": 551,
      "##ο": 552,
      "##ν": 553,
      "##ŏ": 554,
      "##λ": 555,
      "##¿": 556,
      "##‡": 557,
      "##Ξ": 558,
      "##ł": 559,
      "##Î": 560,
      "##°": 561,
      "##♎": 562,
      "##Β": 563,
      "##Γ": 564,
      "##Ζ": 565,
      "##Θ": 566,
      "##Ρ": 567,
      "##Æ": 568,
      "##Ô": 569,
      "##Ŷ": 570,
      "##Á": 571,
      "##ẋ": 572,
      "##♥": 573,
      "##Π": 574,
      "##ω": 575,
      "##Ò": 576,
      "##Ü": 577,
      "##ẏ": 578,
      "##‘": 579,
      "##ʗ": 580,
      "##⁂": 581,
      "##√": 582,
      "##©": 583,
      "##ě": 584,
      "##Ö": 585,
      "##Χ": 586,
      "##Ā": 587,
      "##Â": 588,
      "##γ": 589,
      "##υ": 590,
      "##ρ": 591,
      "##¡": 592,
      "##⌊": 593,
      "##♂": 594,
      "##Ä": 595,
      "##ŭ": 596,
      "##ý": 597,
      "##ṫ": 598,
      "##·": 599,
      "##ÿ": 600,
      "##−": 601,
      "##℣": 602,
      "##℘": 603,
      "##♪": 604,
      "##♊": 605,
      "##♩": 606,
      "##∠": 607,
      "##♒": 608,
      "##ƿ": 609,
      "##♌": 610,
      "##ẍ": 611,
      "##Ṡ": 612,
      "##Û": 613,
      "##ð": 614,
      "##∣": 615,
      "##ż": 616,
      "##♓": 617,
      "##Ē": 618,
      "##χ": 619,
      "##η": 620,
      "##τ": 621,
      "##ς": 622,
      "##ά": 623,
      "##‐": 624,
      "##¶": 625,
      "##β": 626,
      "##δ": 627,
      "##☧": 628,
      "##ḡ": 629,
      "##♑": 630,
      "##ć": 631,
      "##∷": 632,
      "##Ψ": 633,
      "##❛": 634,
      "##◦": 635,
      "##ὰ": 636,
      "##Ë": 637,
      "##„": 638,
      "##ṡ": 639,
      "##Ï": 640,
      "##×": 641,
      "##φ": 642,
      "##κ": 643,
      "##∞": 644,
      "##θ": 645,
      "##ἰ": 646,
      "##ė": 647,
      "##☞": 648,
      "##☜": 649,
      "##Ê": 650,
      "##♋": 651,
      "##ş": 652,
      "##♭": 653,
      "##Ṗ": 654,
      "##ʐ": 655,
      "##♉": 656,
      "##♏": 657,
      "##–": 658,
      "##ã": 659,
      "##Ė": 660,
      "##ỳ": 661,
      "##∶": 662,
      "##♍": 663,
      "##€": 664,
      "##♐": 665,
      "##Ñ": 666,
      "##ţ": 667,
      "##ξ": 668,
      "##±": 669,
      "##¦": 670,
      "th": 671,
      "the": 672,
      "##er": 673,
      "##nd": 674,
      "##in": 675,
      "of": 676,
      "##at": 677,
      "##on": 678,
      "##re": 679,
      "##en": 680,
      "##es": 681,
      "##ou": 682,
      "##is": 683,
      "##ed": 684,
      "and": 685,
      "to": 686,
      "##or": 687,
      "##it": 688,
      "in": 689,
      "##ar": 690,
      "##an": 691,
      "##ll": 692,
      "##ing": 693,
      "##as": 694,
      "##om": 695,
      "be": 696,
      "##ic": 697,
      "wh": 698,
      "##ion": 699,
      "##le": 700,
      "##ot": 701,
      "##ce": 702,
      "##st": 703,
      "##ve": 704,
      "##ent": 705,
      "##ut": 706,
      "##se": 707,
      "##al": 708,
      "that": 709,
      "##ir": 710,
      "##ith": 711,
      "##ly": 712,
      "ha": 713,
      "##ow": 714,
      "is": 715,
      "##ur": 716,
      "##et": 717,
      "it": 718,
      "##ct": 719,
      "Th": 720,
      "for": 721,
      "he": 722,
      "##ld": 723,
      "as": 724,
      "##ch": 725,
      "##im": 726,
      "re": 727,
      "##ay": 728,
      "with": 729,
      "##ver": 730,
      "##gh": 731,
      "##id": 732,
      "on": 733,
      "his": 734,
      "##ro": 735,
      "an": 736,
      "sh": 737,
      "not": 738,
      "##th": 739,
      "##od": 740,
      "##ter": 741,
      "##am": 742,
      "##our": 743,
      "##ad": 744,
      "or": 745,
      "##ich": 746,
      "su": 747,
      "by": 748,
      "##ain": 749,
      "con": 750,
      "##ess": 751,
      "which": 752,
      "##ere": 753,
      "##all": 754,
      "##ill": 755,
      "was": 756,
      "fr": 757,
      "##ght": 758,
      "##ation": 759,
      "##ore": 760,
      "st": 761,
      "this": 762,
      "de": 763,
      "##ul": 764,
      "The": 765,
      "##il": 766,
      "##est": 767,
      "##pe": 768,
      "se": 769,
      "their": 770,
      "are": 771,
      "##ri": 772,
      "##ers": 773,
      "at": 774,
      "have": 775,
      "we": 776,
      "they": 777,
      "##ak": 778,
      "all": 779,
      "so": 780,
      "##ould": 781,
      "from": 782,
      "##ge": 783,
      "you": 784,
      "##mp": 785,
      "##us": 786,
      "##res": 787,
      "ex": 788,
      "them": 789,
      "##ist": 790,
      "##ous": 791,
      "##ab": 792,
      "##and": 793,
      "me": 794,
      "but": 795,
      "##ant": 796,
      "##if": 797,
      "him": 798,
      "my": 799,
      "##ate": 800,
      "com": 801,
      "pro": 802,
      "##nt": 803,
      "who": 804,
      "##art": 805,
      "##ight": 806,
      "##pp": 807,
      "##ra": 808,
      "##ity": 809,
      "ne": 810,
      "##os": 811,
      "##ol": 812,
      "##ie": 813,
      "##ig": 814,
      "##iv": 815,
      "##ust": 816,
      "##um": 817,
      "##ord": 818,
      "up": 819,
      "##ence": 820,
      "##ure": 821,
      "ch": 822,
      "##reat": 823,
      "had": 824,
      "##ish": 825,
      "##ect": 826,
      "##ies": 827,
      "will": 828,
      "man": 829,
      "her": 830,
      "##ive": 831,
      "##ard": 832,
      "Ch": 833,
      "##ast": 834,
      "##ath": 835,
      "##qu": 836,
      "##em": 837,
      "our": 838,
      "##el": 839,
      "no": 840,
      "##ome": 841,
      "##ind": 842,
      "there": 843,
      "##ost": 844,
      "##ff": 845,
      "##ose": 846,
      "And": 847,
      "al": 848,
      "##ac": 849,
      "##ame": 850,
      "##ort": 851,
      "were": 852,
      "##av": 853,
      "go": 854,
      "##ong": 855,
      "un": 856,
      "God": 857,
      "##able": 858,
      "##pt": 859,
      "##ment": 860,
      "en": 861,
      "int": 862,
      "##sel": 863,
      "ab": 864,
      "do": 865,
      "##un": 866,
      "##ound": 867,
      "##ance": 868,
      "He": 869,
      "##cc": 870,
      "any": 871,
      "one": 872,
      "oth": 873,
      "##op": 874,
      "##ud": 875,
      "##oth": 876,
      "may": 877,
      "us": 878,
      "##ions": 879,
      "##ake": 880,
      "dis": 881,
      "##ine": 882,
      "your": 883,
      "Wh": 884,
      "more": 885,
      "##end": 886,
      "upon": 887,
      "sa": 888,
      "pr": 889,
      "tr": 890,
      "##ci": 891,
      "In": 892,
      "can": 893,
      "ever": 894,
      "le": 895,
      "##ire": 896,
      "great": 897,
      "##ue": 898,
      "pl": 899,
      "##are": 900,
      "##ice": 901,
      "if": 902,
      "##fore": 903,
      "ad": 904,
      "##out": 905,
      "would": 906,
      "shall": 907,
      "##ry": 908,
      "been": 909,
      "##ert": 910,
      "##ag": 911,
      "##ery": 912,
      "when": 913,
      "such": 914,
      "ag": 915,
      "##ond": 916,
      "##ount": 917,
      "##ib": 918,
      "##ew": 919,
      "ar": 920,
      "per": 921,
      "pre": 922,
      "De": 923,
      "some": 924,
      "##age": 925,
      "part": 926,
      "ob": 927,
      "what": 928,
      "##au": 929,
      "##ings": 930,
      "other": 931,
      "than": 932,
      "has": 933,
      "##ear": 934,
      "am": 935,
      "##one": 936,
      "##now": 937,
      "thou": 938,
      "##ime": 939,
      "##eth": 940,
      "##ans": 941,
      "##ach": 942,
      "##wn": 943,
      "##ke": 944,
      "##ious": 945,
      "into": 946,
      "##ise": 947,
      "##ade": 948,
      "sp": 949,
      "##ace": 950,
      "##ap": 951,
      "But": 952,
      "wor": 953,
      "##ree": 954,
      "lo": 955,
      "##ness": 956,
      "##itt": 957,
      "##ary": 958,
      "##ell": 959,
      "##nder": 960,
      "should": 961,
      "cont": 962,
      "very": 963,
      "##ress": 964,
      "##ass": 965,
      "these": 966,
      "##ally": 967,
      "##ng": 968,
      "##ign": 969,
      "she": 970,
      "##ven": 971,
      "##ful": 972,
      "St": 973,
      "qu": 974,
      "##erv": 975,
      "out": 976,
      "##les": 977,
      "##uch": 978,
      "##ons": 979,
      "those": 980,
      "##self": 981,
      "##rist": 982,
      "##ok": 983,
      "Re": 984,
      "then": 985,
      "des": 986,
      "##ck": 987,
      "know": 988,
      "##ays": 989,
      "##ens": 990,
      "only": 991,
      "##per": 992,
      "##lo": 993,
      "imp": 994,
      "li": 995,
      "cons": 996,
      "It": 997,
      "most": 998,
      "must": 999,
      "##ces": 1000,
      "##fter": 1001,
      "comm": 1002,
      "every": 1003,
      "##ty": 1004,
      "being": 1005,
      "br": 1006,
      "##ated": 1007,
      "tw": 1008,
      "Mr": 1009,
      "where": 1010,
      "##ru": 1011,
      "again": 1012,
      "good": 1013,
      "pe": 1014,
      "own": 1015,
      "said": 1016,
      "##oll": 1017,
      "##own": 1018,
      "Christ": 1019,
      "res": 1020,
      "time": 1021,
      "made": 1022,
      "##ee": 1023,
      "##aw": 1024,
      "ap": 1025,
      "##ip": 1026,
      "##urn": 1027,
      "now": 1028,
      "acc": 1029,
      "gr": 1030,
      "much": 1031,
      "##ick": 1032,
      "##ub": 1033,
      "under": 1034,
      "its": 1035,
      "##ves": 1036,
      "##ife": 1037,
      "##ations": 1038,
      "fir": 1039,
      "##fer": 1040,
      "To": 1041,
      "##ject": 1042,
      "##ase": 1043,
      "Lord": 1044,
      "before": 1045,
      "##red": 1046,
      "comp": 1047,
      "same": 1048,
      "##uth": 1049,
      "##ied": 1050,
      "after": 1051,
      "##act": 1052,
      "##ile": 1053,
      "##ide": 1054,
      "##ite": 1055,
      "##ough": 1056,
      "##cl": 1057,
      "pres": 1058,
      "##ink": 1059,
      "##ener": 1060,
      "ind": 1061,
      "amp": 1062,
      "how": 1063,
      "##ted": 1064,
      "##ause": 1065,
      "##pect": 1066,
      "##over": 1067,
      "sub": 1068,
      "##ower": 1069,
      "could": 1070,
      "first": 1071,
      "bl": 1072,
      "##ang": 1073,
      "##igh": 1074,
      "make": 1075,
      "##other": 1076,
      "##ia": 1077,
      "see": 1078,
      "##oy": 1079,
      "Sh": 1080,
      "without": 1081,
      "##old": 1082,
      "many": 1083,
      "##ors": 1084,
      "att": 1085,
      "##ts": 1086,
      "##oin": 1087,
      "app": 1088,
      "##led": 1089,
      "##ark": 1090,
      "##ild": 1091,
      "rem": 1092,
      "well": 1093,
      "##ople": 1094,
      "yet": 1095,
      "##ather": 1096,
      "##ward": 1097,
      "im": 1098,
      "This": 1099,
      "##emp": 1100,
      "##lic": 1101,
      "##ition": 1102,
      "nat": 1103,
      "##so": 1104,
      "##ove": 1105,
      "call": 1106,
      "##ents": 1107,
      "form": 1108,
      "##ory": 1109,
      "men": 1110,
      "##ood": 1111,
      "cl": 1112,
      "##ull": 1113,
      "Con": 1114,
      "bec": 1115,
      "##ren": 1116,
      "sin": 1117,
      "##oss": 1118,
      "fa": 1119,
      "##land": 1120,
      "thy": 1121,
      "spe": 1122,
      "might": 1123,
      "two": 1124,
      "##ber": 1125,
      "##ER": 1126,
      "##orm": 1127,
      "appe": 1128,
      "like": 1129,
      "act": 1130,
      "rep": 1131,
      "##ily": 1132,
      "That": 1133,
      "off": 1134,
      "ple": 1135,
      "bet": 1136,
      "exp": 1137,
      "##ian": 1138,
      "##orn": 1139,
      "inf": 1140,
      "##ave": 1141,
      "##ffect": 1142,
      "Pr": 1143,
      "sc": 1144,
      "over": 1145,
      "As": 1146,
      "Def": 1147,
      "did": 1148,
      "##irit": 1149,
      "say": 1150,
      "let": 1151,
      "##iz": 1152,
      "##ason": 1153,
      "against": 1154,
      "##ved": 1155,
      "never": 1156,
      "supp": 1157,
      "##rit": 1158,
      "##ced": 1159,
      "##iver": 1160,
      "Pro": 1161,
      "pers": 1162,
      "For": 1163,
      "##ular": 1164,
      "Man": 1165,
      "dist": 1166,
      "here": 1167,
      "Sp": 1168,
      "long": 1169,
      "##iss": 1170,
      "rel": 1171,
      "##ider": 1172,
      "##ving": 1173,
      "##urch": 1174,
      "##cy": 1175,
      "##ph": 1176,
      "##we": 1177,
      "##ittle": 1178,
      "thr": 1179,
      "##der": 1180,
      "##cess": 1181,
      "Com": 1182,
      "end": 1183,
      "giv": 1184,
      "##ady": 1185,
      ".—": 1186,
      "fe": 1187,
      "##ack": 1188,
      "##ible": 1189,
      "Ex": 1190,
      "just": 1191,
      "An": 1192,
      "gener": 1193,
      "##ern": 1194,
      "little": 1195,
      "found": 1196,
      "##ether": 1197,
      "pass": 1198,
      "bel": 1199,
      "also": 1200,
      "count": 1201,
      "##oul": 1202,
      "str": 1203,
      "##ither": 1204,
      "ing": 1205,
      "fl": 1206,
      "##ix": 1207,
      "about": 1208,
      "Defn": 1209,
      "give": 1210,
      "hand": 1211,
      "himself": 1212,
      "##erm": 1213,
      "char": 1214,
      "##ction": 1215,
      "##ual": 1216,
      "heart": 1217,
      "even": 1218,
      "dif": 1219,
      "Eng": 1220,
      "nor": 1221,
      "ev": 1222,
      "day": 1223,
      "TH": 1224,
      "##ble": 1225,
      "ear": 1226,
      "think": 1227,
      "17": 1228,
      "##ne": 1229,
      "ac": 1230,
      "##atter": 1231,
      "##ates": 1232,
      ".]": 1233,
      "##selves": 1234,
      "take": 1235,
      "##ON": 1236,
      "##ial": 1237,
      "ho": 1238,
      "op": 1239,
      "come": 1240,
      "ret": 1241,
      "##lish": 1242,
      "##ants": 1243,
      "##ict": 1244,
      "##ears": 1245,
      "tak": 1246,
      "##imes": 1247,
      "unt": 1248,
      "ass": 1249,
      "##less": 1250,
      "conf": 1251,
      "##ever": 1252,
      "##ner": 1253,
      "##ult": 1254,
      "If": 1255,
      "gl": 1256,
      "##ures": 1257,
      "They": 1258,
      "##iness": 1259,
      "##ks": 1260,
      "right": 1261,
      "therefore": 1262,
      "##ft": 1263,
      "Sir": 1264,
      "too": 1265,
      "##ec": 1266,
      "We": 1267,
      "inter": 1268,
      "inst": 1269,
      "ed": 1270,
      "##ars": 1271,
      "##mb": 1272,
      "Ar": 1273,
      "set": 1274,
      "sm": 1275,
      "##ought": 1276,
      "ext": 1277,
      "law": 1278,
      "power": 1279,
      "##cip": 1280,
      "people": 1281,
      "life": 1282,
      "##ient": 1283,
      "##ution": 1284,
      "consider": 1285,
      "sec": 1286,
      "##ouse": 1287,
      "suff": 1288,
      "##ertain": 1289,
      "happ": 1290,
      "po": 1291,
      "put": 1292,
      "prin": 1293,
      "whole": 1294,
      "##rib": 1295,
      "way": 1296,
      "far": 1297,
      "pur": 1298,
      ".\"": 1299,
      "present": 1300,
      "Fr": 1301,
      "thing": 1302,
      "love": 1303,
      "whom": 1304,
      "ro": 1305,
      "foll": 1306,
      "both": 1307,
      "Is": 1308,
      "##ep": 1309,
      "##ters": 1310,
      "##ute": 1311,
      "##ited": 1312,
      "##not": 1313,
      "cour": 1314,
      "##ody": 1315,
      "##iend": 1316,
      "##ention": 1317,
      "rece": 1318,
      "find": 1319,
      "seem": 1320,
      "beg": 1321,
      "er": 1322,
      "##ract": 1323,
      "last": 1324,
      "##oun": 1325,
      "word": 1326,
      "##du": 1327,
      "Wor": 1328,
      "friend": 1329,
      "##ene": 1330,
      "pub": 1331,
      "among": 1332,
      "world": 1333,
      "##hing": 1334,
      "prop": 1335,
      "Be": 1336,
      "##ived": 1337,
      "mind": 1338,
      "##aid": 1339,
      "Of": 1340,
      "rec": 1341,
      "##ety": 1342,
      "inc": 1343,
      "aw": 1344,
      "another": 1345,
      "est": 1346,
      "King": 1347,
      "##ret": 1348,
      "hum": 1349,
      "##eed": 1350,
      "pleas": 1351,
      "adv": 1352,
      ".)": 1353,
      "reg": 1354,
      "Pe": 1355,
      "things": 1356,
      "disc": 1357,
      "kind": 1358,
      "cannot": 1359,
      "though": 1360,
      "wr": 1361,
      "having": 1362,
      "bo": 1363,
      "themselves": 1364,
      "obs": 1365,
      "war": 1366,
      "##EN": 1367,
      "hath": 1368,
      "sel": 1369,
      "thought": 1370,
      "##ceed": 1371,
      "##ater": 1372,
      "##osed": 1373,
      "##race": 1374,
      "##ained": 1375,
      "##ains": 1376,
      "follow": 1377,
      "Jo": 1378,
      "##ours": 1379,
      "Sc": 1380,
      "high": 1381,
      "##cept": 1382,
      "poss": 1383,
      "cond": 1384,
      "place": 1385,
      "rest": 1386,
      "##lem": 1387,
      "##ical": 1388,
      "es": 1389,
      "car": 1390,
      "del": 1391,
      "unto": 1392,
      "sent": 1393,
      "down": 1394,
      "##edi": 1395,
      "Tr": 1396,
      "##ands": 1397,
      "##IN": 1398,
      "##air": 1399,
      "sever": 1400,
      "Or": 1401,
      "still": 1402,
      "##ended": 1403,
      "##ities": 1404,
      "##ances": 1405,
      "co": 1406,
      "##uthor": 1407,
      "called": 1408,
      "perf": 1409,
      "##aint": 1410,
      "hon": 1411,
      "true": 1412,
      "THE": 1413,
      "##OD": 1414,
      "gu": 1415,
      "##ians": 1416,
      "others": 1417,
      "disp": 1418,
      "##apt": 1419,
      "##icular": 1420,
      "##und": 1421,
      "##ments": 1422,
      "ref": 1423,
      "belie": 1424,
      "Am": 1425,
      "So": 1426,
      "through": 1427,
      "state": 1428,
      "##ea": 1429,
      "bre": 1430,
      "What": 1431,
      "##sh": 1432,
      "##OR": 1433,
      "##its": 1434,
      "When": 1435,
      "necess": 1436,
      "##ude": 1437,
      "##li": 1438,
      "each": 1439,
      "##ail": 1440,
      "##ared": 1441,
      "ins": 1442,
      "serv": 1443,
      "His": 1444,
      "No": 1445,
      "##sw": 1446,
      "Ad": 1447,
      "Pl": 1448,
      "order": 1449,
      "reason": 1450,
      "jud": 1451,
      "new": 1452,
      "10": 1453,
      "There": 1454,
      "less": 1455,
      "##ten": 1456,
      "def": 1457,
      "##IS": 1458,
      "fore": 1459,
      "mer": 1460,
      "##aven": 1461,
      "use": 1462,
      "##xt": 1463,
      "given": 1464,
      "##ms": 1465,
      "You": 1466,
      "aff": 1467,
      "##als": 1468,
      "till": 1469,
      "country": 1470,
      "because": 1471,
      "nothing": 1472,
      "##dom": 1473,
      "thee": 1474,
      "##vern": 1475,
      "certain": 1476,
      "cr": 1477,
      "contin": 1478,
      "soon": 1479,
      "##og": 1480,
      "##ES": 1481,
      "opp": 1482,
      "##erve": 1483,
      "spirit": 1484,
      "while": 1485,
      "##AR": 1486,
      "##ief": 1487,
      "##of": 1488,
      "##vers": 1489,
      "Joh": 1490,
      "appear": 1491,
      "##iew": 1492,
      "sw": 1493,
      "nature": 1494,
      "thus": 1495,
      "three": 1496,
      "##wards": 1497,
      "##uty": 1498,
      "##irt": 1499,
      "look": 1500,
      "##oub": 1501,
      "done": 1502,
      "##ished": 1503,
      "##amp": 1504,
      "##ives": 1505,
      "Sin": 1506,
      "##tern": 1507,
      "##AN": 1508,
      "##ense": 1509,
      "div": 1510,
      "Ind": 1511,
      "16": 1512,
      "##ired": 1513,
      "##irc": 1514,
      "##ently": 1515,
      "adm": 1516,
      "sl": 1517,
      "full": 1518,
      "differ": 1519,
      "occ": 1520,
      "govern": 1521,
      "##II": 1522,
      "common": 1523,
      "mak": 1524,
      "##ged": 1525,
      "##ried": 1526,
      "add": 1527,
      "##ale": 1528,
      "general": 1529,
      "read": 1530,
      "best": 1531,
      "particular": 1532,
      "GOD": 1533,
      "taken": 1534,
      "art": 1535,
      "pri": 1536,
      "sur": 1537,
      "whose": 1538,
      "ey": 1539,
      "mar": 1540,
      "equ": 1541,
      "Men": 1542,
      "subject": 1543,
      "ter": 1544,
      "##lect": 1545,
      "turn": 1546,
      "came": 1547,
      "##ween": 1548,
      "##arge": 1549,
      "##AT": 1550,
      "##avour": 1551,
      "How": 1552,
      "imm": 1553,
      "Let": 1554,
      "##oc": 1555,
      "##ught": 1556,
      "##oint": 1557,
      "##ised": 1558,
      "speak": 1559,
      "num": 1560,
      "##eep": 1561,
      "##ript": 1562,
      "const": 1563,
      "##00": 1564,
      "tion": 1565,
      "##use": 1566,
      "At": 1567,
      "near": 1568,
      "##erty": 1569,
      "##ii": 1570,
      "##ss": 1571,
      "between": 1572,
      "conc": 1573,
      "mon": 1574,
      "som": 1575,
      "##ately": 1576,
      "##ording": 1577,
      "##ined": 1578,
      "##ages": 1579,
      "Ob": 1580,
      "return": 1581,
      "king": 1582,
      "##read": 1583,
      "prov": 1584,
      "See": 1585,
      "John": 1586,
      "##swer": 1587,
      "##ling": 1588,
      "person": 1589,
      "old": 1590,
      "##ange": 1591,
      "##ating": 1592,
      "##ning": 1593,
      "emp": 1594,
      "Ph": 1595,
      "Al": 1596,
      "En": 1597,
      "prev": 1598,
      "manner": 1599,
      "Will": 1600,
      "respect": 1601,
      "name": 1602,
      "##ows": 1603,
      "##tym": 1604,
      "##ural": 1605,
      "effect": 1606,
      "small": 1607,
      "Etym": 1608,
      "head": 1609,
      "several": 1610,
      "proper": 1611,
      "few": 1612,
      "mis": 1613,
      "##ildren": 1614,
      "above": 1615,
      "work": 1616,
      "either": 1617,
      "##ways": 1618,
      "New": 1619,
      "England": 1620,
      "Church": 1621,
      "Spirit": 1622,
      "often": 1623,
      "house": 1624,
      "fall": 1625,
      "away": 1626,
      "prom": 1627,
      "min": 1628,
      "shew": 1629,
      "dep": 1630,
      "princip": 1631,
      "cause": 1632,
      "##ament": 1633,
      "##ey": 1634,
      "With": 1635,
      "##ature": 1636,
      "Su": 1637,
      "##pend": 1638,
      "always": 1639,
      "Do": 1640,
      "death": 1641,
      "My": 1642,
      "self": 1643,
      "fre": 1644,
      "Dis": 1645,
      "indeed": 1646,
      "##ened": 1647,
      "tell": 1648,
      "Law": 1649,
      "light": 1650,
      "##ield": 1651,
      "##ines": 1652,
      "Un": 1653,
      "##te": 1654,
      "enter": 1655,
      "##lood": 1656,
      "##asion": 1657,
      "Comm": 1658,
      "##igion": 1659,
      "##outh": 1660,
      "det": 1661,
      "requ": 1662,
      "years": 1663,
      "account": 1664,
      "ent": 1665,
      "stre": 1666,
      "Ap": 1667,
      "par": 1668,
      "Char": 1669,
      "ought": 1670,
      "Nor": 1671,
      "dire": 1672,
      "##empt": 1673,
      "##idence": 1674,
      "By": 1675,
      "produ": 1676,
      "##uct": 1677,
      "young": 1678,
      "does": 1679,
      "body": 1680,
      "observ": 1681,
      "inv": 1682,
      "care": 1683,
      "lib": 1684,
      "once": 1685,
      "##ific": 1686,
      "##ides": 1687,
      "##ury": 1688,
      "circ": 1689,
      "##ably": 1690,
      "Br": 1691,
      "soul": 1692,
      "brought": 1693,
      "--": 1694,
      "says": 1695,
      "beh": 1696,
      "fam": 1697,
      "##most": 1698,
      "left": 1699,
      "##ius": 1700,
      "cor": 1701,
      "##ility": 1702,
      "##augh": 1703,
      "means": 1704,
      "dra": 1705,
      "##ob": 1706,
      "##atch": 1707,
      "tho": 1708,
      "mean": 1709,
      "##ship": 1710,
      "##aps": 1711,
      "All": 1712,
      "##anger": 1713,
      "according": 1714,
      "hear": 1715,
      "fo": 1716,
      "##ther": 1717,
      "keep": 1718,
      "cle": 1719,
      "##stand": 1720,
      "##itted": 1721,
      "answer": 1722,
      "decl": 1723,
      "public": 1724,
      "tend": 1725,
      "better": 1726,
      "Pers": 1727,
      "ye": 1728,
      "##ually": 1729,
      "##lig": 1730,
      "##ues": 1731,
      "dest": 1732,
      "want": 1733,
      "faith": 1734,
      "tre": 1735,
      "##pel": 1736,
      "##ank": 1737,
      "12": 1738,
      "case": 1739,
      "four": 1740,
      "object": 1741,
      "ra": 1742,
      "##orr": 1743,
      "Ma": 1744,
      "##alf": 1745,
      "##ices": 1746,
      "Gr": 1747,
      "least": 1748,
      "col": 1749,
      "##ote": 1750,
      "On": 1751,
      "sure": 1752,
      "##ird": 1753,
      "believe": 1754,
      "People": 1755,
      "##alk": 1756,
      "em": 1757,
      "Part": 1758,
      "author": 1759,
      "free": 1760,
      "son": 1761,
      "##ier": 1762,
      "##ges": 1763,
      "##ounds": 1764,
      "##osition": 1765,
      "Prin": 1766,
      "##ison": 1767,
      "World": 1768,
      "##ets": 1769,
      "Mar": 1770,
      "##ock": 1771,
      "land": 1772,
      "ca": 1773,
      "trans": 1774,
      "affect": 1775,
      "##aster": 1776,
      "live": 1777,
      "##oice": 1778,
      "##ony": 1779,
      "hope": 1780,
      "former": 1781,
      "since": 1782,
      "prof": 1783,
      "##ying": 1784,
      "##US": 1785,
      "##oman": 1786,
      "##ister": 1787,
      "Soul": 1788,
      "##by": 1789,
      "suffer": 1790,
      "Le": 1791,
      "Qu": 1792,
      "15": 1793,
      "ill": 1794,
      "##ope": 1795,
      "eas": 1796,
      "##up": 1797,
      "##ued": 1798,
      "truth": 1799,
      "strong": 1800,
      "##ames": 1801,
      "cur": 1802,
      "##ilt": 1803,
      "virt": 1804,
      "necessary": 1805,
      "te": 1806,
      "##rave": 1807,
      "id": 1808,
      "whether": 1809,
      "gave": 1810,
      "ru": 1811,
      "red": 1812,
      "She": 1813,
      "ph": 1814,
      "##sequ": 1815,
      "##ession": 1816,
      "##arn": 1817,
      "however": 1818,
      "Me": 1819,
      "##ott": 1820,
      "##eric": 1821,
      "##peri": 1822,
      "##AL": 1823,
      "##ortun": 1824,
      "sat": 1825,
      "##any": 1826,
      "##ax": 1827,
      "11": 1828,
      "##ences": 1829,
      "church": 1830,
      "##acter": 1831,
      "express": 1832,
      "OF": 1833,
      "ce": 1834,
      "##ins": 1835,
      "human": 1836,
      "##ledge": 1837,
      "CH": 1838,
      "poor": 1839,
      "stand": 1840,
      "##gether": 1841,
      "Fa": 1842,
      "##ese": 1843,
      "doub": 1844,
      "within": 1845,
      "concern": 1846,
      "Brit": 1847,
      "Jes": 1848,
      "bring": 1849,
      "##ivers": 1850,
      "##fe": 1851,
      "kn": 1852,
      "Cour": 1853,
      "##oney": 1854,
      "##oud": 1855,
      "earth": 1856,
      "var": 1857,
      "large": 1858,
      "together": 1859,
      "##ug": 1860,
      "year": 1861,
      "meet": 1862,
      "##ured": 1863,
      "##ting": 1864,
      "matter": 1865,
      "vi": 1866,
      "##ency": 1867,
      "dear": 1868,
      "Ne": 1869,
      "Se": 1870,
      "Cl": 1871,
      "view": 1872,
      "Ab": 1873,
      "14": 1874,
      "Count": 1875,
      "Co": 1876,
      "ver": 1877,
      "##inion": 1878,
      "Life": 1879,
      "##icient": 1880,
      "##me": 1881,
      "vis": 1882,
      "able": 1883,
      "##eng": 1884,
      "purp": 1885,
      "different": 1886,
      "fear": 1887,
      "mod": 1888,
      "known": 1889,
      "open": 1890,
      "Word": 1891,
      "next": 1892,
      "##haps": 1893,
      "contr": 1894,
      "##itude": 1895,
      "expect": 1896,
      "##eous": 1897,
      "perfect": 1898,
      "mention": 1899,
      "words": 1900,
      "seen": 1901,
      "gent": 1902,
      "deg": 1903,
      "acqu": 1904,
      "dr": 1905,
      "sing": 1906,
      "temp": 1907,
      "times": 1908,
      "short": 1909,
      "##lu": 1910,
      "##uring": 1911,
      "ment": 1912,
      "Ear": 1913,
      "hard": 1914,
      "Jesus": 1915,
      "took": 1916,
      "water": 1917,
      "lay": 1918,
      "Time": 1919,
      "sy": 1920,
      "##EL": 1921,
      "Americ": 1922,
      "mo": 1923,
      "tri": 1924,
      "##fic": 1925,
      "direct": 1926,
      "dec": 1927,
      "told": 1928,
      "bu": 1929,
      "bless": 1930,
      "##ont": 1931,
      "father": 1932,
      "Jud": 1933,
      ",\"": 1934,
      "13": 1935,
      "Dr": 1936,
      "Now": 1937,
      "##tle": 1938,
      "pret": 1939,
      "natural": 1940,
      "##alth": 1941,
      "##isf": 1942,
      "##ident": 1943,
      "##app": 1944,
      "der": 1945,
      "Per": 1946,
      "pay": 1947,
      "abs": 1948,
      "Gover": 1949,
      "##ys": 1950,
      "plac": 1951,
      "pray": 1952,
      "peace": 1953,
      "cap": 1954,
      "sit": 1955,
      "arm": 1956,
      "##ring": 1957,
      "ly": 1958,
      "Rel": 1959,
      "##ination": 1960,
      "hands": 1961,
      "ut": 1962,
      "mark": 1963,
      "##ified": 1964,
      "rather": 1965,
      "leave": 1966,
      "Love": 1967,
      "Gl": 1968,
      "interest": 1969,
      "English": 1970,
      "need": 1971,
      "Govern": 1972,
      "##iving": 1973,
      "Prov": 1974,
      "##omp": 1975,
      "These": 1976,
      "##ative": 1977,
      "##ided": 1978,
      "proceed": 1979,
      "used": 1980,
      "hold": 1981,
      "##vil": 1982,
      "wish": 1983,
      "##joy": 1984,
      "val": 1985,
      "half": 1986,
      "##rie": 1987,
      "writ": 1988,
      "heard": 1989,
      "##ospel": 1990,
      "##oral": 1991,
      "ll": 1992,
      "Heart": 1993,
      "##den": 1994,
      "##umst": 1995,
      "fort": 1996,
      "##aim": 1997,
      "treat": 1998,
      "went": 1999,
      "oblig": 2000,
      "From": 2001,
      "##iam": 2002,
      "Her": 2003,
      "ten": 2004,
      "##etimes": 2005,
      "##IC": 2006,
      "side": 2007,
      "fell": 2008,
      "Par": 2009,
      "##ls": 2010,
      "##ission": 2011,
      "fur": 2012,
      "##IT": 2013,
      "##ches": 2014,
      "government": 2015,
      "night": 2016,
      "worth": 2017,
      "parts": 2018,
      "##crib": 2019,
      "bea": 2020,
      "plain": 2021,
      "##rew": 2022,
      "One": 2023,
      "##rupt": 2024,
      "discover": 2025,
      "bro": 2026,
      "saw": 2027,
      "##ET": 2028,
      "den": 2029,
      "feel": 2030,
      "priv": 2031,
      "##owed": 2032,
      "##ases": 2033,
      "received": 2034,
      "immedi": 2035,
      "##cul": 2036,
      "ord": 2037,
      "occasion": 2038,
      "back": 2039,
      "Min": 2040,
      "honour": 2041,
      "##arm": 2042,
      "##inal": 2043,
      "bene": 2044,
      "##gment": 2045,
      "##uted": 2046,
      "myself": 2047,
      "Nature": 2048,
      "Act": 2049,
      "Col": 2050,
      "sufficient": 2051,
      "Day": 2052,
      "Pre": 2053,
      "Bo": 2054,
      "days": 2055,
      "court": 2056,
      "##alt": 2057,
      "conv": 2058,
      "perhaps": 2059,
      "##ccess": 2060,
      "##asure": 2061,
      "sens": 2062,
      "number": 2063,
      "greater": 2064,
      "pat": 2065,
      "Good": 2066,
      "persons": 2067,
      "appro": 2068,
      "##ump": 2069,
      "design": 2070,
      "##ises": 2071,
      "##par": 2072,
      "eyes": 2073,
      "sign": 2074,
      "##erc": 2075,
      "six": 2076,
      "Father": 2077,
      "sense": 2078,
      "##arr": 2079,
      "##loy": 2080,
      "##unt": 2081,
      "und": 2082,
      "run": 2083,
      "##ngth": 2084,
      "##cious": 2085,
      "##LE": 2086,
      "##rench": 2087,
      "##lied": 2088,
      "##ards": 2089,
      "second": 2090,
      "joy": 2091,
      "inh": 2092,
      "##cil": 2093,
      "##resent": 2094,
      "ve": 2095,
      "Not": 2096,
      "Mrs": 2097,
      "##az": 2098,
      "bear": 2099,
      "##ternal": 2100,
      "favour": 2101,
      "##iles": 2102,
      "ty": 2103,
      "eng": 2104,
      "sac": 2105,
      "##man": 2106,
      "fair": 2107,
      "sk": 2108,
      "Cons": 2109,
      "neither": 2110,
      "divine": 2111,
      "sometimes": 2112,
      "doubt": 2113,
      "consequ": 2114,
      "happy": 2115,
      "##undred": 2116,
      "##ash": 2117,
      "##ully": 2118,
      "##UR": 2119,
      "##ron": 2120,
      "pol": 2121,
      "coun": 2122,
      "##ners": 2123,
      "##oses": 2124,
      "Where": 2125,
      "##gn": 2126,
      "##enty": 2127,
      "leg": 2128,
      "##aves": 2129,
      "chief": 2130,
      "Then": 2131,
      "##une": 2132,
      "character": 2133,
      "seems": 2134,
      "unc": 2135,
      "Fri": 2136,
      "el": 2137,
      "##owers": 2138,
      "pract": 2139,
      "forth": 2140,
      "##ism": 2141,
      "danger": 2142,
      "holy": 2143,
      "##eal": 2144,
      "thous": 2145,
      "##arent": 2146,
      "Heaven": 2147,
      "##ead": 2148,
      "sil": 2149,
      "##cell": 2150,
      "lab": 2151,
      "rev": 2152,
      "##ection": 2153,
      "##tain": 2154,
      "!—": 2155,
      "Po": 2156,
      "none": 2157,
      "##esty": 2158,
      "almost": 2159,
      "bar": 2160,
      "##ality": 2161,
      "##irm": 2162,
      "point": 2163,
      "##ps": 2164,
      "support": 2165,
      "nation": 2166,
      "become": 2167,
      "##cies": 2168,
      "20": 2169,
      "ask": 2170,
      "##ctr": 2171,
      "town": 2172,
      "Comp": 2173,
      "swe": 2174,
      "##ires": 2175,
      "##itution": 2176,
      "Lady": 2177,
      "forg": 2178,
      "conduct": 2179,
      "dem": 2180,
      "ground": 2181,
      "##ising": 2182,
      "hast": 2183,
      "children": 2184,
      "command": 2185,
      "Faith": 2186,
      "enough": 2187,
      "anim": 2188,
      "##ists": 2189,
      "term": 2190,
      "heaven": 2191,
      "import": 2192,
      "Right": 2193,
      "Rep": 2194,
      "frequ": 2195,
      "ser": 2196,
      "##ruct": 2197,
      "alone": 2198,
      "##alv": 2199,
      "French": 2200,
      "late": 2201,
      "Death": 2202,
      "##iety": 2203,
      "##uc": 2204,
      "##ointed": 2205,
      "Thus": 2206,
      "towards": 2207,
      "bus": 2208,
      "offer": 2209,
      "enc": 2210,
      "##right": 2211,
      "##ablish": 2212,
      "following": 2213,
      "Who": 2214,
      "##ann": 2215,
      "neg": 2216,
      "##orious": 2217,
      "18": 2218,
      "regard": 2219,
      "blood": 2220,
      "Christian": 2221,
      "resol": 2222,
      "IN": 2223,
      "##arch": 2224,
      "##aving": 2225,
      "##gy": 2226,
      "lead": 2227,
      "##ength": 2228,
      "Friend": 2229,
      "enjoy": 2230,
      "##ross": 2231,
      "##ify": 2232,
      "##estion": 2233,
      "cast": 2234,
      "Ed": 2235,
      "##IL": 2236,
      "##angu": 2237,
      "Power": 2238,
      "enem": 2239,
      "Oh": 2240,
      "exc": 2241,
      "met": 2242,
      "##ortion": 2243,
      "Cor": 2244,
      "inform": 2245,
      "##eem": 2246,
      "lost": 2247,
      "clear": 2248,
      "vain": 2249,
      "itself": 2250,
      "ther": 2251,
      "why": 2252,
      "##ries": 2253,
      "##standing": 2254,
      "Grace": 2255,
      "ship": 2256,
      "Just": 2257,
      "tis": 2258,
      "prob": 2259,
      "imag": 2260,
      "mot": 2261,
      "determ": 2262,
      "round": 2263,
      "evil": 2264,
      "##icked": 2265,
      "grace": 2266,
      "Great": 2267,
      "get": 2268,
      "greatest": 2269,
      "##oly": 2270,
      "##uous": 2271,
      "air": 2272,
      "##kind": 2273,
      "##used": 2274,
      "##io": 2275,
      "pun": 2276,
      "sim": 2277,
      "cal": 2278,
      "##ED": 2279,
      "conce": 2280,
      "impro": 2281,
      "Sub": 2282,
      "##aughter": 2283,
      "##uly": 2284,
      "deliver": 2285,
      "laid": 2286,
      "av": 2287,
      "makes": 2288,
      "creat": 2289,
      "receive": 2290,
      "friends": 2291,
      "satisf": 2292,
      "age": 2293,
      "##orts": 2294,
      "Things": 2295,
      "hundred": 2296,
      "ele": 2297,
      "exec": 2298,
      "Des": 2299,
      "Court": 2300,
      "Son": 2301,
      "##ric": 2302,
      "Acc": 2303,
      "money": 2304,
      "ma": 2305,
      "wa": 2306,
      "##iar": 2307,
      "vol": 2308,
      "Off": 2309,
      "##ton": 2310,
      "bur": 2311,
      "purpose": 2312,
      "real": 2313,
      "attend": 2314,
      "length": 2315,
      "appears": 2316,
      "except": 2317,
      "viol": 2318,
      "##fully": 2319,
      "et": 2320,
      "employ": 2321,
      "incl": 2322,
      "sum": 2323,
      "force": 2324,
      "##oph": 2325,
      "dev": 2326,
      "Obs": 2327,
      "Serv": 2328,
      "gra": 2329,
      "establish": 2330,
      "ende": 2331,
      "Here": 2332,
      "##peci": 2333,
      "laws": 2334,
      "thousand": 2335,
      "##onder": 2336,
      "wise": 2337,
      "hel": 2338,
      "pain": 2339,
      "circumst": 2340,
      "##eness": 2341,
      "duty": 2342,
      "House": 2343,
      "##abit": 2344,
      "##ned": 2345,
      "##ops": 2346,
      "making": 2347,
      "render": 2348,
      "##cience": 2349,
      "##ument": 2350,
      "##oment": 2351,
      "low": 2352,
      "learn": 2353,
      "##avi": 2354,
      "Cr": 2355,
      "deb": 2356,
      "##orning": 2357,
      "II": 2358,
      "bes": 2359,
      "pra": 2360,
      "France": 2361,
      "William": 2362,
      "AN": 2363,
      "##uit": 2364,
      "##inary": 2365,
      "##omm": 2366,
      "##reh": 2367,
      "rich": 2368,
      "Hon": 2369,
      "Phil": 2370,
      "grant": 2371,
      "##ince": 2372,
      "agree": 2373,
      "##ung": 2374,
      "thro": 2375,
      "##gg": 2376,
      "ke": 2377,
      "course": 2378,
      "Imp": 2379,
      "fine": 2380,
      "religion": 2381,
      "sus": 2382,
      "Page": 2383,
      "opinion": 2384,
      "fact": 2385,
      "##isdom": 2386,
      "State": 2387,
      "weak": 2388,
      "##ION": 2389,
      "##acy": 2390,
      "##ased": 2391,
      "##ember": 2392,
      "liberty": 2393,
      "##ivil": 2394,
      "strength": 2395,
      "##ready": 2396,
      "pleasure": 2397,
      "di": 2398,
      "##AS": 2399,
      "Author": 2400,
      "##ham": 2401,
      "tender": 2402,
      "prove": 2403,
      "equal": 2404,
      "perform": 2405,
      "contrary": 2406,
      "##cend": 2407,
      "prevent": 2408,
      "##emb": 2409,
      "doth": 2410,
      "##TER": 2411,
      "##ush": 2412,
      "virtue": 2413,
      "further": 2414,
      "gen": 2415,
      "stri": 2416,
      "cover": 2417,
      "dead": 2418,
      "##bit": 2419,
      "##ze": 2420,
      "##roy": 2421,
      "situ": 2422,
      "sweet": 2423,
      "##isters": 2424,
      "Ps": 2425,
      "five": 2426,
      "wind": 2427,
      "knew": 2428,
      "fin": 2429,
      "already": 2430,
      "orig": 2431,
      "Can": 2432,
      "##ingu": 2433,
      "##omen": 2434,
      ",—": 2435,
      "wit": 2436,
      "##iqu": 2437,
      "200": 2438,
      "##ae": 2439,
      "especi": 2440,
      "##well": 2441,
      "family": 2442,
      "ness": 2443,
      "begin": 2444,
      "Why": 2445,
      "depend": 2446,
      "remark": 2447,
      "lord": 2448,
      "success": 2449,
      "##ciety": 2450,
      "Maj": 2451,
      "dark": 2452,
      "##IR": 2453,
      "##AM": 2454,
      "##ots": 2455,
      "##oured": 2456,
      "##ats": 2457,
      "Res": 2458,
      "degree": 2459,
      "Yet": 2460,
      "dom": 2461,
      "desp": 2462,
      "##ape": 2463,
      "19": 2464,
      "##alvation": 2465,
      "fill": 2466,
      "fire": 2467,
      "##reme": 2468,
      "##ool": 2469,
      "ble": 2470,
      "##ah": 2471,
      "##aul": 2472,
      "##els": 2473,
      "##OM": 2474,
      "##ane": 2475,
      "##ressed": 2476,
      "arri": 2477,
      "pen": 2478,
      "glory": 2479,
      "ready": 2480,
      "##ley": 2481,
      "##antage": 2482,
      "Mer": 2483,
      "cut": 2484,
      "compl": 2485,
      "fal": 2486,
      "##usion": 2487,
      "diffic": 2488,
      "purs": 2489,
      "possess": 2490,
      "tor": 2491,
      "Truth": 2492,
      "deep": 2493,
      "##itions": 2494,
      "led": 2495,
      "##semb": 2496,
      "home": 2497,
      "concl": 2498,
      "desire": 2499,
      "Gener": 2500,
      "fix": 2501,
      "join": 2502,
      "Their": 2503,
      "Bl": 2504,
      "carry": 2505,
      "draw": 2506,
      "mentioned": 2507,
      "ry": 2508,
      "inj": 2509,
      "past": 2510,
      "due": 2511,
      "born": 2512,
      "##ruction": 2513,
      "##oke": 2514,
      "book": 2515,
      "##bid": 2516,
      "especially": 2517,
      "immediately": 2518,
      "eye": 2519,
      "##aged": 2520,
      "Inst": 2521,
      "##uke": 2522,
      "Es": 2523,
      "##ched": 2524,
      "sol": 2525,
      "represent": 2526,
      "lik": 2527,
      "##anc": 2528,
      "mag": 2529,
      "knowledge": 2530,
      "Ge": 2531,
      "mid": 2532,
      "##itten": 2533,
      "America": 2534,
      "##ize": 2535,
      "##istr": 2536,
      "##ething": 2537,
      "during": 2538,
      "##leman": 2539,
      "Miss": 2540,
      "got": 2541,
      "##aviour": 2542,
      "##IST": 2543,
      "##ple": 2544,
      "trust": 2545,
      "authority": 2546,
      "pie": 2547,
      "##OL": 2548,
      "##owing": 2549,
      "sun": 2550,
      "##ING": 2551,
      "gives": 2552,
      "possible": 2553,
      "justice": 2554,
      "generally": 2555,
      "Capt": 2556,
      "Gent": 2557,
      "Sw": 2558,
      "fat": 2559,
      "help": 2560,
      "prot": 2561,
      "began": 2562,
      "Fl": 2563,
      "suppose": 2564,
      "##aught": 2565,
      "##oid": 2566,
      "Eur": 2567,
      "Sy": 2568,
      "##antly": 2569,
      "##uses": 2570,
      "emb": 2571,
      "Our": 2572,
      "Reason": 2573,
      "hop": 2574,
      "Hen": 2575,
      "##iff": 2576,
      "break": 2577,
      "don": 2578,
      "##aining": 2579,
      "che": 2580,
      "arg": 2581,
      "walk": 2582,
      "incre": 2583,
      "##ighb": 2584,
      "##iment": 2585,
      "##fort": 2586,
      "coll": 2587,
      "##ethod": 2588,
      "##elt": 2589,
      "moment": 2590,
      "la": 2591,
      "Pray": 2592,
      "May": 2593,
      "##mit": 2594,
      "Cont": 2595,
      "##ized": 2596,
      "black": 2597,
      "ann": 2598,
      "##ctrine": 2599,
      "Children": 2600,
      "##iful": 2601,
      "ful": 2602,
      "belong": 2603,
      "##cript": 2604,
      "kept": 2605,
      "viz": 2606,
      "happiness": 2607,
      "##ustom": 2608,
      "face": 2609,
      "##ift": 2610,
      "##atever": 2611,
      "scar": 2612,
      "white": 2613,
      "Gu": 2614,
      "##iction": 2615,
      "lie": 2616,
      "selves": 2617,
      "af": 2618,
      "##umb": 2619,
      "##igious": 2620,
      "something": 2621,
      "sea": 2622,
      "Some": 2623,
      "letter": 2624,
      "Earth": 2625,
      "##usb": 2626,
      "arms": 2627,
      "##uties": 2628,
      "going": 2629,
      "Mon": 2630,
      "Apost": 2631,
      "##ancy": 2632,
      "##ested": 2633,
      "Tw": 2634,
      "Lond": 2635,
      "mist": 2636,
      "moral": 2637,
      "dread": 2638,
      "fut": 2639,
      "##ected": 2640,
      "##airs": 2641,
      "bound": 2642,
      "Europe": 2643,
      "mount": 2644,
      "Rom": 2645,
      "Pres": 2646,
      "influ": 2647,
      "##mer": 2648,
      "##essel": 2649,
      "observed": 2650,
      "send": 2651,
      "assist": 2652,
      "Gospel": 2653,
      "Name": 2654,
      "wicked": 2655,
      "considered": 2656,
      "##inct": 2657,
      "##liament": 2658,
      "End": 2659,
      "21": 2660,
      "Script": 2661,
      "city": 2662,
      "Inf": 2663,
      "Pet": 2664,
      "##aste": 2665,
      "sav": 2666,
      "##ina": 2667,
      "kingdom": 2668,
      "certainly": 2669,
      "hist": 2670,
      "feet": 2671,
      "judge": 2672,
      "##venant": 2673,
      "22": 2674,
      "reign": 2675,
      "serve": 2676,
      "woman": 2677,
      "##men": 2678,
      "master": 2679,
      "Religion": 2680,
      "longer": 2681,
      "##EC": 2682,
      "suc": 2683,
      "TO": 2684,
      "continued": 2685,
      "Ass": 2686,
      "inn": 2687,
      "child": 2688,
      "##iments": 2689,
      "##with": 2690,
      "Mind": 2691,
      "obliged": 2692,
      "exerc": 2693,
      "carried": 2694,
      "##enn": 2695,
      "cru": 2696,
      "sch": 2697,
      "Coun": 2698,
      "false": 2699,
      "##cknow": 2700,
      "##lock": 2701,
      "test": 2702,
      "latter": 2703,
      "Him": 2704,
      "##ouble": 2705,
      "preach": 2706,
      "ant": 2707,
      "Te": 2708,
      "died": 2709,
      "sight": 2710,
      "##ils": 2711,
      "die": 2712,
      "excell": 2713,
      "##orse": 2714,
      "James": 2715,
      "comes": 2716,
      "##ience": 2717,
      "##aints": 2718,
      "civil": 2719,
      "destroy": 2720,
      "wonder": 2721,
      "Car": 2722,
      "##eousness": 2723,
      "##ishing": 2724,
      "##cient": 2725,
      "various": 2726,
      "##ishment": 2727,
      "War": 2728,
      "London": 2729,
      "Sec": 2730,
      "##inite": 2731,
      "##reed": 2732,
      "Har": 2733,
      "##que": 2734,
      "wife": 2735,
      "##utes": 2736,
      "mem": 2737,
      "langu": 2738,
      "fit": 2739,
      "offic": 2740,
      "##ueen": 2741,
      "##onies": 2742,
      "taking": 2743,
      "business": 2744,
      "##orrow": 2745,
      "Your": 2746,
      "claim": 2747,
      "else": 2748,
      "close": 2749,
      "##ests": 2750,
      "accomp": 2751,
      "lady": 2752,
      "##be": 2753,
      "25": 2754,
      "Tis": 2755,
      "heav": 2756,
      "secret": 2757,
      "##ision": 2758,
      "commun": 2759,
      "##pri": 2760,
      "ir": 2761,
      "Psal": 2762,
      "24": 2763,
      "grie": 2764,
      "afterwards": 2765,
      "##sec": 2766,
      "23": 2767,
      "##ills": 2768,
      "##AP": 2769,
      "twenty": 2770,
      "tra": 2771,
      "wood": 2772,
      "##action": 2773,
      "convers": 2774,
      "future": 2775,
      "entire": 2776,
      "Ag": 2777,
      "Div": 2778,
      "##ator": 2779,
      "##aded": 2780,
      "works": 2781,
      "##bs": 2782,
      "sle": 2783,
      "sold": 2784,
      "##ites": 2785,
      "appeared": 2786,
      "##str": 2787,
      "proof": 2788,
      "##lesh": 2789,
      "room": 2790,
      "mother": 2791,
      "##ement": 2792,
      "service": 2793,
      "##ume": 2794,
      "exh": 2795,
      "prep": 2796,
      "principles": 2797,
      "brother": 2798,
      "cold": 2799,
      "##ger": 2800,
      "delight": 2801,
      "voice": 2802,
      "##very": 2803,
      "month": 2804,
      "Bar": 2805,
      "After": 2806,
      "question": 2807,
      "##eas": 2808,
      "formed": 2809,
      "comple": 2810,
      "unf": 2811,
      "##ression": 2812,
      "Person": 2813,
      "Such": 2814,
      "acknow": 2815,
      "coming": 2816,
      "Country": 2817,
      "private": 2818,
      "consist": 2819,
      "eternal": 2820,
      "mine": 2821,
      "##reg": 2822,
      "##rif": 2823,
      "Glory": 2824,
      "seek": 2825,
      "Pri": 2826,
      "##AC": 2827,
      "crown": 2828,
      "distingu": 2829,
      "##ification": 2830,
      "morning": 2831,
      "passed": 2832,
      "held": 2833,
      "Jew": 2834,
      "Britain": 2835,
      "hour": 2836,
      "##itable": 2837,
      "##TH": 2838,
      "##lick": 2839,
      "##abitants": 2840,
      "##ounded": 2841,
      "Persons": 2842,
      "Body": 2843,
      "places": 2844,
      "accept": 2845,
      "Thou": 2846,
      "##usband": 2847,
      "Bel": 2848,
      "sup": 2849,
      "teach": 2850,
      "Scot": 2851,
      "mere": 2852,
      "Mad": 2853,
      "concerning": 2854,
      "Mat": 2855,
      "warm": 2856,
      "action": 2857,
      "repe": 2858,
      "gone": 2859,
      "worthy": 2860,
      "##oyal": 2861,
      "particularly": 2862,
      "ign": 2863,
      "judgment": 2864,
      "mil": 2865,
      "post": 2866,
      "Ca": 2867,
      "##anch": 2868,
      "scarce": 2869,
      "Hist": 2870,
      "pros": 2871,
      "mort": 2872,
      "##ibly": 2873,
      "##attle": 2874,
      "noble": 2875,
      "bad": 2876,
      "Lib": 2877,
      "Way": 2878,
      "whatever": 2879,
      "##stem": 2880,
      "fig": 2881,
      "##yond": 2882,
      "diss": 2883,
      "##ler": 2884,
      "cred": 2885,
      "third": 2886,
      "##urs": 2887,
      "rise": 2888,
      "##iod": 2889,
      "PR": 2890,
      "States": 2891,
      "ren": 2892,
      "While": 2893,
      "##ourse": 2894,
      "Ro": 2895,
      "dro": 2896,
      "##cial": 2897,
      "exist": 2898,
      "##ishop": 2899,
      "##ensive": 2900,
      "##ewise": 2901,
      "Town": 2902,
      "##irst": 2903,
      "prevail": 2904,
      "##iting": 2905,
      "dece": 2906,
      "lim": 2907,
      "Book": 2908,
      "pap": 2909,
      "cry": 2910,
      "##ones": 2911,
      "written": 2912,
      "##lly": 2913,
      "##ging": 2914,
      "##ror": 2915,
      "Which": 2916,
      "##edience": 2917,
      "##olute": 2918,
      "cent": 2919,
      "Light": 2920,
      "frequently": 2921,
      "living": 2922,
      "thereof": 2923,
      "Charles": 2924,
      "fail": 2925,
      "Holy": 2926,
      "mankind": 2927,
      "ven": 2928,
      "##eds": 2929,
      "company": 2930,
      "Ey": 2931,
      "supposed": 2932,
      "hence": 2933,
      "##aken": 2934,
      "Rob": 2935,
      "##ams": 2936,
      "##rect": 2937,
      "eff": 2938,
      "?—": 2939,
      "extra": 2940,
      "Peace": 2941,
      "paid": 2942,
      "nations": 2943,
      "da": 2944,
      "seemed": 2945,
      "##vel": 2946,
      "oper": 2947,
      "hearts": 2948,
      "##br": 2949,
      "soft": 2950,
      "##int": 2951,
      "##ics": 2952,
      "likewise": 2953,
      "med": 2954,
      "Sat": 2955,
      "sound": 2956,
      "##wise": 2957,
      "##ference": 2958,
      "##lemn": 2959,
      "Henry": 2960,
      "##ior": 2961,
      "##gin": 2962,
      "beyond": 2963,
      "Inter": 2964,
      "##osing": 2965,
      "gre": 2966,
      "Const": 2967,
      "exam": 2968,
      "situation": 2969,
      "quar": 2970,
      "##rodu": 2971,
      "change": 2972,
      "##ium": 2973,
      "General": 2974,
      "##af": 2975,
      "##ENT": 2976,
      "univers": 2977,
      "##irth": 2978,
      "Work": 2979,
      "glorious": 2980,
      "Del": 2981,
      ".,": 2982,
      "Cond": 2983,
      "Head": 2984,
      "Art": 2985,
      "Im": 2986,
      "succeed": 2987,
      "##iers": 2988,
      "pecul": 2989,
      "play": 2990,
      "fif": 2991,
      "easily": 2992,
      "gain": 2993,
      "##uded": 2994,
      "##iter": 2995,
      "##iet": 2996,
      "produce": 2997,
      "giving": 2998,
      "easy": 2999,
      "##son": 3000,
      "youth": 3001,
      "##ander": 3002,
      "##icious": 3003,
      "pleased": 3004,
      "Rev": 3005,
      "observe": 3006,
      ";—": 3007,
      "appointed": 3008,
      "infinite": 3009,
      "willing": 3010,
      "##aries": 3011,
      "experi": 3012,
      "##ORD": 3013,
      "defend": 3014,
      "##osoph": 3015,
      "passion": 3016,
      "rul": 3017,
      "peculiar": 3018,
      "App": 3019,
      "labour": 3020,
      "cre": 3021,
      "mur": 3022,
      "30": 3023,
      "26": 3024,
      "unless": 3025,
      "Bre": 3026,
      "##uced": 3027,
      "neglect": 3028,
      "##OU": 3029,
      "##itle": 3030,
      "##dle": 3031,
      "##uments": 3032,
      "quite": 3033,
      "Rem": 3034,
      "Land": 3035,
      "Place": 3036,
      "##aled": 3037,
      "##urity": 3038,
      "##oes": 3039,
      "##ample": 3040,
      "##resh": 3041,
      "sud": 3042,
      "##OS": 3043,
      "species": 3044,
      "Pat": 3045,
      "North": 3046,
      "##val": 3047,
      "Jer": 3048,
      "Indians": 3049,
      "##ouses": 3050,
      "daughter": 3051,
      "please": 3052,
      "field": 3053,
      "Fe": 3054,
      "Thing": 3055,
      "considerable": 3056,
      "circumstances": 3057,
      "##ken": 3058,
      "##uck": 3059,
      "quick": 3060,
      "##ilty": 3061,
      "##cribed": 3062,
      "eight": 3063,
      "Honour": 3064,
      "##rees": 3065,
      "sacred": 3066,
      "##gar": 3067,
      "grat": 3068,
      "Government": 3069,
      "esc": 3070,
      "tro": 3071,
      "attention": 3072,
      "##asons": 3073,
      "perce": 3074,
      "##akes": 3075,
      "##aring": 3076,
      "Rich": 3077,
      "wild": 3078,
      "Ple": 3079,
      "became": 3080,
      "party": 3081,
      "##ouch": 3082,
      "line": 3083,
      "##tained": 3084,
      "Isra": 3085,
      "vessel": 3086,
      "esteem": 3087,
      "Hand": 3088,
      "gold": 3089,
      "Geor": 3090,
      "equally": 3091,
      "fer": 3092,
      "##ented": 3093,
      "##uff": 3094,
      "ur": 3095,
      "##yr": 3096,
      "exceed": 3097,
      "Lo": 3098,
      "##lemen": 3099,
      "expl": 3100,
      "##itting": 3101,
      "##ainted": 3102,
      "28": 3103,
      "sort": 3104,
      "mel": 3105,
      "advantage": 3106,
      "absolute": 3107,
      "maint": 3108,
      "##vey": 3109,
      "society": 3110,
      "along": 3111,
      "truly": 3112,
      "neighb": 3113,
      "III": 3114,
      "army": 3115,
      "Reg": 3116,
      "##asting": 3117,
      "dise": 3118,
      "super": 3119,
      "##athers": 3120,
      "##riage": 3121,
      "kill": 3122,
      "afford": 3123,
      "##gr": 3124,
      "##RIST": 3125,
      "depart": 3126,
      "##IV": 3127,
      "Well": 3128,
      "##ulty": 3129,
      "##reath": 3130,
      "blessed": 3131,
      "dam": 3132,
      "influence": 3133,
      "##cing": 3134,
      "becom": 3135,
      "drink": 3136,
      "##pper": 3137,
      "reach": 3138,
      "Israel": 3139,
      "foot": 3140,
      "British": 3141,
      "faithful": 3142,
      "solemn": 3143,
      "ancient": 3144,
      "27": 3145,
      "obtain": 3146,
      "separ": 3147,
      "superi": 3148,
      "##ining": 3149,
      "##utions": 3150,
      "herself": 3151,
      "system": 3152,
      "hur": 3153,
      "##ardon": 3154,
      "##aces": 3155,
      "otherwise": 3156,
      "quant": 3157,
      "##isc": 3158,
      "early": 3159,
      "Pass": 3160,
      "##oe": 3161,
      "tions": 3162,
      "Creat": 3163,
      "practice": 3164,
      "subjects": 3165,
      "allow": 3166,
      "Spe": 3167,
      "##erved": 3168,
      "bird": 3169,
      "fellow": 3170,
      "Thom": 3171,
      "until": 3172,
      "Majesty": 3173,
      "##ortunity": 3174,
      "Conf": 3175,
      "guard": 3176,
      "Words": 3177,
      "furn": 3178,
      "##gress": 3179,
      "Dav": 3180,
      "powers": 3181,
      "women": 3182,
      "Adv": 3183,
      "attended": 3184,
      "stud": 3185,
      "##ule": 3186,
      "save": 3187,
      "Ant": 3188,
      "port": 3189,
      "mus": 3190,
      "Paul": 3191,
      "stood": 3192,
      "##wh": 3193,
      "doing": 3194,
      "##cer": 3195,
      "returned": 3196,
      "try": 3197,
      "idea": 3198,
      "sudden": 3199,
      "##ney": 3200,
      "CHRIST": 3201,
      "##lex": 3202,
      "comfort": 3203,
      "fully": 3204,
      "plan": 3205,
      "inde": 3206,
      "ourselves": 3207,
      "##ster": 3208,
      "intended": 3209,
      "Prince": 3210,
      "##yl": 3211,
      "instead": 3212,
      "El": 3213,
      "artic": 3214,
      "condition": 3215,
      "##asures": 3216,
      "wisdom": 3217,
      "Exp": 3218,
      "property": 3219,
      "felt": 3220,
      "married": 3221,
      "charge": 3222,
      "subs": 3223,
      "enemy": 3224,
      "proportion": 3225,
      "mix": 3226,
      "really": 3227,
      "appearance": 3228,
      "remain": 3229,
      "mercy": 3230,
      "fortune": 3231,
      "weight": 3232,
      "breast": 3233,
      "##agement": 3234,
      "##ford": 3235,
      "##ital": 3236,
      "##erous": 3237,
      "measure": 3238,
      "remember": 3239,
      "qual": 3240,
      "consequence": 3241,
      "greatly": 3242,
      "subst": 3243,
      "confess": 3244,
      "Isa": 3245,
      "##uce": 3246,
      "religious": 3247,
      "period": 3248,
      "spread": 3249,
      "wrong": 3250,
      "ii": 3251,
      "fly": 3252,
      "grow": 3253,
      "Ev": 3254,
      "ignor": 3255,
      "Est": 3256,
      "mad": 3257,
      "ring": 3258,
      "constitution": 3259,
      "##erable": 3260,
      "Years": 3261,
      "##iously": 3262,
      "Justice": 3263,
      "sons": 3264,
      "press": 3265,
      "corrupt": 3266,
      "##itation": 3267,
      "Att": 3268,
      "introdu": 3269,
      "##inter": 3270,
      "mal": 3271,
      "cruel": 3272,
      "capt": 3273,
      "rule": 3274,
      "polit": 3275,
      "##hip": 3276,
      "unh": 3277,
      "recover": 3278,
      "##urd": 3279,
      "distance": 3280,
      "god": 3281,
      "extreme": 3282,
      "utter": 3283,
      "Up": 3284,
      "taught": 3285,
      "talk": 3286,
      "lands": 3287,
      "##anks": 3288,
      "praise": 3289,
      "lar": 3290,
      "affection": 3291,
      "difficult": 3292,
      "##thren": 3293,
      "bed": 3294,
      "eat": 3295,
      "single": 3296,
      "Souls": 3297,
      "##ulation": 3298,
      "island": 3299,
      "parent": 3300,
      "condem": 3301,
      "##jud": 3302,
      "vent": 3303,
      "rid": 3304,
      "Know": 3305,
      "saith": 3306,
      "##itary": 3307,
      "##ered": 3308,
      "fav": 3309,
      "dri": 3310,
      "guilty": 3311,
      "wret": 3312,
      "imposs": 3313,
      "remo": 3314,
      "drawn": 3315,
      "Mo": 3316,
      "Rome": 3317,
      "entirely": 3318,
      "iss": 3319,
      "approach": 3320,
      "West": 3321,
      "##sembly": 3322,
      "##odies": 3323,
      "beauty": 3324,
      "##ellow": 3325,
      "Account": 3326,
      "AND": 3327,
      "Aff": 3328,
      "cases": 3329,
      "##tion": 3330,
      "ways": 3331,
      "Case": 3332,
      "health": 3333,
      "encour": 3334,
      "value": 3335,
      "loss": 3336,
      "29": 3337,
      "WH": 3338,
      "Int": 3339,
      "pure": 3340,
      "Subject": 3341,
      "##ipp": 3342,
      "appreh": 3343,
      "Sm": 3344,
      "method": 3345,
      "ess": 3346,
      "##amb": 3347,
      "##ilst": 3348,
      "inhabitants": 3349,
      "firm": 3350,
      "raised": 3351,
      "Dist": 3352,
      "gospel": 3353,
      "thoughts": 3354,
      "grand": 3355,
      "Stre": 3356,
      "##ork": 3357,
      "principal": 3358,
      "##cription": 3359,
      "vict": 3360,
      "##UT": 3361,
      "proc": 3362,
      "Bless": 3363,
      "hopes": 3364,
      "lives": 3365,
      "Ac": 3366,
      "sensible": 3367,
      "effects": 3368,
      "stru": 3369,
      "mouth": 3370,
      "##RE": 3371,
      "##lished": 3372,
      "produced": 3373,
      "Master": 3374,
      "##eral": 3375,
      "Hence": 3376,
      "##ux": 3377,
      "river": 3378,
      "gentleman": 3379,
      "##III": 3380,
      "Queen": 3381,
      "turned": 3382,
      "Thomas": 3383,
      "##mitted": 3384,
      "saying": 3385,
      "##nal": 3386,
      "build": 3387,
      "excl": 3388,
      "superior": 3389,
      "fond": 3390,
      "Coll": 3391,
      "##umber": 3392,
      "##ID": 3393,
      "##pr": 3394,
      "conqu": 3395,
      "##AD": 3396,
      "Gree": 3397,
      "manif": 3398,
      "##uf": 3399,
      "Temp": 3400,
      "foreign": 3401,
      "Thy": 3402,
      "memb": 3403,
      "pride": 3404,
      "Water": 3405,
      "Salvation": 3406,
      "chang": 3407,
      "yield": 3408,
      "plant": 3409,
      "##igned": 3410,
      "Gen": 3411,
      "office": 3412,
      "##quir": 3413,
      "seven": 3414,
      "history": 3415,
      "deal": 3416,
      "seeing": 3417,
      "glad": 3418,
      "assert": 3419,
      "Yes": 3420,
      "Fam": 3421,
      "understand": 3422,
      "##oms": 3423,
      "honest": 3424,
      "continue": 3425,
      "mult": 3426,
      "fast": 3427,
      "trib": 3428,
      "##rant": 3429,
      "temper": 3430,
      "##ex": 3431,
      "Blood": 3432,
      "gro": 3433,
      "Ep": 3434,
      "useful": 3435,
      "prison": 3436,
      "##iled": 3437,
      "profess": 3438,
      "##umph": 3439,
      "behold": 3440,
      "dwell": 3441,
      "wherein": 3442,
      "added": 3443,
      "exact": 3444,
      "taste": 3445,
      "Esq": 3446,
      "pos": 3447,
      "sick": 3448,
      "nob": 3449,
      "conn": 3450,
      "fruit": 3451,
      "farther": 3452,
      "Sch": 3453,
      "George": 3454,
      "sal": 3455,
      "glo": 3456,
      "spiritual": 3457,
      "step": 3458,
      "language": 3459,
      "##itive": 3460,
      "trade": 3461,
      "sad": 3462,
      "Op": 3463,
      "##ray": 3464,
      "##utiful": 3465,
      "attempt": 3466,
      "principle": 3467,
      "##inent": 3468,
      "cit": 3469,
      "expected": 3470,
      "witness": 3471,
      "besides": 3472,
      "knows": 3473,
      "important": 3474,
      "benef": 3475,
      "employed": 3476,
      "disg": 3477,
      "sett": 3478,
      "endeavour": 3479,
      "##ignity": 3480,
      "sir": 3481,
      "safe": 3482,
      "enemies": 3483,
      "##att": 3484,
      "door": 3485,
      "distress": 3486,
      "Saviour": 3487,
      "##IA": 3488,
      "##liv": 3489,
      "LORD": 3490,
      "##isl": 3491,
      "excellent": 3492,
      "Med": 3493,
      "##uss": 3494,
      "van": 3495,
      "persu": 3496,
      "agreeable": 3497,
      "confirm": 3498,
      "##imony": 3499,
      "##hold": 3500,
      "purch": 3501,
      "Scripture": 3502,
      "north": 3503,
      "##imate": 3504,
      "La": 3505,
      "##EM": 3506,
      "mut": 3507,
      "necessity": 3508,
      "##ston": 3509,
      "freed": 3510,
      "lived": 3511,
      "Disc": 3512,
      "##orth": 3513,
      "David": 3514,
      "##amed": 3515,
      "##ulous": 3516,
      "vast": 3517,
      "infer": 3518,
      "husband": 3519,
      "strange": 3520,
      "notice": 3521,
      "probably": 3522,
      "proved": 3523,
      "trave": 3524,
      "Gods": 3525,
      "rights": 3526,
      "##inate": 3527,
      "Order": 3528,
      "maj": 3529,
      "watch": 3530,
      "fool": 3531,
      "##amm": 3532,
      "impossible": 3533,
      "earn": 3534,
      "##asts": 3535,
      "Pub": 3536,
      "ang": 3537,
      "##ike": 3538,
      "##withstanding": 3539,
      "##ories": 3540,
      "amongst": 3541,
      "merit": 3542,
      "placed": 3543,
      "##enth": 3544,
      "##ension": 3545,
      "burn": 3546,
      "bold": 3547,
      "alth": 3548,
      "##under": 3549,
      "),": 3550,
      "alt": 3551,
      "bright": 3552,
      "learned": 3553,
      "pet": 3554,
      "obey": 3555,
      "##ealous": 3556,
      "Kingdom": 3557,
      "Test": 3558,
      "##anct": 3559,
      "Enem": 3560,
      "piece": 3561,
      "##ales": 3562,
      "tot": 3563,
      "christ": 3564,
      "##ciples": 3565,
      "##lies": 3566,
      "##elve": 3567,
      "Mag": 3568,
      "##inions": 3569,
      "determined": 3570,
      "meeting": 3571,
      "##appy": 3572,
      "lies": 3573,
      "fle": 3574,
      "Vir": 3575,
      "##ech": 3576,
      "terms": 3577,
      "##arily": 3578,
      "##olution": 3579,
      "Emp": 3580,
      "raise": 3581,
      "miles": 3582,
      "##ending": 3583,
      "credit": 3584,
      "takes": 3585,
      "Friends": 3586,
      "Str": 3587,
      "wee": 3588,
      "script": 3589,
      "Roman": 3590,
      "allowed": 3591,
      "habit": 3592,
      "Go": 3593,
      "endeav": 3594,
      "natur": 3595,
      "admir": 3596,
      "Matter": 3597,
      "Ver": 3598,
      "tax": 3599,
      "minds": 3600,
      "Ref": 3601,
      "indul": 3602,
      "flesh": 3603,
      "##een": 3604,
      "unw": 3605,
      "delivered": 3606,
      "fish": 3607,
      "sn": 3608,
      "pop": 3609,
      "##oted": 3610,
      "established": 3611,
      "##ares": 3612,
      "repro": 3613,
      "##edy": 3614,
      "usual": 3615,
      "##istry": 3616,
      "##ored": 3617,
      "##stood": 3618,
      "improve": 3619,
      "rock": 3620,
      "##vy": 3621,
      "Ange": 3622,
      "sake": 3623,
      "United": 3624,
      "capable": 3625,
      "threat": 3626,
      "Enter": 3627,
      "##verse": 3628,
      "worship": 3629,
      "Christians": 3630,
      "ste": 3631,
      "proph": 3632,
      "##otion": 3633,
      "bit": 3634,
      "##UM": 3635,
      "humble": 3636,
      "phil": 3637,
      "afore": 3638,
      "Hum": 3639,
      "horse": 3640,
      "Red": 3641,
      "##CH": 3642,
      "hours": 3643,
      "tears": 3644,
      "highest": 3645,
      "sleep": 3646,
      "Sea": 3647,
      "Earl": 3648,
      "##ergy": 3649,
      "answered": 3650,
      "31": 3651,
      "##urb": 3652,
      "##UL": 3653,
      "page": 3654,
      "xx": 3655,
      "utmost": 3656,
      "dress": 3657,
      "pounds": 3658,
      "##OT": 3659,
      "##irty": 3660,
      "mighty": 3661,
      "doctrine": 3662,
      "South": 3663,
      "Ord": 3664,
      "Cause": 3665,
      "##cere": 3666,
      "shore": 3667,
      "obtained": 3668,
      "alter": 3669,
      "Covenant": 3670,
      "Upon": 3671,
      "dangerous": 3672,
      "innoc": 3673,
      "##lication": 3674,
      "Duty": 3675,
      "evidence": 3676,
      "##raid": 3677,
      "Devil": 3678,
      "Em": 3679,
      "objects": 3680,
      "motion": 3681,
      "har": 3682,
      "publick": 3683,
      "evident": 3684,
      "##irs": 3685,
      "justly": 3686,
      "##ends": 3687,
      "Mary": 3688,
      "sins": 3689,
      "Aug": 3690,
      "applied": 3691,
      "##go": 3692,
      "distinct": 3693,
      "board": 3694,
      "declared": 3695,
      "##ask": 3696,
      "exercise": 3697,
      "offered": 3698,
      "ep": 3699,
      "##osen": 3700,
      "Arm": 3701,
      "pow": 3702,
      "##OP": 3703,
      "York": 3704,
      "discovered": 3705,
      "First": 3706,
      "recomm": 3707,
      "Judgment": 3708,
      ":—": 3709,
      "promise": 3710,
      "reflect": 3711,
      "##ongue": 3712,
      "##vere": 3713,
      "quantity": 3714,
      "move": 3715,
      "secure": 3716,
      "whence": 3717,
      "##anced": 3718,
      "custom": 3719,
      "##idge": 3720,
      "Captain": 3721,
      "write": 3722,
      "ow": 3723,
      "##fs": 3724,
      "speaking": 3725,
      "stay": 3726,
      "desired": 3727,
      "Prop": 3728,
      "fac": 3729,
      "##XX": 3730,
      "##urp": 3731,
      "Tho": 3732,
      "##co": 3733,
      "##no": 3734,
      "restr": 3735,
      "exert": 3736,
      "instruct": 3737,
      "original": 3738,
      "ordered": 3739,
      "ruin": 3740,
      "##enance": 3741,
      "scene": 3742,
      "Bur": 3743,
      "poet": 3744,
      "##acity": 3745,
      "beginning": 3746,
      "##OW": 3747,
      "demand": 3748,
      "##olence": 3749,
      "admin": 3750,
      "arrived": 3751,
      "season": 3752,
      "##iii": 3753,
      "Sl": 3754,
      "177": 3755,
      "##aths": 3756,
      "granted": 3757,
      "Divine": 3758,
      "##ivid": 3759,
      "Virt": 3760,
      "horr": 3761,
      "convin": 3762,
      "##aking": 3763,
      "wholly": 3764,
      "##let": 3765,
      "earnest": 3766,
      "##rest": 3767,
      "##ldom": 3768,
      "prince": 3769,
      "ture": 3770,
      "disch": 3771,
      "lad": 3772,
      "##pir": 3773,
      "CHAP": 3774,
      "##quis": 3775,
      "descend": 3776,
      "fixed": 3777,
      "?\"": 3778,
      "##AND": 3779,
      "required": 3780,
      "elect": 3781,
      "formerly": 3782,
      "hy": 3783,
      "##enced": 3784,
      "instance": 3785,
      "##alls": 3786,
      "Read": 3787,
      "animal": 3788,
      "possession": 3789,
      "reb": 3790,
      "##iable": 3791,
      "Sense": 3792,
      "estate": 3793,
      "##rig": 3794,
      "thine": 3795,
      "BY": 3796,
      "##opt": 3797,
      "##ids": 3798,
      "##ourn": 3799,
      "Laws": 3800,
      "Wr": 3801,
      "##ades": 3802,
      "vill": 3803,
      "##udes": 3804,
      "fate": 3805,
      "visit": 3806,
      "sed": 3807,
      "ri": 3808,
      "##IG": 3809,
      "thence": 3810,
      "strict": 3811,
      "Bott": 3812,
      "##utation": 3813,
      "saved": 3814,
      "suffered": 3815,
      "behind": 3816,
      "Proph": 3817,
      "breath": 3818,
      "Jews": 3819,
      "fatal": 3820,
      "vers": 3821,
      "enl": 3822,
      "Gre": 3823,
      "cop": 3824,
      "ST": 3825,
      "spring": 3826,
      "##ordinary": 3827,
      "dreadful": 3828,
      "naturally": 3829,
      "Year": 3830,
      "Old": 3831,
      "Apostle": 3832,
      "Island": 3833,
      "pal": 3834,
      "council": 3835,
      "##olog": 3836,
      "Robert": 3837,
      "##ald": 3838,
      "Tre": 3839,
      "Cong": 3840,
      "##ening": 3841,
      "communic": 3842,
      "178": 3843,
      "Being": 3844,
      "American": 3845,
      "uns": 3846,
      "avoid": 3847,
      "thick": 3848,
      "##rance": 3849,
      "Id": 3850,
      "##oken": 3851,
      "title": 3852,
      "ous": 3853,
      "na": 3854,
      "Joy": 3855,
      "narr": 3856,
      "regular": 3857,
      "##ctor": 3858,
      "forward": 3859,
      "deny": 3860,
      "##pet": 3861,
      "obst": 3862,
      "bott": 3863,
      "Those": 3864,
      "members": 3865,
      "Dan": 3866,
      "wrote": 3867,
      "beautiful": 3868,
      "attack": 3869,
      "##ips": 3870,
      "parliament": 3871,
      "fem": 3872,
      "Sam": 3873,
      "magn": 3874,
      "Adm": 3875,
      "##pic": 3876,
      "!\"": 3877,
      "Care": 3878,
      "reven": 3879,
      "##ysic": 3880,
      "apost": 3881,
      "iii": 3882,
      "sword": 3883,
      "Night": 3884,
      "sister": 3885,
      "##ators": 3886,
      "##ables": 3887,
      "origin": 3888,
      "Circ": 3889,
      "squ": 3890,
      "Though": 3891,
      "##osity": 3892,
      "pretty": 3893,
      "cross": 3894,
      "##just": 3895,
      "violent": 3896,
      "Hands": 3897,
      "bow": 3898,
      "##lled": 3899,
      "thereby": 3900,
      "##oliness": 3901,
      "dim": 3902,
      "##ESS": 3903,
      "Span": 3904,
      "below": 3905,
      "Days": 3906,
      "Mis": 3907,
      "##said": 3908,
      "citiz": 3909,
      "Council": 3910,
      "harm": 3911,
      "address": 3912,
      "review": 3913,
      "##bar": 3914,
      "##road": 3915,
      "##raw": 3916,
      "consent": 3917,
      "##ibility": 3918,
      "founded": 3919,
      "##angers": 3920,
      "Zo": 3921,
      "prud": 3922,
      "tree": 3923,
      "distant": 3924,
      "notwithstanding": 3925,
      "Eyes": 3926,
      "Ah": 3927,
      "informed": 3928,
      "resist": 3929,
      "##lasting": 3930,
      "bill": 3931,
      "Madam": 3932,
      "##atic": 3933,
      "Disp": 3934,
      "seldom": 3935,
      "High": 3936,
      "yea": 3937,
      "understood": 3938,
      "acts": 3939,
      "32": 3940,
      "##asions": 3941,
      "Thought": 3942,
      "sincere": 3943,
      "famil": 3944,
      "acquainted": 3945,
      "experience": 3946,
      "apply": 3947,
      "entered": 3948,
      "##eror": 3949,
      "covered": 3950,
      "food": 3951,
      "chosen": 3952,
      "affected": 3953,
      "afflic": 3954,
      "ration": 3955,
      "opportunity": 3956,
      "##antages": 3957,
      "Every": 3958,
      "amb": 3959,
      "calls": 3960,
      "gentle": 3961,
      "asked": 3962,
      "freedom": 3963,
      "wealth": 3964,
      "##ode": 3965,
      "evening": 3966,
      "dry": 3967,
      "Alex": 3968,
      "179": 3969,
      "dare": 3970,
      "passions": 3971,
      "example": 3972,
      "properly": 3973,
      "cult": 3974,
      "pardon": 3975,
      "vig": 3976,
      "spirits": 3977,
      "##itch": 3978,
      "houses": 3979,
      "whilst": 3980,
      "##uing": 3981,
      "Occ": 3982,
      "universal": 3983,
      "bread": 3984,
      "od": 3985,
      "list": 3986,
      "colour": 3987,
      "##vi": 3988,
      "##orted": 3989,
      "passage": 3990,
      "south": 3991,
      "Er": 3992,
      "##hood": 3993,
      "##icks": 3994,
      "resolved": 3995,
      "Trans": 3996,
      "gall": 3997,
      "##utch": 3998,
      "daily": 3999,
      "##aters": 4000,
      "ments": 4001,
      "thank": 4002,
      "##iah": 4003,
      "united": 4004,
      "presence": 4005,
      "officers": 4006,
      "native": 4007,
      "Ministers": 4008,
      "fresh": 4009,
      "##resp": 4010,
      "Opp": 4011,
      "commonly": 4012,
      "trees": 4013,
      "Manner": 4014,
      "LET": 4015,
      "souls": 4016,
      "philosoph": 4017,
      "grave": 4018,
      "affairs": 4019,
      "Prof": 4020,
      "servant": 4021,
      "share": 4022,
      "becomes": 4023,
      "Works": 4024,
      "flow": 4025,
      "Scotland": 4026,
      "generous": 4027,
      "cried": 4028,
      "severe": 4029,
      "followed": 4030,
      "wait": 4031,
      "##erce": 4032,
      "##teen": 4033,
      "chiefly": 4034,
      "supply": 4035,
      "pity": 4036,
      "friendship": 4037,
      "##bers": 4038,
      "Hy": 4039,
      "##omin": 4040,
      "aforesaid": 4041,
      "Supp": 4042,
      "committed": 4043,
      "require": 4044,
      "comb": 4045,
      "##öl": 4046,
      "Chap": 4047,
      "Mercy": 4048,
      "sion": 4049,
      "debt": 4050,
      "##ential": 4051,
      "main": 4052,
      "causes": 4053,
      "Liberty": 4054,
      "dil": 4055,
      "History": 4056,
      "Text": 4057,
      "arise": 4058,
      "IT": 4059,
      "dy": 4060,
      "gard": 4061,
      "Sur": 4062,
      "Wisdom": 4063,
      "Having": 4064,
      "lest": 4065,
      "Providence": 4066,
      "Fo": 4067,
      "therein": 4068,
      "SP": 4069,
      "constit": 4070,
      "variety": 4071,
      "##elf": 4072,
      "Zoöl": 4073,
      "neighbour": 4074,
      "##iance": 4075,
      "surely": 4076,
      "lose": 4077,
      "settle": 4078,
      "difference": 4079,
      "##rent": 4080,
      "rank": 4081,
      "##GE": 4082,
      "##soever": 4083,
      "##erate": 4084,
      "built": 4085,
      "Authority": 4086,
      "afraid": 4087,
      "perfectly": 4088,
      "##AV": 4089,
      "fame": 4090,
      "##rors": 4091,
      "sail": 4092,
      "IV": 4093,
      "wou": 4094,
      "##erties": 4095,
      "symp": 4096,
      "\",": 4097,
      "worse": 4098,
      "##oints": 4099,
      "highly": 4100,
      "40": 4101,
      "##osom": 4102,
      "lately": 4103,
      "##eme": 4104,
      "extraordinary": 4105,
      "Are": 4106,
      "##her": 4107,
      "Heb": 4108,
      "vice": 4109,
      "fight": 4110,
      "yourself": 4111,
      "##aterial": 4112,
      "reject": 4113,
      "70": 4114,
      "engaged": 4115,
      "Acts": 4116,
      "clo": 4117,
      "manners": 4118,
      "nearly": 4119,
      "attach": 4120,
      "##ighty": 4121,
      "gracious": 4122,
      "salvation": 4123,
      "standing": 4124,
      "##abb": 4125,
      "looked": 4126,
      "Righteousness": 4127,
      "blind": 4128,
      "sen": 4129,
      ".'": 4130,
      "ted": 4131,
      "AL": 4132,
      "Shak": 4133,
      "imper": 4134,
      "Pap": 4135,
      "##ATION": 4136,
      "Vol": 4137,
      "##ability": 4138,
      "consideration": 4139,
      "broken": 4140,
      "Sins": 4141,
      "months": 4142,
      "##rel": 4143,
      "Command": 4144,
      "letters": 4145,
      "frequent": 4146,
      "##atives": 4147,
      "Sac": 4148,
      "Governor": 4149,
      "Peter": 4150,
      "##quire": 4151,
      "intell": 4152,
      "Arg": 4153,
      "Tim": 4154,
      "constant": 4155,
      "Fire": 4156,
      "declare": 4157,
      "directed": 4158,
      "##ager": 4159,
      "Object": 4160,
      "Je": 4161,
      "Letter": 4162,
      "##erem": 4163,
      "blo": 4164,
      "cloth": 4165,
      "Rec": 4166,
      "Ser": 4167,
      "Hearts": 4168,
      "disease": 4169,
      "Nation": 4170,
      "Two": 4171,
      "Kings": 4172,
      "defence": 4173,
      "orders": 4174,
      "spoken": 4175,
      "filled": 4176,
      "remarkable": 4177,
      "whe": 4178,
      "oppos": 4179,
      "actions": 4180,
      "##isions": 4181,
      "cf": 4182,
      "delic": 4183,
      "states": 4184,
      "Cur": 4185,
      "##acters": 4186,
      "corn": 4187,
      "manifest": 4188,
      "increase": 4189,
      "Writ": 4190,
      "contract": 4191,
      "##OUR": 4192,
      "stone": 4193,
      "##ival": 4194,
      "##AY": 4195,
      "instr": 4196,
      "paper": 4197,
      "repent": 4198,
      "duties": 4199,
      "##IM": 4200,
      "forget": 4201,
      "Child": 4202,
      "tal": 4203,
      "##inction": 4204,
      "sides": 4205,
      "cloud": 4206,
      "touch": 4207,
      "entertain": 4208,
      "##ns": 4209,
      "cele": 4210,
      "rob": 4211,
      "sentiments": 4212,
      "contempt": 4213,
      "AS": 4214,
      "Even": 4215,
      "##iding": 4216,
      "royal": 4217,
      "execution": 4218,
      "##eg": 4219,
      "numerous": 4220,
      "rous": 4221,
      "##ilton": 4222,
      "perpet": 4223,
      "Sol": 4224,
      "reward": 4225,
      "##irl": 4226,
      "green": 4227,
      "##omy": 4228,
      "pleasing": 4229,
      "twelve": 4230,
      "##ividual": 4231,
      "throne": 4232,
      "##erto": 4233,
      "Evil": 4234,
      "educ": 4235,
      "bapt": 4236,
      "matters": 4237,
      "height": 4238,
      "sovere": 4239,
      "leaves": 4240,
      "ard": 4241,
      "powerful": 4242,
      "Means": 4243,
      "Come": 4244,
      "##verted": 4245,
      "simil": 4246,
      "tain": 4247,
      "Shall": 4248,
      "opened": 4249,
      "##day": 4250,
      "Parliament": 4251,
      "Oliv": 4252,
      "ones": 4253,
      "ens": 4254,
      "table": 4255,
      "##face": 4256,
      "Prom": 4257,
      "Duke": 4258,
      "rej": 4259,
      "##aph": 4260,
      "##lection": 4261,
      "##umed": 4262,
      "desir": 4263,
      "aside": 4264,
      "attemp": 4265,
      "heat": 4266,
      "troops": 4267,
      "##ustri": 4268,
      "Company": 4269,
      "33": 4270,
      "Consider": 4271,
      "Had": 4272,
      "choice": 4273,
      "Churches": 4274,
      "murder": 4275,
      "creature": 4276,
      "lower": 4277,
      "writing": 4278,
      "Doctrine": 4279,
      "minister": 4280,
      "proposed": 4281,
      "August": 4282,
      "##ERS": 4283,
      "tempt": 4284,
      "##ortune": 4285,
      "##ishes": 4286,
      "##eless": 4287,
      "remains": 4288,
      "charm": 4289,
      "##ILL": 4290,
      "saf": 4291,
      "Don": 4292,
      "cho": 4293,
      "##ague": 4294,
      "fol": 4295,
      "Pra": 4296,
      "ease": 4297,
      "boy": 4298,
      "triumph": 4299,
      "conven": 4300,
      "settled": 4301,
      "replied": 4302,
      "##ively": 4303,
      "##oned": 4304,
      "Use": 4305,
      "search": 4306,
      "##ims": 4307,
      "Wood": 4308,
      "Effect": 4309,
      "birth": 4310,
      "Gra": 4311,
      "honor": 4312,
      "##ias": 4313,
      "rose": 4314,
      "##ien": 4315,
      "proud": 4316,
      "laugh": 4317,
      "##igence": 4318,
      "Ital": 4319,
      "Thr": 4320,
      "stands": 4321,
      "wine": 4322,
      "Bost": 4323,
      "happened": 4324,
      "Kind": 4325,
      "##vert": 4326,
      "Mark": 4327,
      "meaning": 4328,
      "Cap": 4329,
      "Rul": 4330,
      "alarm": 4331,
      "hang": 4332,
      "mor": 4333,
      "plaint": 4334,
      "punishment": 4335,
      "Money": 4336,
      "sto": 4337,
      "Olivia": 4338,
      "Port": 4339,
      "##mission": 4340,
      "ideas": 4341,
      "##fulness": 4342,
      "provided": 4343,
      "Germ": 4344,
      "although": 4345,
      "##gs": 4346,
      "genius": 4347,
      "Was": 4348,
      "Inc": 4349,
      "Therefore": 4350,
      "##iquity": 4351,
      "preserve": 4352,
      "Cal": 4353,
      "privile": 4354,
      "##inder": 4355,
      "However": 4356,
      "##ingly": 4357,
      "shame": 4358,
      "flatter": 4359,
      "##rible": 4360,
      "prepared": 4361,
      "Boston": 4362,
      "##host": 4363,
      "Bene": 4364,
      "Sk": 4365,
      "unhappy": 4366,
      "prejud": 4367,
      "##ille": 4368,
      "goes": 4369,
      "satisfaction": 4370,
      "##ores": 4371,
      "March": 4372,
      "middle": 4373,
      "bodies": 4374,
      "goodness": 4375,
      "##aud": 4376,
      "forms": 4377,
      "tail": 4378,
      "##enes": 4379,
      "lear": 4380,
      "Form": 4381,
      "outward": 4382,
      "##ati": 4383,
      "Sum": 4384,
      "wide": 4385,
      "admit": 4386,
      "reve": 4387,
      "immediate": 4388,
      "sour": 4389,
      "admitted": 4390,
      "##ai": 4391,
      "possessed": 4392,
      "promised": 4393,
      "Indian": 4394,
      "Edward": 4395,
      "Spain": 4396,
      "Pol": 4397,
      "Pract": 4398,
      "Sun": 4399,
      "wel": 4400,
      "##iation": 4401,
      "contrib": 4402,
      "prefer": 4403,
      "conscience": 4404,
      "Knowledge": 4405,
      "##ateful": 4406,
      "displ": 4407,
      "##order": 4408,
      "plainly": 4409,
      "cand": 4410,
      "serious": 4411,
      "Service": 4412,
      "##ECT": 4413,
      "Answer": 4414,
      "Ins": 4415,
      "slight": 4416,
      "Virtue": 4417,
      "Parts": 4418,
      "escape": 4419,
      "##CE": 4420,
      "goods": 4421,
      "City": 4422,
      "..": 4423,
      "event": 4424,
      "##OV": 4425,
      "34": 4426,
      "Val": 4427,
      "##isted": 4428,
      "##itate": 4429,
      "ages": 4430,
      "acknowled": 4431,
      "CON": 4432,
      "Mus": 4433,
      "cou": 4434,
      "Prayer": 4435,
      "##rection": 4436,
      "depri": 4437,
      "preced": 4438,
      "imagine": 4439,
      "Prot": 4440,
      "thirty": 4441,
      "##orough": 4442,
      "repeated": 4443,
      "surpr": 4444,
      "Lat": 4445,
      "##TON": 4446,
      "trouble": 4447,
      "acquaint": 4448,
      "sorrow": 4449,
      "top": 4450,
      "pieces": 4451,
      "simple": 4452,
      "christian": 4453,
      "##erves": 4454,
      "published": 4455,
      "##rem": 4456,
      "##ica": 4457,
      "transp": 4458,
      "East": 4459,
      "usually": 4460,
      "follows": 4461,
      "road": 4462,
      "##cribe": 4463,
      "countries": 4464,
      "legisl": 4465,
      "Mal": 4466,
      "celebr": 4467,
      "individual": 4468,
      "figure": 4469,
      "tells": 4470,
      "Tur": 4471,
      "abund": 4472,
      "##come": 4473,
      "served": 4474,
      "resemb": 4475,
      "hardly": 4476,
      "amount": 4477,
      "##irac": 4478,
      "##aked": 4479,
      "Moses": 4480,
      "cost": 4481,
      "arts": 4482,
      "ge": 4483,
      "##ream": 4484,
      "distinguished": 4485,
      "servants": 4486,
      "spoke": 4487,
      "everlasting": 4488,
      "Under": 4489,
      "lust": 4490,
      "##know": 4491,
      "higher": 4492,
      "Ven": 4493,
      "bid": 4494,
      "fallen": 4495,
      "##using": 4496,
      "song": 4497,
      "SC": 4498,
      "##asing": 4499,
      "commission": 4500,
      "sink": 4501,
      "spect": 4502,
      "##rifice": 4503,
      "won": 4504,
      "independ": 4505,
      "Wife": 4506,
      "Interest": 4507,
      "##ifying": 4508,
      "extremely": 4509,
      "35": 4510,
      "adopt": 4511,
      "show": 4512,
      "Second": 4513,
      "books": 4514,
      "Wit": 4515,
      "rising": 4516,
      "##erd": 4517,
      "understanding": 4518,
      "conclude": 4519,
      "treated": 4520,
      "rage": 4521,
      "Judge": 4522,
      "sooner": 4523,
      "Nay": 4524,
      "##ensions": 4525,
      "disposition": 4526,
      "around": 4527,
      "roll": 4528,
      "Ang": 4529,
      "mill": 4530,
      "spr": 4531,
      "##amber": 4532,
      "Ath": 4533,
      "righteous": 4534,
      "Adam": 4535,
      "Arch": 4536,
      "arch": 4537,
      "agreed": 4538,
      "36": 4539,
      "righteousness": 4540,
      "heavy": 4541,
      "prepar": 4542,
      "Age": 4543,
      "##uls": 4544,
      "animals": 4545,
      "Bes": 4546,
      "bond": 4547,
      "diff": 4548,
      "sigh": 4549,
      "##uits": 4550,
      "##LY": 4551,
      "gather": 4552,
      "argument": 4553,
      "tyr": 4554,
      "divided": 4555,
      "shalt": 4556,
      "Bapt": 4557,
      "##chief": 4558,
      "class": 4559,
      "apt": 4560,
      "pa": 4561,
      "accordingly": 4562,
      "anx": 4563,
      "##pped": 4564,
      "material": 4565,
      "meant": 4566,
      "oft": 4567,
      "stat": 4568,
      "##like": 4569,
      "Dif": 4570,
      "thrown": 4571,
      "##ects": 4572,
      "exhib": 4573,
      "Add": 4574,
      "##orses": 4575,
      "##equ": 4576,
      "Af": 4577,
      "##ourney": 4578,
      "race": 4579,
      "rendered": 4580,
      "##CT": 4581,
      "Wind": 4582,
      "record": 4583,
      "##ici": 4584,
      "eld": 4585,
      "happen": 4586,
      "difficulty": 4587,
      "##orous": 4588,
      "##atory": 4589,
      "markup": 4590,
      "safety": 4591,
      "convey": 4592,
      "Crown": 4593,
      "price": 4594,
      "beat": 4595,
      "spot": 4596,
      "Heav": 4597,
      "Mess": 4598,
      "Indeed": 4599,
      "conversation": 4600,
      "speaks": 4601,
      "Bea": 4602,
      "dignity": 4603,
      "hot": 4604,
      "ange": 4605,
      "possibly": 4606,
      "##illing": 4607,
      "##uel": 4608,
      "non": 4609,
      "000": 4610,
      "storm": 4611,
      "Cf": 4612,
      "host": 4613,
      "Ret": 4614,
      "##onstr": 4615,
      "Have": 4616,
      "quiet": 4617,
      "merely": 4618,
      "finding": 4619,
      "names": 4620,
      "##igns": 4621,
      "unb": 4622,
      "vessels": 4623,
      "assured": 4624,
      "iv": 4625,
      "engage": 4626,
      "aston": 4627,
      "Fear": 4628,
      "compan": 4629,
      "brave": 4630,
      "disapp": 4631,
      "##ata": 4632,
      "##ufact": 4633,
      "confidence": 4634,
      "expressed": 4635,
      "removed": 4636,
      "propri": 4637,
      "ministers": 4638,
      "convinced": 4639,
      "176": 4640,
      "recon": 4641,
      "battle": 4642,
      "appoint": 4643,
      "rap": 4644,
      "patient": 4645,
      "empire": 4646,
      "Sil": 4647,
      "tongue": 4648,
      "Alm": 4649,
      "divers": 4650,
      "dying": 4651,
      "Province": 4652,
      "bosom": 4653,
      "##rav": 4654,
      "##to": 4655,
      "##othing": 4656,
      "hurt": 4657,
      "misery": 4658,
      "FR": 4659,
      "obedience": 4660,
      "parties": 4661,
      "##asters": 4662,
      "forbid": 4663,
      "Perf": 4664,
      "foundation": 4665,
      "marriage": 4666,
      "assistance": 4667,
      "abroad": 4668,
      "pict": 4669,
      "##ris": 4670,
      "maintain": 4671,
      "Ly": 4672,
      "Saints": 4673,
      "##aker": 4674,
      "hung": 4675,
      "looks": 4676,
      "reform": 4677,
      "##he": 4678,
      "##night": 4679,
      "progress": 4680,
      "birds": 4681,
      "eleg": 4682,
      "ignorant": 4683,
      "sex": 4684,
      "similar": 4685,
      "troub": 4686,
      "prec": 4687,
      "erect": 4688,
      "##iel": 4689,
      "consequently": 4690,
      "maid": 4691,
      "##ults": 4692,
      "lod": 4693,
      "##arp": 4694,
      "circum": 4695,
      "covenant": 4696,
      "##after": 4697,
      "Trade": 4698,
      "requires": 4699,
      "##mn": 4700,
      "trial": 4701,
      "female": 4702,
      "numbers": 4703,
      "measures": 4704,
      "special": 4705,
      "shut": 4706,
      "personal": 4707,
      "fancy": 4708,
      "pour": 4709,
      "devil": 4710,
      "##AB": 4711,
      "visible": 4712,
      "##ashion": 4713,
      "satisfied": 4714,
      "content": 4715,
      "earl": 4716,
      "##ication": 4717,
      "Nations": 4718,
      "grief": 4719,
      "suspect": 4720,
      "fever": 4721,
      "issue": 4722,
      "believed": 4723,
      "instances": 4724,
      "importance": 4725,
      "base": 4726,
      "virtues": 4727,
      "modern": 4728,
      "whereby": 4729,
      "wretched": 4730,
      "compass": 4731,
      "winter": 4732,
      "ded": 4733,
      "quality": 4734,
      "affirm": 4735,
      "circumstance": 4736,
      "opposite": 4737,
      "hair": 4738,
      "mountains": 4739,
      "insp": 4740,
      "province": 4741,
      "Ye": 4742,
      "Times": 4743,
      "##alem": 4744,
      "Lords": 4745,
      "Many": 4746,
      "##ctions": 4747,
      "quarter": 4748,
      "likely": 4749,
      "pains": 4750,
      "citizens": 4751,
      "##mber": 4752,
      "Whether": 4753,
      "##anny": 4754,
      "cha": 4755,
      "##empl": 4756,
      "double": 4757,
      "lat": 4758,
      "##atural": 4759,
      "Pope": 4760,
      "Brother": 4761,
      "hearing": 4762,
      "absurd": 4763,
      "Family": 4764,
      "##ELL": 4765,
      "##acious": 4766,
      "ban": 4767,
      "Mass": 4768,
      "##uable": 4769,
      "##na": 4770,
      "ships": 4771,
      "story": 4772,
      "directly": 4773,
      "existence": 4774,
      "##ulated": 4775,
      "LETTER": 4776,
      "Dutch": 4777,
      "cess": 4778,
      "guilt": 4779,
      "##edient": 4780,
      "throw": 4781,
      "Assembly": 4782,
      "VI": 4783,
      "clean": 4784,
      "##aration": 4785,
      "Mil": 4786,
      "Oct": 4787,
      "incons": 4788,
      "conceive": 4789,
      ".),": 4790,
      "refer": 4791,
      "##chant": 4792,
      "concerned": 4793,
      "knowing": 4794,
      "flour": 4795,
      "dism": 4796,
      "ordinary": 4797,
      "##aments": 4798,
      "stro": 4799,
      "singular": 4800,
      "glass": 4801,
      "silent": 4802,
      "mode": 4803,
      "lic": 4804,
      "Hell": 4805,
      "Society": 4806,
      "rules": 4807,
      "struck": 4808,
      "auth": 4809,
      "Did": 4810,
      "##version": 4811,
      "Wors": 4812,
      "dish": 4813,
      "renew": 4814,
      "Ext": 4815,
      "##ially": 4816,
      "creatures": 4817,
      "spec": 4818,
      "cure": 4819,
      "security": 4820,
      "sho": 4821,
      "complete": 4822,
      "sell": 4823,
      "relation": 4824,
      "sor": 4825,
      "##known": 4826,
      "tremb": 4827,
      "Jac": 4828,
      "Lin": 4829,
      "precious": 4830,
      "##ading": 4831,
      "pretend": 4832,
      "deed": 4833,
      "##erity": 4834,
      "described": 4835,
      "prosper": 4836,
      "somewh": 4837,
      "ago": 4838,
      "union": 4839,
      "##leness": 4840,
      "##omach": 4841,
      "Rule": 4842,
      "RE": 4843,
      "Ho": 4844,
      "etc": 4845,
      "fee": 4846,
      "##arest": 4847,
      "Conc": 4848,
      "##gypt": 4849,
      "##itor": 4850,
      "##get": 4851,
      "##isp": 4852,
      "##ieve": 4853,
      "##aging": 4854,
      "destruction": 4855,
      "##ril": 4856,
      "silver": 4857,
      "Penn": 4858,
      "##rief": 4859,
      "punish": 4860,
      "sufficiently": 4861,
      "##istration": 4862,
      "zeal": 4863,
      "freely": 4864,
      "undert": 4865,
      "##ARD": 4866,
      "stop": 4867,
      "##ering": 4868,
      "parents": 4869,
      "pron": 4870,
      "ny": 4871,
      "ON": 4872,
      "swell": 4873,
      "medi": 4874,
      "##for": 4875,
      "##ibus": 4876,
      "River": 4877,
      "bottom": 4878,
      "cultiv": 4879,
      "absolutely": 4880,
      "grad": 4881,
      "monarch": 4882,
      "represented": 4883,
      "##PH": 4884,
      "crim": 4885,
      "commanded": 4886,
      "##inity": 4887,
      "Mother": 4888,
      "##king": 4889,
      "crit": 4890,
      "advanced": 4891,
      "##ov": 4892,
      "Hope": 4893,
      "37": 4894,
      "commerce": 4895,
      "seat": 4896,
      "courage": 4897,
      "gentlemen": 4898,
      "Lu": 4899,
      "heads": 4900,
      "reasonable": 4901,
      "ner": 4902,
      "##iant": 4903,
      "Again": 4904,
      "##eter": 4905,
      "Poet": 4906,
      "reader": 4907,
      "Eph": 4908,
      "description": 4909,
      "succeeded": 4910,
      "loved": 4911,
      "##cel": 4912,
      "probable": 4913,
      "humb": 4914,
      "##ositions": 4915,
      "##ishops": 4916,
      "heavenly": 4917,
      "##ustrious": 4918,
      "Corn": 4919,
      "Method": 4920,
      "prayer": 4921,
      "Ir": 4922,
      "school": 4923,
      "loud": 4924,
      "mat": 4925,
      "il": 4926,
      "miserable": 4927,
      "wear": 4928,
      "ward": 4929,
      "interp": 4930,
      "opposition": 4931,
      "wrath": 4932,
      "Offic": 4933,
      "spo": 4934,
      "midst": 4935,
      "sanct": 4936,
      "joined": 4937,
      "##de": 4938,
      "stock": 4939,
      "Tri": 4940,
      "prospect": 4941,
      "rate": 4942,
      "chap": 4943,
      "Happ": 4944,
      "vir": 4945,
      "##quiry": 4946,
      "nay": 4947,
      "forty": 4948,
      "##ilities": 4949,
      "benefit": 4950,
      "liqu": 4951,
      "Bus": 4952,
      "50": 4953,
      "narrow": 4954,
      "fulf": 4955,
      "yellow": 4956,
      "apart": 4957,
      "##iast": 4958,
      "##unk": 4959,
      "Deb": 4960,
      "##idity": 4961,
      "##iling": 4962,
      "degrees": 4963,
      "nine": 4964,
      "ber": 4965,
      "excess": 4966,
      "Angels": 4967,
      "rever": 4968,
      "Till": 4969,
      "broke": 4970,
      "succ": 4971,
      "##aped": 4972,
      "##rary": 4973,
      "##ivity": 4974,
      "violence": 4975,
      "Take": 4976,
      "Paris": 4977,
      "silence": 4978,
      "##UN": 4979,
      "##uris": 4980,
      "flu": 4981,
      "Dec": 4982,
      "slow": 4983,
      "rs": 4984,
      "Ire": 4985,
      "advice": 4986,
      "##bur": 4987,
      "reduced": 4988,
      "key": 4989,
      "rend": 4990,
      "wrought": 4991,
      "##rop": 4992,
      "##ustry": 4993,
      "broad": 4994,
      "##itherto": 4995,
      "points": 4996,
      "Conscience": 4997,
      "Mankind": 4998,
      "remove": 4999,
      "Parent": 5000,
      "##icy": 5001,
      "benev": 5002,
      "Brethren": 5003,
      "political": 5004,
      "military": 5005,
      "Bottum": 5006,
      "spent": 5007,
      "Doctor": 5008,
      "bishop": 5009,
      "##eding": 5010,
      "treaty": 5011,
      "unknown": 5012,
      "##ENE": 5013,
      "##respond": 5014,
      "Preach": 5015,
      "Bell": 5016,
      "##oration": 5017,
      "reasons": 5018,
      "Sept": 5019,
      "##field": 5020,
      "contained": 5021,
      "infl": 5022,
      "forgot": 5023,
      "XX": 5024,
      "portion": 5025,
      "Ghost": 5026,
      "##onel": 5027,
      "Excell": 5028,
      "stra": 5029,
      "surpri": 5030,
      "cens": 5031,
      "destroyed": 5032,
      "pointed": 5033,
      "View": 5034,
      "aid": 5035,
      "unp": 5036,
      "##alty": 5037,
      "sole": 5038,
      "submit": 5039,
      "ridic": 5040,
      "Affect": 5041,
      "neck": 5042,
      "Number": 5043,
      "##ortal": 5044,
      "Royal": 5045,
      "bitter": 5046,
      "Mount": 5047,
      "Office": 5048,
      "fourth": 5049,
      "Virgin": 5050,
      "presented": 5051,
      "suit": 5052,
      "Bishop": 5053,
      "##alm": 5054,
      "performed": 5055,
      "darkness": 5056,
      "refuse": 5057,
      "innocent": 5058,
      "##anches": 5059,
      "Character": 5060,
      "inward": 5061,
      "display": 5062,
      "slaves": 5063,
      "Woman": 5064,
      "views": 5065,
      "shewn": 5066,
      "Bec": 5067,
      "sovereign": 5068,
      "##itled": 5069,
      "incon": 5070,
      "Besides": 5071,
      "Pleasure": 5072,
      "charms": 5073,
      "Worship": 5074,
      "pious": 5075,
      "##rose": 5076,
      "##ustr": 5077,
      "ends": 5078,
      "national": 5079,
      "colonies": 5080,
      "looking": 5081,
      "##ertaining": 5082,
      "##ding": 5083,
      "Common": 5084,
      "substance": 5085,
      "Cam": 5086,
      "##ccles": 5087,
      "Deg": 5088,
      "boast": 5089,
      "fil": 5090,
      "##estic": 5091,
      "Mac": 5092,
      "##erted": 5093,
      "fifty": 5094,
      "shou": 5095,
      "Lab": 5096,
      "study": 5097,
      "##kes": 5098,
      "##uary": 5099,
      "##ancholy": 5100,
      "fro": 5101,
      "countenance": 5102,
      "##ester": 5103,
      "Rest": 5104,
      "Ter": 5105,
      "Jan": 5106,
      "##aff": 5107,
      "learning": 5108,
      "Dep": 5109,
      "recoll": 5110,
      "jealous": 5111,
      "##ege": 5112,
      "##eek": 5113,
      "promote": 5114,
      "##ifts": 5115,
      "persec": 5116,
      "Leg": 5117,
      "Ten": 5118,
      "Treat": 5119,
      "##lt": 5120,
      "articles": 5121,
      "trif": 5122,
      "July": 5123,
      "##ERE": 5124,
      "leaving": 5125,
      "disposed": 5126,
      "lines": 5127,
      "hereafter": 5128,
      "iron": 5129,
      "##cent": 5130,
      "exposed": 5131,
      "##olved": 5132,
      "June": 5133,
      "Sinners": 5134,
      "contri": 5135,
      "virtuous": 5136,
      "Gold": 5137,
      ",)": 5138,
      "surr": 5139,
      "Eliz": 5140,
      "Richard": 5141,
      "AR": 5142,
      "sev": 5143,
      "Air": 5144,
      "Conv": 5145,
      "readily": 5146,
      "##claim": 5147,
      "lawful": 5148,
      "bank": 5149,
      "Opinion": 5150,
      "Cast": 5151,
      "mourn": 5152,
      "sple": 5153,
      "acted": 5154,
      "Servant": 5155,
      "fears": 5156,
      "Enemies": 5157,
      "compreh": 5158,
      "impart": 5159,
      "size": 5160,
      "Arms": 5161,
      "Sent": 5162,
      "acknowledge": 5163,
      "nour": 5164,
      "##osp": 5165,
      "Rh": 5166,
      "##usted": 5167,
      "Egypt": 5168,
      "##ATE": 5169,
      "kinds": 5170,
      "prim": 5171,
      "designed": 5172,
      "Gentlemen": 5173,
      "Abra": 5174,
      "##itute": 5175,
      "remained": 5176,
      "forced": 5177,
      "Hel": 5178,
      "##ervation": 5179,
      "Neg": 5180,
      "west": 5181,
      "##icles": 5182,
      "active": 5183,
      "error": 5184,
      "Sure": 5185,
      "Pen": 5186,
      "Fig": 5187,
      "actually": 5188,
      "belonging": 5189,
      "##OUS": 5190,
      "determine": 5191,
      "Bot": 5192,
      "liter": 5193,
      "somewhat": 5194,
      "advantages": 5195,
      "DE": 5196,
      "nav": 5197,
      "male": 5198,
      "Gentleman": 5199,
      "supported": 5200,
      "Fort": 5201,
      "##IF": 5202,
      "##idel": 5203,
      "science": 5204,
      "AM": 5205,
      "38": 5206,
      "perish": 5207,
      "Note": 5208,
      "du": 5209,
      "##way": 5210,
      "bind": 5211,
      "##illings": 5212,
      "folly": 5213,
      "consists": 5214,
      "##ignation": 5215,
      "##inations": 5216,
      "Call": 5217,
      "shews": 5218,
      "##rs": 5219,
      "Meet": 5220,
      "calm": 5221,
      "gay": 5222,
      "April": 5223,
      "##ixt": 5224,
      "Appe": 5225,
      "unjust": 5226,
      "killed": 5227,
      "BUT": 5228,
      "note": 5229,
      "##omb": 5230,
      "##cipl": 5231,
      "##bury": 5232,
      "pleasant": 5233,
      "sought": 5234,
      "whatsoever": 5235,
      "space": 5236,
      "##ulate": 5237,
      "EN": 5238,
      "tin": 5239,
      "brings": 5240,
      "Ber": 5241,
      "Minister": 5242,
      "Suff": 5243,
      "News": 5244,
      "correct": 5245,
      "mutual": 5246,
      "Nothing": 5247,
      "chance": 5248,
      "vile": 5249,
      "refused": 5250,
      "Di": 5251,
      "pretended": 5252,
      "##rid": 5253,
      "hitherto": 5254,
      "fors": 5255,
      "barbar": 5256,
      "pronoun": 5257,
      "wished": 5258,
      "resolution": 5259,
      "##ih": 5260,
      "beneath": 5261,
      "##ority": 5262,
      "Mur": 5263,
      "hat": 5264,
      "wings": 5265,
      "##ctrines": 5266,
      "confined": 5267,
      "39": 5268,
      "Som": 5269,
      "loose": 5270,
      "trem": 5271,
      "Ireland": 5272,
      "##uries": 5273,
      "direction": 5274,
      "Like": 5275,
      "article": 5276,
      "brethren": 5277,
      "sugg": 5278,
      "extensive": 5279,
      "Satan": 5280,
      "hell": 5281,
      "##ternity": 5282,
      "hero": 5283,
      "characters": 5284,
      "Almighty": 5285,
      "gar": 5286,
      "lovely": 5287,
      "ingen": 5288,
      "clearly": 5289,
      "introduced": 5290,
      "fashion": 5291,
      "created": 5292,
      "scarcely": 5293,
      "ran": 5294,
      "apparent": 5295,
      "##olly": 5296,
      "purposes": 5297,
      "Lear": 5298,
      "composed": 5299,
      "pot": 5300,
      "Scriptures": 5301,
      "##CC": 5302,
      "Success": 5303,
      "education": 5304,
      "solid": 5305,
      "cool": 5306,
      "transl": 5307,
      "Happiness": 5308,
      "sinners": 5309,
      "train": 5310,
      "arr": 5311,
      "pursue": 5312,
      "BE": 5313,
      "Milton": 5314,
      "Jacob": 5315,
      "SH": 5316,
      "##..": 5317,
      "reproach": 5318,
      "speech": 5319,
      "verse": 5320,
      "week": 5321,
      "thinking": 5322,
      "valuable": 5323,
      "mortal": 5324,
      "##uting": 5325,
      "Strength": 5326,
      "evid": 5327,
      "##gments": 5328,
      "##uge": 5329,
      "disturb": 5330,
      "dig": 5331,
      "##sp": 5332,
      "drew": 5333,
      "##geance": 5334,
      "proceeded": 5335,
      "protection": 5336,
      "##ST": 5337,
      "Mor": 5338,
      "essential": 5339,
      "Exec": 5340,
      "external": 5341,
      "expence": 5342,
      "obsc": 5343,
      "##agues": 5344,
      "bare": 5345,
      "dur": 5346,
      "Young": 5347,
      "##eration": 5348,
      "gratitude": 5349,
      "##arsh": 5350,
      "passing": 5351,
      "distinction": 5352,
      "blessing": 5353,
      "Occasion": 5354,
      "Four": 5355,
      "interrupt": 5356,
      "worst": 5357,
      "Exit": 5358,
      "horses": 5359,
      "alive": 5360,
      "wound": 5361,
      "##BER": 5362,
      "Cle": 5363,
      "compar": 5364,
      "Because": 5365,
      "Mem": 5366,
      "whereas": 5367,
      "sust": 5368,
      "Business": 5369,
      "mild": 5370,
      "Long": 5371,
      "1st": 5372,
      "##ogether": 5373,
      "##gan": 5374,
      "misf": 5375,
      "##adel": 5376,
      "discern": 5377,
      "Serm": 5378,
      "Congress": 5379,
      "plaintiff": 5380,
      "##ierce": 5381,
      "Sim": 5382,
      "Apostles": 5383,
      "##nex": 5384,
      "##akers": 5385,
      "ning": 5386,
      "Post": 5387,
      "Purp": 5388,
      "mass": 5389,
      "wanted": 5390,
      "Inh": 5391,
      "brown": 5392,
      "occasions": 5393,
      "Ben": 5394,
      "Its": 5395,
      "perceive": 5396,
      "relief": 5397,
      "salt": 5398,
      "ascend": 5399,
      "request": 5400,
      "Each": 5401,
      "##van": 5402,
      "belo": 5403,
      "plead": 5404,
      "##EW": 5405,
      "##ett": 5406,
      "eager": 5407,
      "inferior": 5408,
      "Bay": 5409,
      "Glo": 5410,
      "##iol": 5411,
      "sentence": 5412,
      "altogether": 5413,
      "lament": 5414,
      "intention": 5415,
      "text": 5416,
      "ties": 5417,
      "journey": 5418,
      "weep": 5419,
      "175": 5420,
      "JES": 5421,
      "Thoughts": 5422,
      "dict": 5423,
      "coast": 5424,
      "path": 5425,
      "start": 5426,
      "famous": 5427,
      "Servants": 5428,
      "despair": 5429,
      "counsel": 5430,
      "reck": 5431,
      "needs": 5432,
      "occur": 5433,
      "##urrection": 5434,
      "conceal": 5435,
      "courts": 5436,
      "##rup": 5437,
      "Obedience": 5438,
      "Favour": 5439,
      "Dece": 5440,
      "wishes": 5441,
      "gross": 5442,
      "skill": 5443,
      "indif": 5444,
      "medic": 5445,
      "Abraham": 5446,
      "ral": 5447,
      "affections": 5448,
      "##yn": 5449,
      "marry": 5450,
      "legal": 5451,
      "reading": 5452,
      "distinguish": 5453,
      "member": 5454,
      "sand": 5455,
      "preserved": 5456,
      "rational": 5457,
      "##usalem": 5458,
      "More": 5459,
      "vern": 5460,
      "fel": 5461,
      "##umes": 5462,
      "tim": 5463,
      "girl": 5464,
      "rare": 5465,
      "##liness": 5466,
      "constantly": 5467,
      "##oseph": 5468,
      "condemn": 5469,
      "174": 5470,
      "Gal": 5471,
      "images": 5472,
      "Ann": 5473,
      "Christianity": 5474,
      "mand": 5475,
      "##aming": 5476,
      "thinks": 5477,
      "ta": 5478,
      "Sal": 5479,
      "awful": 5480,
      "Should": 5481,
      "hor": 5482,
      "##ections": 5483,
      "Ill": 5484,
      "betray": 5485,
      "addition": 5486,
      "deserve": 5487,
      "accident": 5488,
      "Face": 5489,
      "cease": 5490,
      "liable": 5491,
      "##itious": 5492,
      "##OND": 5493,
      "Found": 5494,
      "Practice": 5495,
      "saving": 5496,
      "summ": 5497,
      "JO": 5498,
      "continually": 5499,
      ").": 5500,
      "surface": 5501,
      "instrument": 5502,
      "moved": 5503,
      "conversion": 5504,
      "ine": 5505,
      "lux": 5506,
      "##RI": 5507,
      "##bation": 5508,
      "Estate": 5509,
      "Fru": 5510,
      "Ox": 5511,
      "capital": 5512,
      "##SE": 5513,
      "east": 5514,
      "smo": 5515,
      "`,": 5516,
      "printed": 5517,
      "##arged": 5518,
      "advance": 5519,
      "ladies": 5520,
      "dimin": 5521,
      "Consequ": 5522,
      "instant": 5523,
      "Youth": 5524,
      "writers": 5525,
      "Dam": 5526,
      "resent": 5527,
      "White": 5528,
      "Repent": 5529,
      "##lor": 5530,
      "##join": 5531,
      "##ifies": 5532,
      "pleasures": 5533,
      "operation": 5534,
      "Tra": 5535,
      "hap": 5536,
      "county": 5537,
      "merc": 5538,
      "churches": 5539,
      "contro": 5540,
      "##ously": 5541,
      "HE": 5542,
      "inher": 5543,
      "Spirits": 5544,
      "necessarily": 5545,
      "##racted": 5546,
      "Amb": 5547,
      "41": 5548,
      "terrible": 5549,
      "correspond": 5550,
      "##ville": 5551,
      "occasioned": 5552,
      "Term": 5553,
      "##entions": 5554,
      "weather": 5555,
      "hill": 5556,
      "ears": 5557,
      "contrad": 5558,
      "wo": 5559,
      "JESUS": 5560,
      "celebrated": 5561,
      "patri": 5562,
      "Sold": 5563,
      "Yea": 5564,
      "Syn": 5565,
      "march": 5566,
      "Mid": 5567,
      "extent": 5568,
      "Point": 5569,
      "##inces": 5570,
      "Dire": 5571,
      "increased": 5572,
      "Dem": 5573,
      "##vious": 5574,
      "occup": 5575,
      "2d": 5576,
      "aud": 5577,
      "Places": 5578,
      "keeping": 5579,
      "##ciences": 5580,
      "##ublic": 5581,
      "assemb": 5582,
      "Pain": 5583,
      "separate": 5584,
      "Design": 5585,
      "Morning": 5586,
      "##icity": 5587,
      "discourse": 5588,
      "unfortun": 5589,
      "observation": 5590,
      "##EST": 5591,
      "County": 5592,
      "lying": 5593,
      "waters": 5594,
      "ris": 5595,
      "accompan": 5596,
      "calcul": 5597,
      "summer": 5598,
      "wonderful": 5599,
      "ibid": 5600,
      "Che": 5601,
      "##ressions": 5602,
      "skin": 5603,
      "rent": 5604,
      "##lest": 5605,
      "##yle": 5606,
      "inches": 5607,
      "fault": 5608,
      "Flesh": 5609,
      "##cean": 5610,
      "sharp": 5611,
      "Mart": 5612,
      "memory": 5613,
      "##ology": 5614,
      "conscious": 5615,
      "faint": 5616,
      "amaz": 5617,
      "Fore": 5618,
      "##kin": 5619,
      "shine": 5620,
      "chuse": 5621,
      "deem": 5622,
      "favor": 5623,
      "related": 5624,
      "Since": 5625,
      "ss": 5626,
      "steps": 5627,
      "##raph": 5628,
      "Holl": 5629,
      "##iced": 5630,
      "##uation": 5631,
      "##inth": 5632,
      "Chief": 5633,
      "events": 5634,
      "Job": 5635,
      "Respect": 5636,
      "crime": 5637,
      "Joseph": 5638,
      "writer": 5639,
      "governor": 5640,
      "Principles": 5641,
      "uncle": 5642,
      "soldiers": 5643,
      "testimony": 5644,
      "Eye": 5645,
      "source": 5646,
      "Qual": 5647,
      "amuse": 5648,
      "Six": 5649,
      "eminent": 5650,
      "Ha": 5651,
      "manufact": 5652,
      "music": 5653,
      "wants": 5654,
      "Three": 5655,
      "seed": 5656,
      "street": 5657,
      "changed": 5658,
      "simp": 5659,
      "officer": 5660,
      "fund": 5661,
      "##oked": 5662,
      "##licit": 5663,
      "Mel": 5664,
      "cord": 5665,
      "behaviour": 5666,
      "THIS": 5667,
      "Ground": 5668,
      "expression": 5669,
      "weakness": 5670,
      "cell": 5671,
      "turning": 5672,
      "##itated": 5673,
      "##oyage": 5674,
      "##otes": 5675,
      "##itto": 5676,
      "prepare": 5677,
      "owing": 5678,
      "##soci": 5679,
      "melancholy": 5680,
      "##lin": 5681,
      "Ibid": 5682,
      "splend": 5683,
      "assembly": 5684,
      "twice": 5685,
      "delay": 5686,
      "falls": 5687,
      "Commission": 5688,
      "curious": 5689,
      "rig": 5690,
      "##etr": 5691,
      "foolish": 5692,
      "Black": 5693,
      "application": 5694,
      "##ception": 5695,
      "mirac": 5696,
      "##estions": 5697,
      "##umstances": 5698,
      "profession": 5699,
      "examine": 5700,
      "lively": 5701,
      "obli": 5702,
      "Poor": 5703,
      "imagination": 5704,
      "mountain": 5705,
      "hide": 5706,
      "whereof": 5707,
      "##ANT": 5708,
      "opinions": 5709,
      "discharge": 5710,
      "Afric": 5711,
      "supreme": 5712,
      "India": 5713,
      "procure": 5714,
      "pear": 5715,
      "Necess": 5716,
      "##icated": 5717,
      "frame": 5718,
      "retreat": 5719,
      "aim": 5720,
      "##cest": 5721,
      "Alexander": 5722,
      "Ele": 5723,
      "Subjects": 5724,
      "scenes": 5725,
      "thin": 5726,
      "adorn": 5727,
      "stage": 5728,
      "facts": 5729,
      "scripture": 5730,
      "Condition": 5731,
      "consequences": 5732,
      "kings": 5733,
      "##olent": 5734,
      "accomplish": 5735,
      "Hall": 5736,
      "star": 5737,
      "##iform": 5738,
      "totally": 5739,
      "Pow": 5740,
      "ib": 5741,
      "exactly": 5742,
      "cra": 5743,
      "oppose": 5744,
      "##emption": 5745,
      "Greek": 5746,
      "withd": 5747,
      "conform": 5748,
      "hate": 5749,
      "stranger": 5750,
      "throughout": 5751,
      "seized": 5752,
      "Whose": 5753,
      "##OG": 5754,
      "##RY": 5755,
      "blow": 5756,
      "Self": 5757,
      "tear": 5758,
      "171": 5759,
      "##HN": 5760,
      "grew": 5761,
      "##abeth": 5762,
      "FOR": 5763,
      "##diction": 5764,
      "alas": 5765,
      "##asc": 5766,
      "forb": 5767,
      "check": 5768,
      "Na": 5769,
      "##ef": 5770,
      "##ender": 5771,
      "project": 5772,
      "##lling": 5773,
      "exal": 5774,
      "camp": 5775,
      "##igent": 5776,
      "named": 5777,
      "Another": 5778,
      "hid": 5779,
      "infinitely": 5780,
      "sacrifice": 5781,
      "##ua": 5782,
      "##usive": 5783,
      "beloved": 5784,
      "reply": 5785,
      "tum": 5786,
      "##izing": 5787,
      "mistaken": 5788,
      "bestow": 5789,
      "Would": 5790,
      "protect": 5791,
      "Romans": 5792,
      "Dear": 5793,
      "##etic": 5794,
      "root": 5795,
      "excuse": 5796,
      "calling": 5797,
      "impr": 5798,
      "feelings": 5799,
      "amiable": 5800,
      "shed": 5801,
      "42": 5802,
      "wid": 5803,
      "Grand": 5804,
      "catch": 5805,
      "positive": 5806,
      "ons": 5807,
      "castle": 5808,
      "Constitution": 5809,
      "complain": 5810,
      "Key": 5811,
      "Neighb": 5812,
      "big": 5813,
      "Month": 5814,
      "prevailed": 5815,
      "##INE": 5816,
      "blessings": 5817,
      "endeavoured": 5818,
      "Jerusalem": 5819,
      ",'": 5820,
      "##poc": 5821,
      "permitted": 5822,
      "##phia": 5823,
      "##ulties": 5824,
      "##ds": 5825,
      "suitable": 5826,
      "falling": 5827,
      "fright": 5828,
      "Elect": 5829,
      "recommend": 5830,
      "miss": 5831,
      "##icle": 5832,
      "intim": 5833,
      "Protest": 5834,
      "Sen": 5835,
      "affair": 5836,
      "Dev": 5837,
      "yours": 5838,
      "SIR": 5839,
      "Force": 5840,
      "confusion": 5841,
      "Goodness": 5842,
      "XV": 5843,
      "Ham": 5844,
      "orn": 5845,
      "Philadel": 5846,
      "##mph": 5847,
      "bore": 5848,
      "##eries": 5849,
      "pul": 5850,
      "physic": 5851,
      "##sect": 5852,
      "##rip": 5853,
      "scorn": 5854,
      "wash": 5855,
      "ball": 5856,
      "rect": 5857,
      "persuaded": 5858,
      "payment": 5859,
      "##abled": 5860,
      "condemned": 5861,
      "fortun": 5862,
      "heir": 5863,
      "plants": 5864,
      "bringing": 5865,
      "majesty": 5866,
      "Inv": 5867,
      "Creatures": 5868,
      "running": 5869,
      "##ara": 5870,
      "derived": 5871,
      "OR": 5872,
      "vb": 5873,
      "Behold": 5874,
      "##acle": 5875,
      "Pride": 5876,
      "45": 5877,
      "stir": 5878,
      "strongly": 5879,
      "purchase": 5880,
      "Ty": 5881,
      ".;": 5882,
      "##umn": 5883,
      "##ancing": 5884,
      "Lou": 5885,
      "ignorance": 5886,
      "suddenly": 5887,
      "Benef": 5888,
      "Lordship": 5889,
      "pit": 5890,
      "shewed": 5891,
      "Daughter": 5892,
      "Jul": 5893,
      "Turn": 5894,
      "##ittee": 5895,
      "considering": 5896,
      "ambition": 5897,
      "Holiness": 5898,
      "station": 5899,
      "Princip": 5900,
      "instantly": 5901,
      "prevented": 5902,
      "confirmed": 5903,
      "void": 5904,
      "##velation": 5905,
      "##cipline": 5906,
      "process": 5907,
      "44": 5908,
      "##aughters": 5909,
      "SCENE": 5910,
      "sees": 5911,
      "vanity": 5912,
      "forest": 5913,
      "upper": 5914,
      "##uding": 5915,
      "Commun": 5916,
      "##ensation": 5917,
      "##osal": 5918,
      "marks": 5919,
      "##IX": 5920,
      "clergy": 5921,
      "##ama": 5922,
      "shock": 5923,
      "##iring": 5924,
      "pale": 5925,
      "hall": 5926,
      "chamber": 5927,
      "Ess": 5928,
      "##uns": 5929,
      "branch": 5930,
      "unre": 5931,
      "Look": 5932,
      "partial": 5933,
      "extend": 5934,
      "retire": 5935,
      "Alas": 5936,
      "band": 5937,
      "queen": 5938,
      "soil": 5939,
      "respective": 5940,
      "uncertain": 5941,
      "Ship": 5942,
      "griev": 5943,
      "kindness": 5944,
      "permit": 5945,
      "putting": 5946,
      "##ture": 5947,
      "##ora": 5948,
      "Luke": 5949,
      "mistake": 5950,
      "Cre": 5951,
      "MAR": 5952,
      "##set": 5953,
      "##ubb": 5954,
      "wounded": 5955,
      "99": 5956,
      "subl": 5957,
      "##change": 5958,
      "Bed": 5959,
      "din": 5960,
      "##ieu": 5961,
      "sider": 5962,
      "cerem": 5963,
      "##adow": 5964,
      "Ministry": 5965,
      "Hom": 5966,
      "##retch": 5967,
      "defe": 5968,
      "leads": 5969,
      "##oting": 5970,
      "report": 5971,
      "##otions": 5972,
      "contain": 5973,
      "WE": 5974,
      "perceived": 5975,
      "industry": 5976,
      "extended": 5977,
      "Parents": 5978,
      "Among": 5979,
      "collect": 5980,
      "##others": 5981,
      "branches": 5982,
      "assure": 5983,
      "Letters": 5984,
      "angry": 5985,
      "fun": 5986,
      "que": 5987,
      "perfection": 5988,
      "##ula": 5989,
      "scheme": 5990,
      "humanity": 5991,
      "flo": 5992,
      "tried": 5993,
      "stomach": 5994,
      "##ols": 5995,
      "Cred": 5996,
      "Compl": 5997,
      "stream": 5998,
      "feeling": 5999,
      "##ems": 6000,
      "chear": 6001,
      "policy": 6002,
      "Mod": 6003,
      "Samuel": 6004,
      "guide": 6005,
      "spend": 6006,
      "forever": 6007,
      "qualities": 6008,
      "venture": 6009,
      "information": 6010,
      "corp": 6011,
      "imperf": 6012,
      "##hib": 6013,
      "turns": 6014,
      "vul": 6015,
      "Before": 6016,
      "fet": 6017,
      "PH": 6018,
      "naked": 6019,
      "Conduct": 6020,
      "BR": 6021,
      "accounts": 6022,
      "aband": 6023,
      "bell": 6024,
      "##toms": 6025,
      "##anqu": 6026,
      "hab": 6027,
      "wanting": 6028,
      "##rence": 6029,
      "##AST": 6030,
      "##atus": 6031,
      "blame": 6032,
      "Alb": 6033,
      "uneas": 6034,
      "##ampled": 6035,
      "careful": 6036,
      "motives": 6037,
      "begins": 6038,
      "judges": 6039,
      "burst": 6040,
      "Ru": 6041,
      "##ros": 6042,
      "mess": 6043,
      "larger": 6044,
      "charged": 6045,
      "ence": 6046,
      "ic": 6047,
      "carrying": 6048,
      "crimes": 6049,
      "JOHN": 6050,
      "Gall": 6051,
      "caused": 6052,
      "Carol": 6053,
      "duke": 6054,
      "##amples": 6055,
      "wall": 6056,
      "Mont": 6057,
      "fruits": 6058,
      "exceeding": 6059,
      "##orum": 6060,
      "opening": 6061,
      "##OC": 6062,
      "##theless": 6063,
      "##orthy": 6064,
      "towns": 6065,
      "shr": 6066,
      "grown": 6067,
      "##ox": 6068,
      "##alog": 6069,
      "##sell": 6070,
      "infant": 6071,
      "acquired": 6072,
      "vine": 6073,
      "##ads": 6074,
      "Belie": 6075,
      "feed": 6076,
      "Langu": 6077,
      "##bour": 6078,
      "Were": 6079,
      "##icate": 6080,
      "compared": 6081,
      "shade": 6082,
      "prosec": 6083,
      "disorder": 6084,
      "Creature": 6085,
      "##edge": 6086,
      "marked": 6087,
      "Bet": 6088,
      "warrant": 6089,
      "encre": 6090,
      "haz": 6091,
      "##asp": 6092,
      "connected": 6093,
      "##roach": 6094,
      "smile": 6095,
      "elev": 6096,
      "curs": 6097,
      "pull": 6098,
      "strike": 6099,
      "##embers": 6100,
      "meer": 6101,
      "riches": 6102,
      "setting": 6103,
      "Sight": 6104,
      "Poss": 6105,
      "##seless": 6106,
      "Dark": 6107,
      "Women": 6108,
      "##uity": 6109,
      "Cath": 6110,
      "ance": 6111,
      "families": 6112,
      "arguments": 6113,
      "43": 6114,
      "sinful": 6115,
      "garden": 6116,
      "furnished": 6117,
      "Enemy": 6118,
      "Dom": 6119,
      "Voice": 6120,
      "neglected": 6121,
      "Beauty": 6122,
      "Husband": 6123,
      "##ITH": 6124,
      "##avery": 6125,
      "Pun": 6126,
      "wards": 6127,
      "cod": 6128,
      "weigh": 6129,
      "Side": 6130,
      "rain": 6131,
      "sunk": 6132,
      "au": 6133,
      "Fathers": 6134,
      "Lands": 6135,
      "preached": 6136,
      "##uance": 6137,
      "acting": 6138,
      "Massach": 6139,
      "hereby": 6140,
      "shell": 6141,
      "forgive": 6142,
      "desires": 6143,
      "ordin": 6144,
      "madam": 6145,
      "Philadelphia": 6146,
      "sorry": 6147,
      "suffering": 6148,
      "##sey": 6149,
      "quit": 6150,
      "Never": 6151,
      "interests": 6152,
      "veget": 6153,
      "##pherd": 6154,
      "IS": 6155,
      "building": 6156,
      "tow": 6157,
      "Question": 6158,
      "trembling": 6159,
      "explain": 6160,
      "Sons": 6161,
      "profit": 6162,
      "volunt": 6163,
      "##aved": 6164,
      "yourselves": 6165,
      "agre": 6166,
      "Fair": 6167,
      "immortal": 6168,
      "seal": 6169,
      "remedy": 6170,
      "walls": 6171,
      "defendant": 6172,
      "fled": 6173,
      "##erving": 6174,
      "##atures": 6175,
      "Perhaps": 6176,
      "cheer": 6177,
      "Danger": 6178,
      "Feb": 6179,
      "tur": 6180,
      "##ERM": 6181,
      "woods": 6182,
      "clock": 6183,
      "rejoice": 6184,
      "##umption": 6185,
      "unex": 6186,
      "Lives": 6187,
      "quickly": 6188,
      "max": 6189,
      "noise": 6190,
      "toler": 6191,
      "charter": 6192,
      "patience": 6193,
      "Sover": 6194,
      "finished": 6195,
      "forfe": 6196,
      "effectual": 6197,
      "Italy": 6198,
      "TR": 6199,
      "receiving": 6200,
      "##geon": 6201,
      "Philip": 6202,
      "Elizabeth": 6203,
      "attempted": 6204,
      "##istle": 6205,
      "##rog": 6206,
      "Boy": 6207,
      "prey": 6208,
      "##itudes": 6209,
      "opposed": 6210,
      "flowers": 6211,
      "pose": 6212,
      "Pop": 6213,
      "fi": 6214,
      "esteemed": 6215,
      "arose": 6216,
      "asham": 6217,
      "instit": 6218,
      "Blessed": 6219,
      "hoped": 6220,
      "utterly": 6221,
      "THAT": 6222,
      "concluded": 6223,
      "CHAR": 6224,
      "cy": 6225,
      "ling": 6226,
      "grateful": 6227,
      "offence": 6228,
      "excite": 6229,
      "##ma": 6230,
      "bra": 6231,
      "Past": 6232,
      "##ALL": 6233,
      "##ATH": 6234,
      "executed": 6235,
      "mischief": 6236,
      "sheep": 6237,
      "concur": 6238,
      "magistr": 6239,
      "result": 6240,
      "##idelity": 6241,
      "wing": 6242,
      "##pent": 6243,
      "##con": 6244,
      "plea": 6245,
      "fields": 6246,
      "Mort": 6247,
      "terror": 6248,
      "denied": 6249,
      "##iosity": 6250,
      "Course": 6251,
      "kiss": 6252,
      "begun": 6253,
      "Philosoph": 6254,
      "egg": 6255,
      "runs": 6256,
      "cries": 6257,
      "Smith": 6258,
      "justified": 6259,
      "rocks": 6260,
      "gained": 6261,
      "Concern": 6262,
      "kne": 6263,
      "wond": 6264,
      "ting": 6265,
      "Dise": 6266,
      "diver": 6267,
      "##ole": 6268,
      "Psalm": 6269,
      "ash": 6270,
      "ung": 6271,
      "arbit": 6272,
      "appl": 6273,
      "##oubted": 6274,
      "respecting": 6275,
      "Books": 6276,
      "##licity": 6277,
      "dispute": 6278,
      "fathers": 6279,
      "disple": 6280,
      "Imm": 6281,
      "##overty": 6282,
      "Holland": 6283,
      "flight": 6284,
      "privileges": 6285,
      "objection": 6286,
      "Eternal": 6287,
      "Ay": 6288,
      "threw": 6289,
      "fed": 6290,
      "##eward": 6291,
      "crow": 6292,
      "indulg": 6293,
      "front": 6294,
      "mistress": 6295,
      "VIII": 6296,
      "##athen": 6297,
      "legs": 6298,
      "Diss": 6299,
      "##zen": 6300,
      "furnish": 6301,
      "VII": 6302,
      "lover": 6303,
      "Ste": 6304,
      ";\"": 6305,
      "friendly": 6306,
      "designs": 6307,
      "convince": 6308,
      "milk": 6309,
      "loves": 6310,
      "Bu": 6311,
      "##va": 6312,
      "flame": 6313,
      "##cclesiast": 6314,
      "##head": 6315,
      "Pie": 6316,
      "pu": 6317,
      "commit": 6318,
      "respects": 6319,
      "subsist": 6320,
      "Octo": 6321,
      "##arts": 6322,
      "##orders": 6323,
      "blue": 6324,
      "170": 6325,
      "Prison": 6326,
      "Action": 6327,
      "Pa": 6328,
      "horn": 6329,
      "##lict": 6330,
      "Met": 6331,
      "wilt": 6332,
      "Spani": 6333,
      "sorts": 6334,
      "uniform": 6335,
      "Spanish": 6336,
      "Fellow": 6337,
      "Sword": 6338,
      "islands": 6339,
      "##urisdiction": 6340,
      "Thous": 6341,
      "extrem": 6342,
      "##zz": 6343,
      "173": 6344,
      "Green": 6345,
      "swear": 6346,
      "dust": 6347,
      "##estern": 6348,
      "discovery": 6349,
      "Say": 6350,
      "##acon": 6351,
      "fold": 6352,
      "retired": 6353,
      "Praise": 6354,
      "Mouth": 6355,
      "##anim": 6356,
      "##ommon": 6357,
      "Testament": 6358,
      "##OUN": 6359,
      "Us": 6360,
      "##cks": 6361,
      "Colonel": 6362,
      "Wil": 6363,
      "wis": 6364,
      "##rim": 6365,
      "minute": 6366,
      "##IAN": 6367,
      "Mist": 6368,
      "Printed": 6369,
      "Still": 6370,
      "arrival": 6371,
      "##upon": 6372,
      "whenever": 6373,
      "hills": 6374,
      "exalted": 6375,
      "bew": 6376,
      "Goods": 6377,
      "perpetual": 6378,
      "attrib": 6379,
      "##aunt": 6380,
      "Massachuse": 6381,
      "##nes": 6382,
      "Represent": 6383,
      "acquaintance": 6384,
      "dog": 6385,
      "##igation": 6386,
      "demonstr": 6387,
      "Tro": 6388,
      "vener": 6389,
      "vel": 6390,
      "cip": 6391,
      "##antic": 6392,
      "glor": 6393,
      "inconsist": 6394,
      "Dest": 6395,
      "Lie": 6396,
      "Publick": 6397,
      "contains": 6398,
      "bend": 6399,
      "exper": 6400,
      "pursued": 6401,
      "holiness": 6402,
      "internal": 6403,
      "Sa": 6404,
      "domestic": 6405,
      "ours": 6406,
      "propriety": 6407,
      "Powers": 6408,
      "pi": 6409,
      "##AIN": 6410,
      "Field": 6411,
      "Sign": 6412,
      "ceed": 6413,
      "Wal": 6414,
      "Pal": 6415,
      "Repentance": 6416,
      "Nove": 6417,
      "##leep": 6418,
      "cat": 6419,
      "evidently": 6420,
      "pound": 6421,
      "counter": 6422,
      "Members": 6423,
      "Latin": 6424,
      "Set": 6425,
      "reputation": 6426,
      "emperor": 6427,
      "strugg": 6428,
      "Experi": 6429,
      "Wicked": 6430,
      "##urance": 6431,
      "##ails": 6432,
      "disag": 6433,
      "idle": 6434,
      "Vict": 6435,
      "##cerity": 6436,
      "acknowledged": 6437,
      "owe": 6438,
      "rude": 6439,
      "sentiment": 6440,
      "169": 6441,
      "enjoyed": 6442,
      "position": 6443,
      "tendency": 6444,
      "asc": 6445,
      "promises": 6446,
      "favourable": 6447,
      "multip": 6448,
      "##olation": 6449,
      "172": 6450,
      "##zed": 6451,
      "##thus": 6452,
      "honourable": 6453,
      "Dry": 6454,
      "painful": 6455,
      "ju": 6456,
      "commands": 6457,
      "burnt": 6458,
      "Custom": 6459,
      "unfortunate": 6460,
      "si": 6461,
      "waste": 6462,
      "mixed": 6463,
      "smooth": 6464,
      "Swe": 6465,
      "Bab": 6466,
      "2008": 6467,
      "##quence": 6468,
      "##ensible": 6469,
      "grass": 6470,
      "bears": 6471,
      "histor": 6472,
      "stated": 6473,
      "diseases": 6474,
      "boat": 6475,
      "Health": 6476,
      "Reader": 6477,
      "Louis": 6478,
      "snow": 6479,
      "About": 6480,
      "##vania": 6481,
      "##pelled": 6482,
      "strain": 6483,
      "##urious": 6484,
      "sober": 6485,
      "esp": 6486,
      "##eld": 6487,
      "##illed": 6488,
      "##rove": 6489,
      "##asted": 6490,
      "familiar": 6491,
      "oppress": 6492,
      "victory": 6493,
      "bark": 6494,
      "tom": 6495,
      "depends": 6496,
      "calam": 6497,
      "popular": 6498,
      "driven": 6499,
      "##oon": 6500,
      "##ifications": 6501,
      "conj": 6502,
      "Pounds": 6503,
      "winds": 6504,
      "Third": 6505,
      "##retion": 6506,
      "##emn": 6507,
      "revenge": 6508,
      "October": 6509,
      "appeal": 6510,
      "##uish": 6511,
      "48": 6512,
      "Wine": 6513,
      "##ients": 6514,
      "##chants": 6515,
      "spare": 6516,
      "endure": 6517,
      "slain": 6518,
      "tenderness": 6519,
      "accompanied": 6520,
      "bal": 6521,
      "reconcil": 6522,
      "ster": 6523,
      "##AG": 6524,
      "Houses": 6525,
      "lips": 6526,
      "burning": 6527,
      "administration": 6528,
      "Hear": 6529,
      "revol": 6530,
      "impat": 6531,
      "AD": 6532,
      "intend": 6533,
      "prudent": 6534,
      "##aning": 6535,
      "nearer": 6536,
      "##ada": 6537,
      "60": 6538,
      "mend": 6539,
      "rough": 6540,
      "Influ": 6541,
      "##VER": 6542,
      "news": 6543,
      "##aze": 6544,
      "convenient": 6545,
      "speed": 6546,
      "golden": 6547,
      "##IGH": 6548,
      "observations": 6549,
      "elegant": 6550,
      "Colonies": 6551,
      "##uten": 6552,
      "Ordin": 6553,
      "flat": 6554,
      "168": 6555,
      "Dun": 6556,
      "horrid": 6557,
      "undoubted": 6558,
      "##itors": 6559,
      "confer": 6560,
      "##iae": 6561,
      "antient": 6562,
      "Excellency": 6563,
      "social": 6564,
      "President": 6565,
      "##icted": 6566,
      "sinner": 6567,
      "Purpose": 6568,
      "gift": 6569,
      "disgrace": 6570,
      "thanks": 6571,
      "##bal": 6572,
      "Most": 6573,
      "satisfy": 6574,
      "pan": 6575,
      "Assist": 6576,
      "##edition": 6577,
      "Officers": 6578,
      "mans": 6579,
      "Den": 6580,
      "stones": 6581,
      "Sinner": 6582,
      "Cat": 6583,
      "anno": 6584,
      "saints": 6585,
      "restored": 6586,
      "compassion": 6587,
      "picture": 6588,
      "##olic": 6589,
      "COM": 6590,
      "Prophet": 6591,
      "embra": 6592,
      "Far": 6593,
      "UN": 6594,
      "##rous": 6595,
      "senses": 6596,
      "abst": 6597,
      "preceding": 6598,
      "flock": 6599,
      "requis": 6600,
      "##bank": 6601,
      "##IP": 6602,
      "slave": 6603,
      "##ption": 6604,
      "captain": 6605,
      "earnestly": 6606,
      "Physic": 6607,
      "entitled": 6608,
      "carefully": 6609,
      "rebell": 6610,
      "adapt": 6611,
      "Quar": 6612,
      "##wood": 6613,
      "SECT": 6614,
      "Seed": 6615,
      "cer": 6616,
      "uncommon": 6617,
      "##pping": 6618,
      "tea": 6619,
      "Bill": 6620,
      "##anity": 6621,
      "Duties": 6622,
      "growing": 6623,
      "100": 6624,
      "Temple": 6625,
      "gradually": 6626,
      "46": 6627,
      "suspic": 6628,
      "containing": 6629,
      "justify": 6630,
      "va": 6631,
      "Pros": 6632,
      "##andal": 6633,
      "##acted": 6634,
      "##AK": 6635,
      "ministry": 6636,
      "lif": 6637,
      "Union": 6638,
      "attending": 6639,
      "partly": 6640,
      "Merc": 6641,
      "advent": 6642,
      "Actions": 6643,
      "Sus": 6644,
      "Charge": 6645,
      "Secret": 6646,
      "Plant": 6647,
      "##ITY": 6648,
      "Gar": 6649,
      "##dict": 6650,
      "Bodies": 6651,
      "returning": 6652,
      "favourite": 6653,
      "amid": 6654,
      "##inks": 6655,
      "Caes": 6656,
      "paint": 6657,
      "drop": 6658,
      "image": 6659,
      "Affairs": 6660,
      "shape": 6661,
      "##enerate": 6662,
      "##icip": 6663,
      "morrow": 6664,
      "relations": 6665,
      "evils": 6666,
      "liv": 6667,
      "decree": 6668,
      "Virginia": 6669,
      "oil": 6670,
      "Example": 6671,
      "Free": 6672,
      "prayers": 6673,
      "rav": 6674,
      "drawing": 6675,
      "##UB": 6676,
      "swall": 6677,
      "Wrath": 6678,
      "mart": 6679,
      "Sever": 6680,
      "Ju": 6681,
      "moon": 6682,
      "lit": 6683,
      "restore": 6684,
      "##ek": 6685,
      "contempl": 6686,
      "tive": 6687,
      "prize": 6688,
      "forming": 6689,
      "Exerc": 6690,
      "Gard": 6691,
      "##ocks": 6692,
      "publish": 6693,
      "stronger": 6694,
      "dies": 6695,
      "##inous": 6696,
      "effectually": 6697,
      "inex": 6698,
      "bearing": 6699,
      "embrace": 6700,
      "prod": 6701,
      "167": 6702,
      "recovered": 6703,
      "arising": 6704,
      "Discourse": 6705,
      "##isfaction": 6706,
      "associ": 6707,
      "##fare": 6708,
      "True": 6709,
      "desert": 6710,
      "Price": 6711,
      "remaining": 6712,
      "multitude": 6713,
      "attain": 6714,
      "stim": 6715,
      "imagined": 6716,
      "Meeting": 6717,
      "##urer": 6718,
      "AT": 6719,
      "colours": 6720,
      "Verse": 6721,
      "##leg": 6722,
      "Return": 6723,
      "Penns": 6724,
      "notes": 6725,
      "laying": 6726,
      "poison": 6727,
      "Minds": 6728,
      "rea": 6729,
      "bloody": 6730,
      "Admir": 6731,
      "Baptism": 6732,
      "WILL": 6733,
      "talents": 6734,
      "enabled": 6735,
      "vind": 6736,
      "encourage": 6737,
      "mi": 6738,
      "humour": 6739,
      "Presby": 6740,
      "Argument": 6741,
      "powder": 6742,
      "conceived": 6743,
      "Vessel": 6744,
      "finds": 6745,
      "Trust": 6746,
      "anger": 6747,
      "providence": 6748,
      "dost": 6749,
      "prudence": 6750,
      "Mill": 6751,
      "win": 6752,
      "##hor": 6753,
      "EX": 6754,
      "Conn": 6755,
      "dull": 6756,
      "criminal": 6757,
      "oh": 6758,
      "enquire": 6759,
      "rivers": 6760,
      "—\"": 6761,
      "Promise": 6762,
      "##era": 6763,
      "##embrance": 6764,
      "copy": 6765,
      "ton": 6766,
      "##iest": 6767,
      "Chau": 6768,
      "thirst": 6769,
      "accepted": 6770,
      "fan": 6771,
      "sufferings": 6772,
      "##opes": 6773,
      "precept": 6774,
      "Equ": 6775,
      "Fortune": 6776,
      "Reform": 6777,
      "doubtless": 6778,
      "empty": 6779,
      "superst": 6780,
      "becoming": 6781,
      "##oh": 6782,
      "betw": 6783,
      "Pret": 6784,
      "##iscop": 6785,
      "dre": 6786,
      "curse": 6787,
      "pas": 6788,
      "mach": 6789,
      "wander": 6790,
      "err": 6791,
      "##dy": 6792,
      "##vity": 6793,
      "presume": 6794,
      "redeem": 6795,
      "Lust": 6796,
      "declaration": 6797,
      "piety": 6798,
      "obvious": 6799,
      "vengeance": 6800,
      "adopted": 6801,
      "pref": 6802,
      "Civil": 6803,
      "oath": 6804,
      "##orrows": 6805,
      "Franc": 6806,
      "savage": 6807,
      "lin": 6808,
      "vulgar": 6809,
      "charity": 6810,
      "apostle": 6811,
      "PAR": 6812,
      "Johnson": 6813,
      "Vis": 6814,
      "despise": 6815,
      "teeth": 6816,
      "collected": 6817,
      "fleet": 6818,
      "Sovere": 6819,
      "Arab": 6820,
      "republic": 6821,
      "square": 6822,
      "##iture": 6823,
      "Prayers": 6824,
      "Passion": 6825,
      "task": 6826,
      "clouds": 6827,
      "47": 6828,
      "Fact": 6829,
      "pertaining": 6830,
      "feeble": 6831,
      "Thee": 6832,
      "envy": 6833,
      "consistent": 6834,
      "pence": 6835,
      "tract": 6836,
      "##UE": 6837,
      "Sup": 6838,
      "##icable": 6839,
      "According": 6840,
      "Reade": 6841,
      "Degree": 6842,
      "##asm": 6843,
      "century": 6844,
      "remote": 6845,
      "49": 6846,
      "Batch": 6847,
      "regarded": 6848,
      "##uated": 6849,
      "##rep": 6850,
      "priest": 6851,
      "cro": 6852,
      "Both": 6853,
      "xv": 6854,
      "bas": 6855,
      "reflection": 6856,
      "Pennsyl": 6857,
      "belongs": 6858,
      "forbear": 6859,
      "deprived": 6860,
      "stead": 6861,
      "loc": 6862,
      "Without": 6863,
      "temple": 6864,
      "##iciency": 6865,
      "oun": 6866,
      "##here": 6867,
      "sitting": 6868,
      "##shire": 6869,
      "pressed": 6870,
      "September": 6871,
      "bliss": 6872,
      "Indies": 6873,
      "joys": 6874,
      "struct": 6875,
      "difficulties": 6876,
      "blush": 6877,
      "Necessity": 6878,
      "coded": 6879,
      "authors": 6880,
      "tended": 6881,
      "Cent": 6882,
      "Sampled": 6883,
      "proofread": 6884,
      "haste": 6885,
      "Soph": 6886,
      "unworthy": 6887,
      "uncon": 6888,
      "Matth": 6889,
      "endeavours": 6890,
      "moderate": 6891,
      "independent": 6892,
      "beheld": 6893,
      "inclined": 6894,
      "##sr": 6895,
      "##ountain": 6896,
      "scatter": 6897,
      "Beh": 6898,
      "##emper": 6899,
      "absence": 6900,
      "##raction": 6901,
      "provide": 6902,
      "Redeem": 6903,
      "revealed": 6904,
      "Newsbank": 6905,
      "Readex": 6906,
      "holds": 6907,
      "##AGE": 6908,
      "final": 6909,
      "ters": 6910,
      "drive": 6911,
      "current": 6912,
      "reviewed": 6913,
      "##oring": 6914,
      "abilities": 6915,
      "##reeable": 6916,
      "judged": 6917,
      "repair": 6918,
      "##ISH": 6919,
      "Lamb": 6920,
      "erected": 6921,
      "hind": 6922,
      "adj": 6923,
      "taxes": 6924,
      "execut": 6925,
      "viii": 6926,
      "reasoning": 6927,
      "excited": 6928,
      "elo": 6929,
      "##abbath": 6930,
      "bounds": 6931,
      "Cape": 6932,
      "deeply": 6933,
      "fierce": 6934,
      "Constant": 6935,
      "choose": 6936,
      "rapid": 6937,
      "Has": 6938,
      "Song": 6939,
      "adds": 6940,
      "fifth": 6941,
      "resentment": 6942,
      "grows": 6943,
      "##regation": 6944,
      "proceedings": 6945,
      "gate": 6946,
      "immense": 6947,
      "attachment": 6948,
      "cup": 6949,
      "##egr": 6950,
      "ject": 6951,
      "boil": 6952,
      "buy": 6953,
      "trad": 6954,
      "prem": 6955,
      "Language": 6956,
      "Jack": 6957,
      "MR": 6958,
      "improvement": 6959,
      "enable": 6960,
      "particulars": 6961,
      "##tts": 6962,
      "pill": 6963,
      "succession": 6964,
      "Chaucer": 6965,
      "3d": 6966,
      "assign": 6967,
      "##cle": 6968,
      "ings": 6969,
      "protest": 6970,
      "damn": 6971,
      "ashamed": 6972,
      "rejected": 6973,
      "continent": 6974,
      "Inhabitants": 6975,
      "Defend": 6976,
      "aug": 6977,
      "forces": 6978,
      "petition": 6979,
      "bought": 6980,
      "prosperity": 6981,
      "injury": 6982,
      "Witness": 6983,
      "revolution": 6984,
      "Lad": 6985,
      "wretch": 6986,
      "##iate": 6987,
      "weeks": 6988,
      "Vill": 6989,
      "hunt": 6990,
      "posed": 6991,
      "blest": 6992,
      "ditto": 6993,
      "HAR": 6994,
      "thither": 6995,
      "Charity": 6996,
      "##ortunes": 6997,
      "rad": 6998,
      "plenty": 6999,
      "SON": 7000,
      "##elest": 7001,
      "Princes": 7002,
      "##ila": 7003,
      "consult": 7004,
      "betwixt": 7005,
      "Tit": 7006,
      "unable": 7007,
      "comply": 7008,
      "GR": 7009,
      "abuse": 7010,
      "horror": 7011,
      "holding": 7012,
      "cern": 7013,
      "anxious": 7014,
      "cott": 7015,
      "liberties": 7016,
      "Sanct": 7017,
      "ere": 7018,
      "##END": 7019,
      "motive": 7020,
      "masters": 7021,
      "Foot": 7022,
      "chose": 7023,
      "##mond": 7024,
      "total": 7025,
      "writings": 7026,
      "##fty": 7027,
      "ample": 7028,
      "##itance": 7029,
      "##ulations": 7030,
      "dishon": 7031,
      "Vice": 7032,
      "].": 7033,
      "caught": 7034,
      "efforts": 7035,
      "##ny": 7036,
      "soldier": 7037,
      "Sav": 7038,
      "rush": 7039,
      "hazard": 7040,
      "ming": 7041,
      "##min": 7042,
      "doctrines": 7043,
      "dence": 7044,
      "Inn": 7045,
      "striking": 7046,
      "hosp": 7047,
      "Circumstances": 7048,
      "lov": 7049,
      "##uine": 7050,
      "incap": 7051,
      "bloom": 7052,
      "relating": 7053,
      "toward": 7054,
      "delib": 7055,
      "improper": 7056,
      "Assigned": 7057,
      "leading": 7058,
      "Fool": 7059,
      "Out": 7060,
      "aut": 7061,
      "cow": 7062,
      "jury": 7063,
      "survey": 7064,
      "flood": 7065,
      "proves": 7066,
      "edited": 7067,
      "observing": 7068,
      "##zek": 7069,
      "millions": 7070,
      "TC": 7071,
      "illustr": 7072,
      "##ML": 7073,
      "##amin": 7074,
      "##ipt": 7075,
      "pfs": 7076,
      "delicate": 7077,
      "##utenant": 7078,
      "woe": 7079,
      "induced": 7080,
      "PL": 7081,
      "distrib": 7082,
      "preaching": 7083,
      "bount": 7084,
      "minutes": 7085,
      "election": 7086,
      "Cross": 7087,
      "Cha": 7088,
      "unite": 7089,
      "agg": 7090,
      "vices": 7091,
      "presently": 7092,
      "suspend": 7093,
      "Bro": 7094,
      "Keyed": 7095,
      "QC": 7096,
      "ben": 7097,
      "XML": 7098,
      "keying": 7099,
      "TCP": 7100,
      "Oper": 7101,
      "##ral": 7102,
      "##resses": 7103,
      "Orig": 7104,
      "##inence": 7105,
      "converted": 7106,
      "banks": 7107,
      "lot": 7108,
      "cattle": 7109,
      "Reb": 7110,
      "Abs": 7111,
      "cities": 7112,
      "relative": 7113,
      "perse": 7114,
      "originally": 7115,
      "cher": 7116,
      "unm": 7117,
      "oblige": 7118,
      "Comfort": 7119,
      "obligation": 7120,
      "breaking": 7121,
      "CL": 7122,
      "OE": 7123,
      "Enc": 7124,
      "ancest": 7125,
      "##eriff": 7126,
      "##usions": 7127,
      "papers": 7128,
      "Pur": 7129,
      "alike": 7130,
      "rash": 7131,
      "Medi": 7132,
      "recommended": 7133,
      "##bert": 7134,
      "Mot": 7135,
      "##ella": 7136,
      "troubles": 7137,
      "Dead": 7138,
      "##inus": 7139,
      "universally": 7140,
      "Throne": 7141,
      "Rever": 7142,
      "fatig": 7143,
      "serm": 7144,
      "creation": 7145,
      "angels": 7146,
      "pair": 7147,
      "Advantage": 7148,
      "51": 7149,
      "##chan": 7150,
      "ces": 7151,
      "hu": 7152,
      "swift": 7153,
      "cruelty": 7154,
      "##fast": 7155,
      "Cop": 7156,
      "hin": 7157,
      "tyranny": 7158,
      "prisoner": 7159,
      "fare": 7160,
      "fifteen": 7161,
      "curiosity": 7162,
      "##arks": 7163,
      "worldly": 7164,
      "##swers": 7165,
      "##plex": 7166,
      "##gen": 7167,
      "##hire": 7168,
      "consisting": 7169,
      "Caesar": 7170,
      "##erness": 7171,
      "debts": 7172,
      "imperfect": 7173,
      "offices": 7174,
      "indisp": 7175,
      "desirous": 7176,
      "XXX": 7177,
      "limited": 7178,
      "puts": 7179,
      "colony": 7180,
      "Cases": 7181,
      "Sand": 7182,
      "##udence": 7183,
      "actual": 7184,
      "escaped": 7185,
      "Spaniards": 7186,
      "Ages": 7187,
      "urged": 7188,
      "Trib": 7189,
      "rat": 7190,
      "Labour": 7191,
      "vo": 7192,
      "##burgh": 7193,
      "##ais": 7194,
      "heirs": 7195,
      "bred": 7196,
      "##ees": 7197,
      "##iny": 7198,
      "rh": 7199,
      "##gl": 7200,
      "happens": 7201,
      "princes": 7202,
      "finally": 7203,
      "humbly": 7204,
      "heartily": 7205,
      "##ky": 7206,
      "errors": 7207,
      "improved": 7208,
      "Principle": 7209,
      "impression": 7210,
      "##ommod": 7211,
      "tou": 7212,
      "Brown": 7213,
      "benevolence": 7214,
      "tab": 7215,
      "shot": 7216,
      "retain": 7217,
      "eldest": 7218,
      "wickedness": 7219,
      "Fal": 7220,
      "grounds": 7221,
      "visited": 7222,
      "Freed": 7223,
      "conviction": 7224,
      "proceeds": 7225,
      "Foundation": 7226,
      "College": 7227,
      "Pennsylvania": 7228,
      "anch": 7229,
      "endless": 7230,
      "Fate": 7231,
      "January": 7232,
      "##IUS": 7233,
      "indiffer": 7234,
      "Terms": 7235,
      "fing": 7236,
      "ocean": 7237,
      "circle": 7238,
      "hinder": 7239,
      "prohib": 7240,
      "services": 7241,
      "Tyr": 7242,
      "##athan": 7243,
      "ridiculous": 7244,
      "accustom": 7245,
      "Priv": 7246,
      "Ign": 7247,
      "approve": 7248,
      "strangers": 7249,
      "Effects": 7250,
      "individuals": 7251,
      "enlight": 7252,
      "Title": 7253,
      "fury": 7254,
      "Convers": 7255,
      "claims": 7256,
      "##egrity": 7257,
      "forego": 7258,
      "Pag": 7259,
      "box": 7260,
      "##ACE": 7261,
      "shel": 7262,
      "unac": 7263,
      "Var": 7264,
      "Darkness": 7265,
      "buried": 7266,
      "European": 7267,
      "village": 7268,
      "Public": 7269,
      "Feet": 7270,
      "ledge": 7271,
      "morn": 7272,
      "Irish": 7273,
      "handsome": 7274,
      "Stone": 7275,
      "pretence": 7276,
      "prejudice": 7277,
      "##ums": 7278,
      "proceeding": 7279,
      "Jeh": 7280,
      "##ruption": 7281,
      "##piration": 7282,
      "Magistr": 7283,
      "defect": 7284,
      "Bread": 7285,
      "fraud": 7286,
      "belief": 7287,
      "conducted": 7288,
      "##regular": 7289,
      "relate": 7290,
      "Knight": 7291,
      "lent": 7292,
      "produces": 7293,
      "moving": 7294,
      "Tor": 7295,
      "tune": 7296,
      "##noon": 7297,
      "adapted": 7298,
      "corruption": 7299,
      "symptoms": 7300,
      "fect": 7301,
      "acid": 7302,
      "believing": 7303,
      "LE": 7304,
      "coach": 7305,
      "ga": 7306,
      "vert": 7307,
      "dream": 7308,
      "Chem": 7309,
      "Temper": 7310,
      "enjoyment": 7311,
      "thorough": 7312,
      "ers": 7313,
      "exercised": 7314,
      "ast": 7315,
      "##idents": 7316,
      "gloomy": 7317,
      "Rog": 7318,
      "##ration": 7319,
      "coin": 7320,
      "armed": 7321,
      "gene": 7322,
      "##aret": 7323,
      "##natural": 7324,
      "Diffic": 7325,
      "Hundred": 7326,
      "cir": 7327,
      "thousands": 7328,
      "territ": 7329,
      "Chron": 7330,
      "observes": 7331,
      "Frank": 7332,
      "posterity": 7333,
      "brief": 7334,
      "##lance": 7335,
      "Cy": 7336,
      "Bow": 7337,
      "heal": 7338,
      "##omon": 7339,
      "proclaim": 7340,
      "##athed": 7341,
      "desper": 7342,
      "caution": 7343,
      "##unction": 7344,
      "accur": 7345,
      "unl": 7346,
      "daughters": 7347,
      "rapt": 7348,
      "##ounce": 7349,
      "procured": 7350,
      "##bed": 7351,
      "continues": 7352,
      "weary": 7353,
      "vii": 7354,
      "waiting": 7355,
      "exclaim": 7356,
      "Homer": 7357,
      "heed": 7358,
      "166": 7359,
      "fu": 7360,
      "working": 7361,
      "hither": 7362,
      "capacity": 7363,
      "duct": 7364,
      "dance": 7365,
      "##erk": 7366,
      "patriot": 7367,
      "torment": 7368,
      "Hour": 7369,
      "Stat": 7370,
      "decay": 7371,
      "Tears": 7372,
      "Vi": 7373,
      "Priest": 7374,
      "signs": 7375,
      "nut": 7376,
      "attempts": 7377,
      "Oth": 7378,
      "appet": 7379,
      "Ent": 7380,
      "match": 7381,
      "Party": 7382,
      "Dryden": 7383,
      "voyage": 7384,
      "style": 7385,
      "Experience": 7386,
      "reached": 7387,
      "##ignant": 7388,
      "ED": 7389,
      "Presence": 7390,
      "Greece": 7391,
      "mission": 7392,
      "scriptures": 7393,
      "Bishops": 7394,
      "honours": 7395,
      "sympath": 7396,
      "Army": 7397,
      "Massachusetts": 7398,
      "Freedom": 7399,
      "aged": 7400,
      "Zeal": 7401,
      "Chart": 7402,
      "labours": 7403,
      "purchased": 7404,
      "supposing": 7405,
      "compleat": 7406,
      "Miles": 7407,
      "##IAM": 7408,
      "Appear": 7409,
      "thunder": 7410,
      "sets": 7411,
      "abound": 7412,
      "##long": 7413,
      "Horse": 7414,
      "omn": 7415,
      "distr": 7416,
      "insult": 7417,
      "Luc": 7418,
      "demands": 7419,
      "##UD": 7420,
      "Anim": 7421,
      "interv": 7422,
      "##ically": 7423,
      "notion": 7424,
      "natives": 7425,
      "##assad": 7426,
      "Quakers": 7427,
      "strongest": 7428,
      "##cr": 7429,
      "##ersed": 7430,
      ".\"—": 7431,
      "Ways": 7432,
      "benefic": 7433,
      "Numb": 7434,
      "jurisdiction": 7435,
      "##mouth": 7436,
      "organ": 7437,
      "55": 7438,
      "##illy": 7439,
      "arises": 7440,
      "provisions": 7441,
      "Guilt": 7442,
      "candid": 7443,
      "performance": 7444,
      "dispatch": 7445,
      "provision": 7446,
      "Dra": 7447,
      "vex": 7448,
      "conquer": 7449,
      "tranqu": 7450,
      "precip": 7451,
      "##gon": 7452,
      "tween": 7453,
      "joint": 7454,
      "repentance": 7455,
      "describ": 7456,
      "Line": 7457,
      "trifling": 7458,
      "SE": 7459,
      "settlement": 7460,
      "experienced": 7461,
      "Judges": 7462,
      "Give": 7463,
      "##orable": 7464,
      "charming": 7465,
      "afflicted": 7466,
      "welcome": 7467,
      "forgiv": 7468,
      "##kins": 7469,
      "##tery": 7470,
      "##oles": 7471,
      "meat": 7472,
      "Proof": 7473,
      "destitute": 7474,
      "##ili": 7475,
      "Any": 7476,
      "insin": 7477,
      "tun": 7478,
      "paying": 7479,
      "shake": 7480,
      "witnesses": 7481,
      "streets": 7482,
      "Room": 7483,
      "instruction": 7484,
      "Rules": 7485,
      "##olve": 7486,
      "Maid": 7487,
      "deserves": 7488,
      "walking": 7489,
      "examined": 7490,
      "##ico": 7491,
      "devoted": 7492,
      "genuine": 7493,
      "mour": 7494,
      "renders": 7495,
      "fairly": 7496,
      "godly": 7497,
      "separated": 7498,
      "ult": 7499,
      "offended": 7500,
      "Muse": 7501,
      "##thy": 7502,
      "inconsistent": 7503,
      "Mah": 7504,
      "supplied": 7505,
      "Governour": 7506,
      "sky": 7507,
      "recollect": 7508,
      "relie": 7509,
      "secured": 7510,
      "illustrious": 7511,
      "Surely": 7512,
      "Tru": 7513,
      "Oxford": 7514,
      "calculated": 7515,
      "tyrant": 7516,
      "conclusion": 7517,
      "Consideration": 7518,
      "deceive": 7519,
      "murm": 7520,
      "##alks": 7521,
      "##LAND": 7522,
      "doll": 7523,
      "approbation": 7524,
      "gods": 7525,
      "##iot": 7526,
      "modest": 7527,
      "penetr": 7528,
      "inconven": 7529,
      "##atre": 7530,
      "disappoint": 7531,
      "date": 7532,
      "##stone": 7533,
      "intr": 7534,
      "164": 7535,
      "Wild": 7536,
      "##vag": 7537,
      "induce": 7538,
      "ef": 7539,
      "Blessing": 7540,
      "liberal": 7541,
      "Monarch": 7542,
      ",,": 7543,
      "bestowed": 7544,
      "magnific": 7545,
      "Table": 7546,
      "sublime": 7547,
      "disob": 7548,
      "bef": 7549,
      "genus": 7550,
      "Jos": 7551,
      "tide": 7552,
      "Mons": 7553,
      "lays": 7554,
      "previous": 7555,
      "MAN": 7556,
      "mun": 7557,
      "Sax": 7558,
      "flies": 7559,
      "Medic": 7560,
      "##encies": 7561,
      "armies": 7562,
      "pier": 7563,
      "Ell": 7564,
      "pomp": 7565,
      "slavery": 7566,
      "persw": 7567,
      "raising": 7568,
      "prisoners": 7569,
      "upright": 7570,
      "dominion": 7571,
      "travell": 7572,
      "School": 7573,
      "passages": 7574,
      "repeat": 7575,
      "rit": 7576,
      "questions": 7577,
      "exha": 7578,
      "discour": 7579,
      "tent": 7580,
      "deceived": 7581,
      "Teach": 7582,
      "vit": 7583,
      "##eeks": 7584,
      "destro": 7585,
      "governed": 7586,
      "pend": 7587,
      "##asph": 7588,
      "shining": 7589,
      "happily": 7590,
      "limits": 7591,
      "rival": 7592,
      "practised": 7593,
      "punished": 7594,
      "sixty": 7595,
      "##ta": 7596,
      "Famil": 7597,
      "Sn": 7598,
      "##allel": 7599,
      "##ials": 7600,
      "sore": 7601,
      "lasting": 7602,
      "Plate": 7603,
      "##cclesiastical": 7604,
      "##OO": 7605,
      "##actions": 7606,
      "##ulted": 7607,
      "interm": 7608,
      "##ulus": 7609,
      "oppression": 7610,
      "Regard": 7611,
      "greatness": 7612,
      "provinces": 7613,
      "vall": 7614,
      "bay": 7615,
      "##ousin": 7616,
      "pin": 7617,
      "frag": 7618,
      "Stud": 7619,
      "breach": 7620,
      "idol": 7621,
      "spake": 7622,
      "##aws": 7623,
      "establishment": 7624,
      "northern": 7625,
      "strictly": 7626,
      "Counsel": 7627,
      "##ulent": 7628,
      "Reasons": 7629,
      "skies": 7630,
      "##the": 7631,
      "##ENCE": 7632,
      "Angel": 7633,
      "Loss": 7634,
      "##zing": 7635,
      "##quest": 7636,
      "flower": 7637,
      "surrounded": 7638,
      "painted": 7639,
      "Bible": 7640,
      "farm": 7641,
      "Marg": 7642,
      "pursuit": 7643,
      "commod": 7644,
      "Colony": 7645,
      "##orary": 7646,
      "connection": 7647,
      "Fish": 7648,
      "ended": 7649,
      "IF": 7650,
      "innocence": 7651,
      "November": 7652,
      "requisite": 7653,
      "propose": 7654,
      "telling": 7655,
      "##ique": 7656,
      "Eld": 7657,
      "##ernal": 7658,
      "##row": 7659,
      "Exc": 7660,
      "Virg": 7661,
      "motions": 7662,
      "Satisfaction": 7663,
      "inclination": 7664,
      "Tom": 7665,
      "returns": 7666,
      "drops": 7667,
      "##itz": 7668,
      "chair": 7669,
      "qualified": 7670,
      "Friendship": 7671,
      "Lim": 7672,
      "Courts": 7673,
      "equity": 7674,
      "Thro": 7675,
      "December": 7676,
      "tale": 7677,
      "##pected": 7678,
      "forsake": 7679,
      "##IGHT": 7680,
      "##thing": 7681,
      "interesting": 7682,
      "##pes": 7683,
      "deemed": 7684,
      "waited": 7685,
      "stup": 7686,
      "cert": 7687,
      "compet": 7688,
      "##acco": 7689,
      "53": 7690,
      "tle": 7691,
      "##cket": 7692,
      "##roes": 7693,
      "##ushing": 7694,
      "presents": 7695,
      "Hor": 7696,
      "advise": 7697,
      "##ca": 7698,
      "clim": 7699,
      "sport": 7700,
      "gallant": 7701,
      "Pardon": 7702,
      "sugar": 7703,
      "beings": 7704,
      "irregular": 7705,
      "dated": 7706,
      "##ictions": 7707,
      "baptism": 7708,
      "dinner": 7709,
      "sect": 7710,
      "apprehend": 7711,
      "sions": 7712,
      "##asonable": 7713,
      "##asses": 7714,
      "departed": 7715,
      "legislature": 7716,
      "Quant": 7717,
      "cav": 7718,
      "##cles": 7719,
      "Ships": 7720,
      "ascertain": 7721,
      "concerns": 7722,
      "Bond": 7723,
      "##icial": 7724,
      "##atitude": 7725,
      "artific": 7726,
      "arbitrary": 7727,
      "Birth": 7728,
      "Sick": 7729,
      "admiration": 7730,
      "lake": 7731,
      "neighbours": 7732,
      "poverty": 7733,
      "resign": 7734,
      "cept": 7735,
      "qui": 7736,
      "palace": 7737,
      "myst": 7738,
      "Decl": 7739,
      "##enses": 7740,
      "Desire": 7741,
      "WHEN": 7742,
      "load": 7743,
      "Du": 7744,
      "deserved": 7745,
      "vac": 7746,
      "gainst": 7747,
      "##amation": 7748,
      "remarks": 7749,
      "Gentiles": 7750,
      "Cru": 7751,
      "les": 7752,
      "useless": 7753,
      "##bo": 7754,
      "Story": 7755,
      "Neither": 7756,
      "ceived": 7757,
      "execute": 7758,
      "restrain": 7759,
      "##ena": 7760,
      "bones": 7761,
      "Fall": 7762,
      "Names": 7763,
      "continual": 7764,
      "##icut": 7765,
      "approved": 7766,
      "During": 7767,
      "##sem": 7768,
      "##ilia": 7769,
      "entertained": 7770,
      "color": 7771,
      "insect": 7772,
      "##ograph": 7773,
      "censure": 7774,
      "##orter": 7775,
      "##aneous": 7776,
      "perplex": 7777,
      "conquest": 7778,
      "##versy": 7779,
      "maintained": 7780,
      "tit": 7781,
      "##ded": 7782,
      "##isure": 7783,
      "2007": 7784,
      "Ba": 7785,
      "theirs": 7786,
      "##LES": 7787,
      "mit": 7788,
      "affords": 7789,
      "sist": 7790,
      "tends": 7791,
      "##lers": 7792,
      "signal": 7793,
      "##iverse": 7794,
      "##unning": 7795,
      "Deity": 7796,
      "##IVE": 7797,
      "##eur": 7798,
      "product": 7799,
      "##cast": 7800,
      "commend": 7801,
      "Consequence": 7802,
      "habits": 7803,
      "belly": 7804,
      "##cher": 7805,
      "##key": 7806,
      "##hem": 7807,
      "smaller": 7808,
      "deeds": 7809,
      "community": 7810,
      "52": 7811,
      "##bon": 7812,
      "inhabit": 7813,
      "##bridge": 7814,
      "##entive": 7815,
      "tremble": 7816,
      "ornament": 7817,
      "CR": 7818,
      "demanded": 7819,
      "seize": 7820,
      "climate": 7821,
      "Emperor": 7822,
      "##ainder": 7823,
      "conject": 7824,
      "soever": 7825,
      "deceit": 7826,
      "overt": 7827,
      "##wick": 7828,
      "namely": 7829,
      "Sermon": 7830,
      "Tempt": 7831,
      "##IB": 7832,
      "##lands": 7833,
      "Ezek": 7834,
      "changes": 7835,
      "philosophy": 7836,
      "abhor": 7837,
      "hom": 7838,
      "Isaac": 7839,
      "ger": 7840,
      "barbarous": 7841,
      "##rey": 7842,
      "surv": 7843,
      "insist": 7844,
      "Da": 7845,
      "##eech": 7846,
      "prompt": 7847,
      "beauties": 7848,
      "diam": 7849,
      "Solomon": 7850,
      "##form": 7851,
      "composition": 7852,
      "cares": 7853,
      "##enger": 7854,
      "intelligence": 7855,
      "later": 7856,
      "Africa": 7857,
      "entering": 7858,
      "arrive": 7859,
      "Evidence": 7860,
      "##ortation": 7861,
      "eggs": 7862,
      "suspected": 7863,
      "loving": 7864,
      "merits": 7865,
      "heret": 7866,
      "##ORE": 7867,
      "widow": 7868,
      "##elm": 7869,
      "getting": 7870,
      "discipline": 7871,
      "##ecy": 7872,
      "expose": 7873,
      "statute": 7874,
      "stretch": 7875,
      "regret": 7876,
      "relieve": 7877,
      "operations": 7878,
      "passes": 7879,
      "Americans": 7880,
      "Clo": 7881,
      "##ods": 7882,
      "encouraged": 7883,
      "Camp": 7884,
      "privilege": 7885,
      "Redeemer": 7886,
      "wars": 7887,
      "Wall": 7888,
      "ih": 7889,
      "infall": 7890,
      "Greeks": 7891,
      "##ette": 7892,
      "Deut": 7893,
      "successful": 7894,
      "81": 7895,
      "amidst": 7896,
      "tures": 7897,
      "trace": 7898,
      "cometh": 7899,
      "##aus": 7900,
      "disd": 7901,
      "##QU": 7902,
      "stroke": 7903,
      "Clergy": 7904,
      "Vert": 7905,
      "##bb": 7906,
      "lift": 7907,
      "Advice": 7908,
      "zealous": 7909,
      "disgu": 7910,
      "Spring": 7911,
      "nevertheless": 7912,
      "Jewish": 7913,
      "hes": 7914,
      "carnal": 7915,
      "Major": 7916,
      "Russ": 7917,
      "waves": 7918,
      "##oments": 7919,
      "##ighth": 7920,
      "##INT": 7921,
      "truths": 7922,
      "complaint": 7923,
      "extravag": 7924,
      "vision": 7925,
      "FIN": 7926,
      "chain": 7927,
      "Fever": 7928,
      "##irely": 7929,
      "Thousand": 7930,
      "accounted": 7931,
      "abundance": 7932,
      "market": 7933,
      "Observ": 7934,
      "##mon": 7935,
      "delightful": 7936,
      "ACT": 7937,
      "butter": 7938,
      "growth": 7939,
      "Fruit": 7940,
      "fought": 7941,
      "temporal": 7942,
      "##assed": 7943,
      "disagreeable": 7944,
      "##ulating": 7945,
      "nal": 7946,
      "German": 7947,
      "fitted": 7948,
      "leagues": 7949,
      "Oblig": 7950,
      "cum": 7951,
      "parish": 7952,
      "Testimony": 7953,
      "assembled": 7954,
      "Natural": 7955,
      "tie": 7956,
      "Think": 7957,
      "keeps": 7958,
      "accord": 7959,
      "admire": 7960,
      "Fle": 7961,
      "walked": 7962,
      "xxx": 7963,
      "kindly": 7964,
      "Phys": 7965,
      "rulers": 7966,
      "unne": 7967,
      "enfor": 7968,
      "vic": 7969,
      "harmony": 7970,
      "dressed": 7971,
      "##tering": 7972,
      "vour": 7973,
      "vigour": 7974,
      "ingenious": 7975,
      "ay": 7976,
      "annex": 7977,
      "undoubtedly": 7978,
      "propag": 7979,
      "Goth": 7980,
      "wanton": 7981,
      "Hu": 7982,
      "Dor": 7983,
      "appearing": 7984,
      "Last": 7985,
      "Reign": 7986,
      "approaching": 7987,
      "##amen": 7988,
      "Asia": 7989,
      "infam": 7990,
      "foe": 7991,
      "proofs": 7992,
      "lords": 7993,
      "Abb": 7994,
      "ped": 7995,
      "discharged": 7996,
      "Rulers": 7997,
      "agreement": 7998,
      "##NE": 7999,
      "offend": 8000,
      "rais": 8001,
      "##quired": 8002,
      "Image": 8003,
      "##ana": 8004,
      "##ustice": 8005,
      "##ector": 8006,
      "despot": 8007,
      "##usal": 8008,
      "##aced": 8009,
      "earthly": 8010,
      "##etor": 8011,
      "02": 8012,
      "SERM": 8013,
      "##ria": 8014,
      "Stock": 8015,
      "describe": 8016,
      "##enser": 8017,
      "serves": 8018,
      "injured": 8019,
      "Conversion": 8020,
      "inflamm": 8021,
      "misfortune": 8022,
      "holl": 8023,
      "shadow": 8024,
      "shewing": 8025,
      "sacri": 8026,
      "revenue": 8027,
      "Castle": 8028,
      "4th": 8029,
      "spite": 8030,
      "Sovereign": 8031,
      "smiles": 8032,
      "bul": 8033,
      "##rick": 8034,
      "subdu": 8035,
      "Germany": 8036,
      "ate": 8037,
      "humane": 8038,
      "Ever": 8039,
      "##rase": 8040,
      "Particular": 8041,
      "Profession": 8042,
      "vest": 8043,
      "companion": 8044,
      "##ura": 8045,
      "refresh": 8046,
      "ferv": 8047,
      "rity": 8048,
      "polite": 8049,
      "overcome": 8050,
      "Scots": 8051,
      "yes": 8052,
      "Begin": 8053,
      "behalf": 8054,
      "Creator": 8055,
      "duly": 8056,
      "impl": 8057,
      "herein": 8058,
      "careless": 8059,
      "Same": 8060,
      "row": 8061,
      "annual": 8062,
      "obscure": 8063,
      "Francis": 8064,
      "NEW": 8065,
      "safely": 8066,
      "dent": 8067,
      "tone": 8068,
      "exceedingly": 8069,
      "##ugal": 8070,
      "00": 8071,
      "Bank": 8072,
      "##acles": 8073,
      "Eternity": 8074,
      "felicity": 8075,
      "Daniel": 8076,
      "gathered": 8077,
      "Host": 8078,
      "##ini": 8079,
      "entrance": 8080,
      "RO": 8081,
      "wounds": 8082,
      "##erog": 8083,
      "##itations": 8084,
      "avail": 8085,
      "situated": 8086,
      "80": 8087,
      "sale": 8088,
      "contribute": 8089,
      "pag": 8090,
      "Fel": 8091,
      "accommod": 8092,
      "malice": 8093,
      "inspired": 8094,
      "worn": 8095,
      "professed": 8096,
      "##more": 8097,
      "indulge": 8098,
      "asserted": 8099,
      "tread": 8100,
      "bod": 8101,
      "nest": 8102,
      "advers": 8103,
      "Secondly": 8104,
      "##bacco": 8105,
      "expressions": 8106,
      "##zes": 8107,
      "Door": 8108,
      "chast": 8109,
      "susp": 8110,
      "Hard": 8111,
      "insisted": 8112,
      "divide": 8113,
      "dismiss": 8114,
      "Fame": 8115,
      "acquire": 8116,
      "Crit": 8117,
      "peo": 8118,
      "dw": 8119,
      "##ato": 8120,
      "drown": 8121,
      "accomplished": 8122,
      "##otten": 8123,
      "haught": 8124,
      "##ero": 8125,
      "Ol": 8126,
      "expectation": 8127,
      "Pains": 8128,
      "##ights": 8129,
      "store": 8130,
      "Spiritual": 8131,
      "Influence": 8132,
      "openly": 8133,
      "WILLIAM": 8134,
      "foregoing": 8135,
      "Ra": 8136,
      "bishops": 8137,
      "NL": 8138,
      "exhibited": 8139,
      "wil": 8140,
      "seeking": 8141,
      "incapable": 8142,
      "Full": 8143,
      "bree": 8144,
      "Subst": 8145,
      "Instance": 8146,
      "bent": 8147,
      "gently": 8148,
      "##PP": 8149,
      "lofty": 8150,
      "invited": 8151,
      "rom": 8152,
      "treatment": 8153,
      "##ructive": 8154,
      "Kn": 8155,
      "contented": 8156,
      "administer": 8157,
      "Febru": 8158,
      "SERMON": 8159,
      "Sweet": 8160,
      "materials": 8161,
      "Sabbath": 8162,
      "akin": 8163,
      "Bra": 8164,
      "incur": 8165,
      "##LEY": 8166,
      "descended": 8167,
      "apostles": 8168,
      "Instr": 8169,
      "Au": 8170,
      "altho": 8171,
      "luxury": 8172,
      "feared": 8173,
      "Home": 8174,
      "Fox": 8175,
      "dearest": 8176,
      "doom": 8177,
      "signed": 8178,
      "##avours": 8179,
      "complaints": 8180,
      "issued": 8181,
      "neighbouring": 8182,
      "pil": 8183,
      "enquiry": 8184,
      "##course": 8185,
      "feels": 8186,
      "Emily": 8187,
      "##cho": 8188,
      "addressed": 8189,
      "priests": 8190,
      "specul": 8191,
      "springs": 8192,
      "Watch": 8193,
      "planted": 8194,
      "explained": 8195,
      "LA": 8196,
      "£.": 8197,
      "##then": 8198,
      "##anged": 8199,
      "injustice": 8200,
      "##fl": 8201,
      "persuade": 8202,
      "stars": 8203,
      "employment": 8204,
      "shelter": 8205,
      "repose": 8206,
      "vil": 8207,
      "reverence": 8208,
      "Notice": 8209,
      "Lew": 8210,
      "wi": 8211,
      "gle": 8212,
      "plent": 8213,
      "imprison": 8214,
      "56": 8215,
      "figures": 8216,
      "##GH": 8217,
      "meek": 8218,
      "Does": 8219,
      "failed": 8220,
      "Speech": 8221,
      "dangers": 8222,
      "yard": 8223,
      "assumed": 8224,
      "tomb": 8225,
      "troubled": 8226,
      "incor": 8227,
      "Doub": 8228,
      "Tongue": 8229,
      "iniquity": 8230,
      "level": 8231,
      "mixture": 8232,
      "whis": 8233,
      "Jones": 8234,
      "##rament": 8235,
      "##annel": 8236,
      "Shillings": 8237,
      "thereto": 8238,
      "welfare": 8239,
      "hav": 8240,
      "ti": 8241,
      "Learning": 8242,
      "cree": 8243,
      "eternity": 8244,
      "##OOD": 8245,
      "##ements": 8246,
      "doors": 8247,
      "plunder": 8248,
      "163": 8249,
      "anguish": 8250,
      "990": 8251,
      "None": 8252,
      "rises": 8253,
      "##och": 8254,
      "inhab": 8255,
      "##arded": 8256,
      "##ICK": 8257,
      "beast": 8258,
      "##omet": 8259,
      "estates": 8260,
      "doubtful": 8261,
      "pect": 8262,
      "succeeding": 8263,
      "concealed": 8264,
      "offers": 8265,
      "Understanding": 8266,
      "angel": 8267,
      "Sund": 8268,
      "seriously": 8269,
      "nice": 8270,
      "rele": 8271,
      "remembrance": 8272,
      "additional": 8273,
      "##icacy": 8274,
      "##cile": 8275,
      "absent": 8276,
      "rejo": 8277,
      "ordained": 8278,
      "condes": 8279,
      "Want": 8280,
      "Suffer": 8281,
      "using": 8282,
      "Ur": 8283,
      "cording": 8284,
      "obedient": 8285,
      "Iss": 8286,
      "##BERT": 8287,
      "##UST": 8288,
      "Written": 8289,
      "afforded": 8290,
      "Squ": 8291,
      "sending": 8292,
      "accustomed": 8293,
      "Legisl": 8294,
      "declares": 8295,
      "Conversation": 8296,
      "Li": 8297,
      "gun": 8298,
      "judicious": 8299,
      "invest": 8300,
      "generation": 8301,
      "toil": 8302,
      "shillings": 8303,
      "dispose": 8304,
      "Justification": 8305,
      "Original": 8306,
      "hun": 8307,
      "##allen": 8308,
      "deter": 8309,
      "sickness": 8310,
      "57": 8311,
      "Must": 8312,
      "##essions": 8313,
      "irre": 8314,
      "Jon": 8315,
      "pern": 8316,
      "drinking": 8317,
      "baptized": 8318,
      "Ach": 8319,
      "##atical": 8320,
      "landed": 8321,
      "depth": 8322,
      "Prophets": 8323,
      "Hill": 8324,
      "institution": 8325,
      "Others": 8326,
      "submission": 8327,
      "##spring": 8328,
      "Baron": 8329,
      "Protestant": 8330,
      "Win": 8331,
      "disciples": 8332,
      "##illes": 8333,
      "assigned": 8334,
      "Breast": 8335,
      "Fre": 8336,
      "Motion": 8337,
      "interested": 8338,
      "receives": 8339,
      "profound": 8340,
      "Sing": 8341,
      "mile": 8342,
      "Whilst": 8343,
      "Harry": 8344,
      "Dou": 8345,
      "##IZ": 8346,
      "unequ": 8347,
      "plains": 8348,
      "THERE": 8349,
      "indifferent": 8350,
      "liber": 8351,
      "representation": 8352,
      "hypoc": 8353,
      "cul": 8354,
      "imposed": 8355,
      "Fif": 8356,
      "##OTH": 8357,
      "##adv": 8358,
      "##SON": 8359,
      "Paper": 8360,
      "interrupted": 8361,
      "scrib": 8362,
      "ox": 8363,
      "Grief": 8364,
      "purity": 8365,
      "finish": 8366,
      "cong": 8367,
      "reality": 8368,
      "stances": 8369,
      "##uate": 8370,
      "comparison": 8371,
      "examples": 8372,
      "##otted": 8373,
      "Deliver": 8374,
      "pick": 8375,
      "examination": 8376,
      "Mult": 8377,
      "grain": 8378,
      "##umm": 8379,
      "Aside": 8380,
      "Passions": 8381,
      "Ladies": 8382,
      "DIS": 8383,
      "sounds": 8384,
      "fearful": 8385,
      "attached": 8386,
      "surprised": 8387,
      "Could": 8388,
      "suited": 8389,
      "entreat": 8390,
      "February": 8391,
      "Auth": 8392,
      "Tree": 8393,
      "##emes": 8394,
      "loy": 8395,
      "beseech": 8396,
      "liquor": 8397,
      "Evening": 8398,
      "certainty": 8399,
      "impartial": 8400,
      "ano": 8401,
      "ns": 8402,
      "##edies": 8403,
      "Misery": 8404,
      "simplicity": 8405,
      "Families": 8406,
      "indignation": 8407,
      "Heads": 8408,
      "Bull": 8409,
      "ax": 8410,
      "dren": 8411,
      "contracted": 8412,
      "drank": 8413,
      "Genius": 8414,
      "avo": 8415,
      "communicated": 8416,
      "tedious": 8417,
      "##vest": 8418,
      "Orders": 8419,
      "Manila": 8420,
      "##ogn": 8421,
      "##ari": 8422,
      "IX": 8423,
      "##cation": 8424,
      "Anne": 8425,
      "2005": 8426,
      "alarmed": 8427,
      "GEN": 8428,
      "encouragement": 8429,
      "delicacy": 8430,
      "Help": 8431,
      "answers": 8432,
      "##UC": 8433,
      "Ast": 8434,
      "##itia": 8435,
      "faults": 8436,
      "sincerely": 8437,
      "##PT": 8438,
      "54": 8439,
      "prophet": 8440,
      "resp": 8441,
      "Moral": 8442,
      "Saint": 8443,
      "Sometimes": 8444,
      "Whatever": 8445,
      "gates": 8446,
      "globe": 8447,
      "fert": 8448,
      "feast": 8449,
      "Polit": 8450,
      "##esy": 8451,
      "##AH": 8452,
      "Empire": 8453,
      "reckon": 8454,
      "foul": 8455,
      "##ipping": 8456,
      "medicine": 8457,
      "Neighbour": 8458,
      "Certain": 8459,
      "receiv": 8460,
      "ticular": 8461,
      "departure": 8462,
      "Chapter": 8463,
      "Bills": 8464,
      "Debt": 8465,
      "Whe": 8466,
      "Soon": 8467,
      "Arist": 8468,
      "Riches": 8469,
      "vale": 8470,
      "##ORT": 8471,
      "eth": 8472,
      "Commons": 8473,
      "smiling": 8474,
      "recorded": 8475,
      "game": 8476,
      "frown": 8477,
      "fest": 8478,
      "beasts": 8479,
      "AB": 8480,
      "##emon": 8481,
      "##ICH": 8482,
      "bush": 8483,
      "withdraw": 8484,
      "##ita": 8485,
      "cove": 8486,
      "continuance": 8487,
      "division": 8488,
      "Rights": 8489,
      "Matters": 8490,
      "instruments": 8491,
      "Cow": 8492,
      "##rels": 8493,
      "##agger": 8494,
      "ALL": 8495,
      "Thanks": 8496,
      "elected": 8497,
      "suf": 8498,
      "Os": 8499,
      "rub": 8500,
      "scandal": 8501,
      "##URE": 8502,
      "nose": 8503,
      "##ortunities": 8504,
      "Relation": 8505,
      "unnecess": 8506,
      "discont": 8507,
      "suspicion": 8508,
      "discuss": 8509,
      "resolve": 8510,
      "tu": 8511,
      "##orate": 8512,
      "##eties": 8513,
      "travel": 8514,
      "Communion": 8515,
      "standard": 8516,
      "coat": 8517,
      "resembling": 8518,
      "ced": 8519,
      "steal": 8520,
      "Admin": 8521,
      "fab": 8522,
      "Credit": 8523,
      "ray": 8524,
      "series": 8525,
      "steady": 8526,
      "stick": 8527,
      "chains": 8528,
      "Play": 8529,
      "Cec": 8530,
      "##wealth": 8531,
      "##inet": 8532,
      "##VI": 8533,
      "##itent": 8534,
      "moist": 8535,
      "Islands": 8536,
      "window": 8537,
      "obtaining": 8538,
      "wives": 8539,
      "treach": 8540,
      "vernment": 8541,
      "##asphem": 8542,
      "ba": 8543,
      "sung": 8544,
      "bag": 8545,
      "shepherd": 8546,
      "instructed": 8547,
      "Carolina": 8548,
      "uses": 8549,
      "##ingham": 8550,
      "expedition": 8551,
      "SPi": 8552,
      "exchange": 8553,
      "Piety": 8554,
      "nd": 8555,
      "##ableness": 8556,
      "inspire": 8557,
      "##ORY": 8558,
      "signifies": 8559,
      "Connect": 8560,
      "Hours": 8561,
      "Andrew": 8562,
      "Global": 8563,
      "Grave": 8564,
      "bills": 8565,
      "##dess": 8566,
      "Resurrection": 8567,
      "flying": 8568,
      "Affection": 8569,
      "wheel": 8570,
      "preservation": 8571,
      "ham": 8572,
      "dign": 8573,
      "##gest": 8574,
      "##adem": 8575,
      "Plan": 8576,
      "##unto": 8577,
      "##ciation": 8578,
      "##cible": 8579,
      "unse": 8580,
      "##arrison": 8581,
      "flew": 8582,
      "carriage": 8583,
      "##iege": 8584,
      "assume": 8585,
      "Max": 8586,
      "expressly": 8587,
      "rays": 8588,
      "##osph": 8589,
      "Imper": 8590,
      "renewed": 8591,
      "##borough": 8592,
      "##orial": 8593,
      "cheap": 8594,
      "fluid": 8595,
      "treasure": 8596,
      "chapter": 8597,
      "Hopes": 8598,
      "Wherefore": 8599,
      "58": 8600,
      "streams": 8601,
      "producing": 8602,
      "Silver": 8603,
      "##ault": 8604,
      "residence": 8605,
      "##izes": 8606,
      "patron": 8607,
      "vigorous": 8608,
      "reserved": 8609,
      "Sister": 8610,
      "##ogue": 8611,
      "selfish": 8612,
      "apartment": 8613,
      "hs": 8614,
      "##IE": 8615,
      "formid": 8616,
      "incomp": 8617,
      "stopped": 8618,
      "oc": 8619,
      "western": 8620,
      "Exercise": 8621,
      "tempted": 8622,
      "bon": 8623,
      "##atry": 8624,
      "spark": 8625,
      "Reven": 8626,
      "##ifice": 8627,
      "supper": 8628,
      "wed": 8629,
      "##sters": 8630,
      "desperate": 8631,
      "Change": 8632,
      "enthus": 8633,
      "volume": 8634,
      "sul": 8635,
      "deck": 8636,
      "Compan": 8637,
      "voluntary": 8638,
      "bour": 8639,
      "Incl": 8640,
      "Believers": 8641,
      "nity": 8642,
      "##orney": 8643,
      "severity": 8644,
      "mas": 8645,
      "Univers": 8646,
      "resistance": 8647,
      "management": 8648,
      "brain": 8649,
      "whither": 8650,
      "beside": 8651,
      "transport": 8652,
      "misfortunes": 8653,
      "sincerity": 8654,
      "##mity": 8655,
      "Cloud": 8656,
      "offering": 8657,
      "irrit": 8658,
      "gifts": 8659,
      "##adise": 8660,
      "sixth": 8661,
      "##ipped": 8662,
      "strait": 8663,
      "Il": 8664,
      "Leave": 8665,
      "Winds": 8666,
      "limbs": 8667,
      "surprise": 8668,
      "##aks": 8669,
      "strengthen": 8670,
      "ceive": 8671,
      "usurp": 8672,
      "rightly": 8673,
      "impatient": 8674,
      "sooth": 8675,
      "seas": 8676,
      "ally": 8677,
      "eating": 8678,
      "bath": 8679,
      "serving": 8680,
      "shun": 8681,
      "merchants": 8682,
      "Righteous": 8683,
      "Eu": 8684,
      "regions": 8685,
      "parted": 8686,
      "comfortable": 8687,
      "Small": 8688,
      "cab": 8689,
      "implies": 8690,
      "##andy": 8691,
      "Rece": 8692,
      "accus": 8693,
      "draws": 8694,
      "Av": 8695,
      "Tell": 8696,
      "abb": 8697,
      "poetry": 8698,
      "Value": 8699,
      "affectionate": 8700,
      "advised": 8701,
      "Ignor": 8702,
      "affecting": 8703,
      "dominions": 8704,
      "##ABLE": 8705,
      "respectable": 8706,
      "Passage": 8707,
      "hi": 8708,
      "Marquis": 8709,
      "Phar": 8710,
      "##amph": 8711,
      "cultivated": 8712,
      "smallest": 8713,
      "intent": 8714,
      "##chester": 8715,
      "Sophia": 8716,
      "jealousy": 8717,
      "Salt": 8718,
      "surre": 8719,
      "applic": 8720,
      "principally": 8721,
      "senate": 8722,
      "cured": 8723,
      "leisure": 8724,
      "construction": 8725,
      "vicious": 8726,
      "Priests": 8727,
      "Affections": 8728,
      "##criptions": 8729,
      "Linn": 8730,
      "faction": 8731,
      "introduce": 8732,
      "Instances": 8733,
      "sorrows": 8734,
      "Than": 8735,
      "torn": 8736,
      "conse": 8737,
      "anxiety": 8738,
      "hatred": 8739,
      "unexpected": 8740,
      "strive": 8741,
      "##ha": 8742,
      "##ungs": 8743,
      "##iti": 8744,
      "select": 8745,
      "feathers": 8746,
      "Disciples": 8747,
      "sequ": 8748,
      "##ignt": 8749,
      "intimate": 8750,
      "twas": 8751,
      "Lucy": 8752,
      "##off": 8753,
      "merchant": 8754,
      "treas": 8755,
      "Desp": 8756,
      "ol": 8757,
      "##ulse": 8758,
      "tribes": 8759,
      "steep": 8760,
      "forgotten": 8761,
      "##can": 8762,
      "reduce": 8763,
      "Hebrew": 8764,
      "om": 8765,
      "##inement": 8766,
      "shades": 8767,
      "Guard": 8768,
      "precise": 8769,
      "##ourses": 8770,
      "Bal": 8771,
      "younger": 8772,
      "##inated": 8773,
      "sway": 8774,
      "MY": 8775,
      "mock": 8776,
      "pert": 8777,
      "##engers": 8778,
      "##rated": 8779,
      "##ifie": 8780,
      "grove": 8781,
      "Waters": 8782,
      "nigh": 8783,
      "##eeper": 8784,
      "##uts": 8785,
      "expres": 8786,
      "Lover": 8787,
      "##bishop": 8788,
      "solic": 8789,
      "neat": 8790,
      "pronounced": 8791,
      "##ching": 8792,
      "',": 8793,
      "plate": 8794,
      "NOT": 8795,
      "devour": 8796,
      "pernicious": 8797,
      "sensibility": 8798,
      "nu": 8799,
      "balance": 8800,
      "across": 8801,
      "Execution": 8802,
      "##sa": 8803,
      "Sel": 8804,
      "tar": 8805,
      "##ington": 8806,
      "Marriage": 8807,
      "Street": 8808,
      "Moment": 8809,
      "destructive": 8810,
      "experiment": 8811,
      "integrity": 8812,
      "Sorrow": 8813,
      "Defence": 8814,
      "stance": 8815,
      "##OST": 8816,
      "Pi": 8817,
      "##ram": 8818,
      "aggrav": 8819,
      "dar": 8820,
      "Destruction": 8821,
      "listen": 8822,
      "jun": 8823,
      "dew": 8824,
      "seated": 8825,
      "obstruct": 8826,
      "ah": 8827,
      "companions": 8828,
      "##alled": 8829,
      "carries": 8830,
      "Isai": 8831,
      "features": 8832,
      "63": 8833,
      "relates": 8834,
      "##ocity": 8835,
      "altar": 8836,
      "Tart": 8837,
      "reflections": 8838,
      "Judgments": 8839,
      "GRE": 8840,
      "customs": 8841,
      "tall": 8842,
      "upwards": 8843,
      "Connecticut": 8844,
      "LOND": 8845,
      "conveyed": 8846,
      "wet": 8847,
      "awak": 8848,
      "depos": 8849,
      "wont": 8850,
      "meetings": 8851,
      "moments": 8852,
      "##arse": 8853,
      "##che": 8854,
      "stern": 8855,
      "busy": 8856,
      "Burn": 8857,
      "COL": 8858,
      "SU": 8859,
      "committee": 8860,
      "##ocation": 8861,
      "##atis": 8862,
      "solicit": 8863,
      "lustre": 8864,
      "##ounced": 8865,
      "##000": 8866,
      "cas": 8867,
      "subord": 8868,
      "##acks": 8869,
      "effected": 8870,
      "heavens": 8871,
      "CAR": 8872,
      "Eff": 8873,
      "tem": 8874,
      "Hol": 8875,
      "willingly": 8876,
      "luck": 8877,
      "##rian": 8878,
      "noon": 8879,
      "Benefit": 8880,
      "Ende": 8881,
      "Messiah": 8882,
      "Anno": 8883,
      "Supper": 8884,
      "foes": 8885,
      "Spenser": 8886,
      "##omination": 8887,
      "ardent": 8888,
      "Murder": 8889,
      "##oup": 8890,
      "FINIS": 8891,
      "barren": 8892,
      "Creation": 8893,
      "##essed": 8894,
      "altern": 8895,
      "Enjoy": 8896,
      "FROM": 8897,
      "Sit": 8898,
      "secre": 8899,
      "DR": 8900,
      "##aired": 8901,
      "wherever": 8902,
      "##ousness": 8903,
      "enorm": 8904,
      "2006": 8905,
      "##llor": 8906,
      "Seal": 8907,
      "##SS": 8908,
      "##gedy": 8909,
      "indulgence": 8910,
      "Little": 8911,
      "Cand": 8912,
      "Exam": 8913,
      "countrymen": 8914,
      "Benj": 8915,
      "##nant": 8916,
      "seeming": 8917,
      "Election": 8918,
      "##isk": 8919,
      "seeds": 8920,
      "detest": 8921,
      "directions": 8922,
      "revelation": 8923,
      "smell": 8924,
      "increasing": 8925,
      "LONDON": 8926,
      "bly": 8927,
      "##esis": 8928,
      "confed": 8929,
      "Canada": 8930,
      "Fra": 8931,
      "##ifully": 8932,
      "Chance": 8933,
      "Stand": 8934,
      "charges": 8935,
      "discretion": 8936,
      "undone": 8937,
      "Low": 8938,
      "daring": 8939,
      "lowest": 8940,
      "earli": 8941,
      "##ovah": 8942,
      "mong": 8943,
      "##rich": 8944,
      "partake": 8945,
      "Also": 8946,
      "probability": 8947,
      "Eli": 8948,
      "China": 8949,
      "Promises": 8950,
      "pictures": 8951,
      "Jun": 8952,
      "faculties": 8953,
      "wra": 8954,
      "##ael": 8955,
      "09": 8956,
      "cu": 8957,
      "75": 8958,
      "##ignty": 8959,
      "doubted": 8960,
      "ou": 8961,
      "roots": 8962,
      "compelled": 8963,
      "lock": 8964,
      "thyself": 8965,
      "merciful": 8966,
      "Masters": 8967,
      "##uming": 8968,
      "##cian": 8969,
      "hollow": 8970,
      "formidable": 8971,
      "Wo": 8972,
      "Non": 8973,
      "##nings": 8974,
      "notions": 8975,
      "vote": 8976,
      "cutting": 8977,
      "##ba": 8978,
      "Scotch": 8979,
      "Imag": 8980,
      "rust": 8981,
      "breed": 8982,
      "boys": 8983,
      "##car": 8984,
      "##isible": 8985,
      "##astic": 8986,
      "Causes": 8987,
      "cited": 8988,
      "##FF": 8989,
      "edge": 8990,
      "poem": 8991,
      "Courage": 8992,
      "splendid": 8993,
      "quarters": 8994,
      "urge": 8995,
      "flames": 8996,
      "##ERIC": 8997,
      "confessed": 8998,
      "resc": 8999,
      "favoured": 9000,
      "intercourse": 9001,
      "derive": 9002,
      "tribe": 9003,
      "unnecessary": 9004,
      "##ifi": 9005,
      "##eps": 9006,
      "pleases": 9007,
      "affliction": 9008,
      "GE": 9009,
      "judg": 9010,
      "drove": 9011,
      "##elestial": 9012,
      "Import": 9013,
      "BL": 9014,
      "##yer": 9015,
      "90": 9016,
      "Fin": 9017,
      "Very": 9018,
      "##ieur": 9019,
      "methods": 9020,
      "59": 9021,
      "warmth": 9022,
      "firmly": 9023,
      "Buck": 9024,
      "Treas": 9025,
      "thor": 9026,
      "myster": 9027,
      "assisted": 9028,
      "lordship": 9029,
      "Sar": 9030,
      "Heathen": 9031,
      "##ida": 9032,
      "Five": 9033,
      "meas": 9034,
      "attacked": 9035,
      "pred": 9036,
      "Wa": 9037,
      "amazing": 9038,
      "Vers": 9039,
      "obligations": 9040,
      "Lev": 9041,
      "Himself": 9042,
      "noted": 9043,
      "Choice": 9044,
      "supplies": 9045,
      "merry": 9046,
      "##adows": 9047,
      "leaf": 9048,
      "Edin": 9049,
      "##orated": 9050,
      "aven": 9051,
      "##iner": 9052,
      "stamp": 9053,
      "gratify": 9054,
      "Italian": 9055,
      "despised": 9056,
      "objections": 9057,
      "translated": 9058,
      "fulfilled": 9059,
      "touched": 9060,
      "constr": 9061,
      "caut": 9062,
      "dollars": 9063,
      "Fer": 9064,
      "Blessings": 9065,
      "lieve": 9066,
      "##olves": 9067,
      "roof": 9068,
      "neighbourhood": 9069,
      "conver": 9070,
      "PAGE": 9071,
      "abol": 9072,
      "accused": 9073,
      "disap": 9074,
      "Margaret": 9075,
      "appointment": 9076,
      "Drink": 9077,
      "kingdoms": 9078,
      "##anes": 9079,
      "decision": 9080,
      "estim": 9081,
      "##ICAL": 9082,
      "quarrel": 9083,
      "##mo": 9084,
      "##arice": 9085,
      "infirm": 9086,
      "##bel": 9087,
      "##outs": 9088,
      "##IES": 9089,
      "haughty": 9090,
      "intreat": 9091,
      "Wed": 9092,
      "alleg": 9093,
      "##pton": 9094,
      "cruc": 9095,
      "##prize": 9096,
      "scale": 9097,
      "harbour": 9098,
      "corner": 9099,
      "uneasy": 9100,
      "HAV": 9101,
      "attract": 9102,
      "pest": 9103,
      "##ounding": 9104,
      "knock": 9105,
      "acceptable": 9106,
      "tance": 9107,
      "Ruin": 9108,
      "Cup": 9109,
      "commons": 9110,
      "Det": 9111,
      "Edu": 9112,
      "create": 9113,
      "afflict": 9114,
      "appropri": 9115,
      "ps": 9116,
      "faithfully": 9117,
      "crying": 9118,
      "odious": 9119,
      "vary": 9120,
      "peas": 9121,
      "Lieutenant": 9122,
      "prejudices": 9123,
      "##inqu": 9124,
      "Wid": 9125,
      "ses": 9126,
      "##ker": 9127,
      "Hamp": 9128,
      "Opportunity": 9129,
      "Oath": 9130,
      "##gans": 9131,
      "declaring": 9132,
      "65": 9133,
      "pitch": 9134,
      "##illa": 9135,
      "resem": 9136,
      "Alth": 9137,
      "grey": 9138,
      "needful": 9139,
      "apprehension": 9140,
      "southern": 9141,
      "mould": 9142,
      "##anation": 9143,
      "Merit": 9144,
      "##ench": 9145,
      "165": 9146,
      "abundantly": 9147,
      "seventh": 9148,
      "##osa": 9149,
      "shield": 9150,
      "##olate": 9151,
      "Towns": 9152,
      "##quisite": 9153,
      "Assistance": 9154,
      "Grant": 9155,
      "Twas": 9156,
      "##utor": 9157,
      "imply": 9158,
      "abide": 9159,
      "abandon": 9160,
      "decline": 9161,
      "complex": 9162,
      "disappointed": 9163,
      "readers": 9164,
      "##vent": 9165,
      "##rad": 9166,
      "agent": 9167,
      "##eper": 9168,
      "##aylor": 9169,
      "Concl": 9170,
      "162": 9171,
      "##imen": 9172,
      "animated": 9173,
      "Dog": 9174,
      "compare": 9175,
      "Super": 9176,
      "quantities": 9177,
      "walks": 9178,
      "odd": 9179,
      "reveal": 9180,
      "66": 9181,
      "##non": 9182,
      "##bri": 9183,
      "Heirs": 9184,
      "sustain": 9185,
      "Folly": 9186,
      "aunt": 9187,
      "2004": 9188,
      "san": 9189,
      "ancestors": 9190,
      "##inc": 9191,
      "push": 9192,
      "collection": 9193,
      "Fred": 9194,
      "Mi": 9195,
      "##full": 9196,
      "contest": 9197,
      "devotion": 9198,
      "undertake": 9199,
      "Ve": 9200,
      "arrest": 9201,
      "Weak": 9202,
      "maxim": 9203,
      "Nav": 9204,
      "##cieties": 9205,
      "Revelation": 9206,
      "burden": 9207,
      "##ulture": 9208,
      "Affair": 9209,
      "magistrates": 9210,
      "energy": 9211,
      "graces": 9212,
      "Twenty": 9213,
      "tumult": 9214,
      "preparing": 9215,
      "innum": 9216,
      "Patience": 9217,
      "Harm": 9218,
      "##cients": 9219,
      "ts": 9220,
      "alled": 9221,
      "submitted": 9222,
      "terrif": 9223,
      "Mean": 9224,
      "Months": 9225,
      "mentions": 9226,
      "dered": 9227,
      "morals": 9228,
      "QU": 9229,
      "supposition": 9230,
      "Punishment": 9231,
      "##olk": 9232,
      "Weight": 9233,
      "communicate": 9234,
      "##gent": 9235,
      "##atio": 9236,
      "formal": 9237,
      "Profess": 9238,
      "Dur": 9239,
      "Pil": 9240,
      "plun": 9241,
      "##ethinks": 9242,
      "reformation": 9243,
      "majority": 9244,
      "admirable": 9245,
      "excessive": 9246,
      "obstinate": 9247,
      "##rage": 9248,
      "trump": 9249,
      "Swed": 9250,
      "64": 9251,
      "##forts": 9252,
      "dispens": 9253,
      "virgin": 9254,
      "ul": 9255,
      "brow": 9256,
      "Bird": 9257,
      "eve": 9258,
      "applause": 9259,
      "withal": 9260,
      "instructions": 9261,
      "Bottom": 9262,
      "tub": 9263,
      "extingu": 9264,
      "Heavens": 9265,
      "THOM": 9266,
      "surrender": 9267,
      "Pot": 9268,
      "##com": 9269,
      "##port": 9270,
      "awaken": 9271,
      "##lot": 9272,
      "##OB": 9273,
      "ceremony": 9274,
      "throat": 9275,
      "rebellion": 9276,
      "##acent": 9277,
      "ports": 9278,
      "Hero": 9279,
      "Transl": 9280,
      "fulness": 9281,
      "peculiarly": 9282,
      "Difference": 9283,
      "ranks": 9284,
      "flag": 9285,
      "fib": 9286,
      "##oa": 9287,
      "unav": 9288,
      "Reformation": 9289,
      "Numbers": 9290,
      "##peak": 9291,
      "abode": 9292,
      "Measure": 9293,
      "sworn": 9294,
      "Compass": 9295,
      "2009": 9296,
      "Math": 9297,
      "manly": 9298,
      "pocket": 9299,
      "Arguments": 9300,
      "Soldiers": 9301,
      "pulse": 9302,
      "Issue": 9303,
      "unwilling": 9304,
      "Sound": 9305,
      "##worth": 9306,
      "enjoin": 9307,
      "##apes": 9308,
      "prel": 9309,
      "contradict": 9310,
      "##ongues": 9311,
      "Beau": 9312,
      "referred": 9313,
      "##ailed": 9314,
      "Nov": 9315,
      "yards": 9316,
      "guardian": 9317,
      "Redemption": 9318,
      "Half": 9319,
      "Histor": 9320,
      "signify": 9321,
      "knees": 9322,
      "Rock": 9323,
      "##igs": 9324,
      "avoided": 9325,
      "omitted": 9326,
      "governments": 9327,
      "Religious": 9328,
      "Beginning": 9329,
      "ruins": 9330,
      "ix": 9331,
      "arrange": 9332,
      "Trave": 9333,
      "##sex": 9334,
      "lodged": 9335,
      "crew": 9336,
      "Isab": 9337,
      "recovery": 9338,
      "XI": 9339,
      "Living": 9340,
      "subsequ": 9341,
      "relax": 9342,
      "assurance": 9343,
      "honoured": 9344,
      "citizen": 9345,
      "Sentence": 9346,
      "commence": 9347,
      "Perfection": 9348,
      "Sermons": 9349,
      "Emb": 9350,
      "##ibb": 9351,
      "contend": 9352,
      "62": 9353,
      "block": 9354,
      "communion": 9355,
      "fulfil": 9356,
      "##ailing": 9357,
      "resemblance": 9358,
      "poll": 9359,
      "tained": 9360,
      "##uously": 9361,
      "favours": 9362,
      "Liqu": 9363,
      "finest": 9364,
      "##aping": 9365,
      "Shakes": 9366,
      "Record": 9367,
      "surprize": 9368,
      "anchor": 9369,
      "rum": 9370,
      "enquir": 9371,
      "annexed": 9372,
      "##eling": 9373,
      "bleeding": 9374,
      "Cold": 9375,
      "adher": 9376,
      "villain": 9377,
      "fidelity": 9378,
      "profitable": 9379,
      "ceased": 9380,
      "##riages": 9381,
      "quad": 9382,
      "Honourable": 9383,
      "flowing": 9384,
      "Piece": 9385,
      "converse": 9386,
      "reckoned": 9387,
      "exhausted": 9388,
      "##OOK": 9389,
      "seasons": 9390,
      "altered": 9391,
      "Representatives": 9392,
      "Precept": 9393,
      "industrious": 9394,
      "surp": 9395,
      "##gu": 9396,
      "Bon": 9397,
      "##mpt": 9398,
      "##ERV": 9399,
      "supposes": 9400,
      "nearest": 9401,
      "latitude": 9402,
      "rious": 9403,
      "tation": 9404,
      "Scene": 9405,
[...]
