writes
tempests
orbs
conquered
Awe
Free
131
disease
Left
diseng
inglorious
Traveller
pupp
Jerom
Ran
needs
LEG
Either
venture
##ming
railing
Bomb
##ette
Juliet
abortive
Elections
##η
Places
alarming
monarchy
und
forsake
impres
rake
agility
failed
ragement
opulence
EX
##eper
stood
Interv
coup
aspir
ten
IR
rope
illusion
Necessaries
##ann
Liter
espoused
annum
solemnity
adhered
2007
##son
squeeze
Graves
commer
Lights
Twas
machines
AUTH
February
Faction
##ACH
Mourning
richer
PETER
cinereous
##iture
ner
Venetian
Sh
Some
stra
LONDON
blessing
##BR
wisest
##fter
##alogue
cultivation
Pho
whereof
causeth
persw
VI
Grow
##ammon
Medi
hurried
incumbent
hunter
pa
intemperance
lx
practis
degrade
luxurious
wedlock
##rescent
actors
151
##ufact
rags
deck
ravages
However
voices
harvest
,;
##PH
despond
given
##item
founder
communic
keepeth
Fid
INTROD
wire
T
Entry
allow
About
barely
Carl
copper
Heb
Fierce
Esau
pump
Tru
Babes
Euse
Mob
indemn
terror
260
##pill
medicinal
baff
dining
propose
random
hazards
obliga
Inquisition
purest
new
##vance
##↑
Manly
defraud
whereon
HENCE
narrative
quid
##otes
rot
relation
fatigued
Interpretation
Orphans
##briety
##AST
sweep
adjudged
exceeds
Cecil
xxviii
rful
##gments
bes
Cloths
destroying
information
emolument
sperm
Norfolk
dus
collected
Fa
cing
Ve
##IRD
##asters
FO
TRE
beaver
Jerusalem
Righte
Letters
##icted
##ñ
Rou
dilemma
lover
untimely
Pe
conjunct
##allen
foul
consumm
knee
##hol
Reproaches
unanimous
upwards
consequences
##ino
Half
Scenes
gation
used
heaving
mihi
assid
Start
em
Cav
sne
ster
Discord
pulp
originally
##fere
glands
multitude
Religious
Whatsoever
moist
Deb
balm
following
Sch
practised
acquir
Albert
Sub
thous
Threat
Transport
common
Springs
Alci
craft
derstanding
##ortun
Turn
territory
March
essentially
affectionately
Fourthly
moderate
United
##gency
rav
##(
copy
ves
carried
##fish
BI
promisc
##ota
impenitent
Being
CONS
banish
helmet
280
politeness
£
allusion
##IENT
mothers
included
plat
##ef
##eep
scattered
drag
ist
glimmer
HARDCASTLE
tern
Philips
SEC
propensities
32
matchless
##bted
##ism
Herod
esse
Marble
gloom
Dw
hog
explained
secund
Guards
Polish
❍
preserve
walketh
##estine
recesses
compet
inspir
##rian
borrow
welcom
warning
fortified
tap
fault
Secret
twelve
Humb
occurred
orient
Charity
##urn
prefix
diminished
ELE
interspersed
indicate
cable
Swain
African
cav
SU
JO
Dif
dissolv
Discovery
##self
Hair
##ITE
##00
##irac
##ogether
reproved
##animity
flourish
Oc
##owe
beth
##umont
con
Reverence
Nile
##ipp
Netherlands
expansion
monuments
##DEN
whate
hare
gid
heav
Goths
##iable
Revolution
insensible
Chamber
comedy
iss
##CELL
custody
ensl
Ignorant
cles
accrue
##ipotence
horn
tenth
Miller
brain
antagon
Lawyer
##ut
benev
imagined
Episcopacy
tresses
tered
Vin
execut
subserv
salvation
Pulse
massac
rar
Wishes
Haven
resolutely
cloths
compares
Characters
version
ir
##olical
##ela
debility
dé
restoring
posses
climates
prod
##ram
calam
##cs
Buffon
unshaken
rous
lution
patrons
Cares
☜
David
Pom
Territ
prais
Marqu
opulent
flattered
engraven
Prologue
/;
plant
fourscore
Cook
Superiority
Presbyterian
campaign
exclusion
jection
consist
insomuch
Clare
cept
3000
FUR
MID
##ause
Juices
gains
hindred
discred
Lep
glimpse
month
Years
##ulses
owned
hurric
met
Limitation
##ioness
noblemen
dau
equilib
begins
invariably
intimacy
##ysentery
unerring
condescended
REF
horse
chick
plow
threat
spears
POW
Claud
Father
beet
adv
pinions
Steal
carefully
SON
Dion
fashionable
spurious
ended
natu
Worms
reasoning
situate
Batter
grounds
Wheels
219
Rol
unass
Inoc
Tho
caus
##mans
DCC
Collect
pyram
conclusive
Dist
amounted
sav
debil
##itched
##IBLE
##oward
became
##olf
pestil
rip
instructing
Fraud
examining
##ava
harang
##aments
Jus
Moses
gloss
eaten
Pri
strenuously
1719
jur
extending
diseased
ante
##OPLE
rable
homely
bush
fusion
disli
opinions
whole
depth
114
Dutch
##ancies
Edinburgh
Evangel
supposes
unavoidably
wildly
watering
Drury
Soph
GE
Swine
greatly
disposi
Meaning
Gl
becoming
DI
##fc
dip
##ishments
Cau
Hick
edness
Wond
##ell
beak
Grecians
beard
Sever
malt
consort
scent
drench
215
trials
pregn
wheat
tranquility
##isted
Disobedience
contents
reputed
aliqu
according
invol
reign
saint
Baxter
Sway
Remark
Differ
remembers
pens
Attempt
enjoin
hydro
##ECK
tbe
Opera
described
doors
fearful
absorb
strictness
##Ζ
ancestor
##ush
distribute
faction
peculiarities
gilt
vis
Diet
thank
Corpus
epistles
Nichol
County
burnt
##ona
Bac
RO
spe
Conjunction
Truth
ignorant
Lancaster
asked
Fools
hinders
signifies
abusing
Orkney
hic
ditto
Advancement
coffee
Bowels
Attachment
exacted
ne
##aunted
impert
gulf
betrayed
##ending
Mahometans
reflex
improbable
PHIL
Brazil
tithes
retreated
Mississ
Cards
unwarrantable
THEATRE
thunders
##rot
appointed
favoured
deliver
surpr
##eller
##ression
HARRIET
THEIR
strings
wrapt
Revelations
Grotius
##itives
##itian
unexampled
abomination
pins
hung
Take
##aul
amazement
##rous
epithet
purpose
Shakespe
intrig
attempt
Gifts
##ibal
Boast
unpleasant
FAITH
##INE
Godly
##ulties
39
Evils
awa
clandestine
rightful
##text
impossibility
trust
varieg
wont
Spani
seiz
##Τ
Indif
##folk
commenced
HON
wheres
Learn
needed
problem
tendency
Although
eon
Phara
importunate
not
rejoic
diately
þ
Spec
bravery
##wyn
distracted
subt
Governours
conscientious
houshold
Barbar
realize
Hil
rei
apartments
inaccessible
sweeten
##ambers
##KS
strugg
##ached
Neglect
Literature
indign
Bot
des
Latin
Dung
##orate
##eror
Ut
ways
traced
xlv
closing
Treatise
##asi
##arily
calling
logic
##fe
premature
##oping
carelessly
Power
Thankfulness
Consequently
##anc
exig
bowing
assiduity
bitants
deals
Inconven
Flax
wee
##ved
MART
nephew
Wear
relax
compulsion
fraudulent
speculative
##ass
compar
Bab
Lustre
Ladies
##erness
##aid
##fo
thoughtless
naked
Crown
protection
♄
Rejoy
conformed
instru
Γ
☌
WAT
Pastor
Drake
##è
Ensign
Perj
##oured
promotes
##gery
##ally
Mask
Floor
##arian
##pable
primarily
##inqu
##B
vote
Paths
Englishmen
putref
##iums
Demosthenes
sions
##ude
faculty
spoonful
Earnest
Nor
Tri
enfor
sumed
Representative
backward
stormy
tricks
proud
##ci
loudly
Har
evac
Bliss
amaz
notable
Tend
##ao
Advers
ste
observation
aught
destiny
Saving
##animous
idea
renowned
late
illeg
##idered
sections
slander
##urance
linger
Mouth
Lot
tim
Disturb
Nons
##isters
falshood
removed
elle
##ilight
Wolf
serv
##asso
bo
widows
Hus
tual
shouldst
##pir
Cloth
##ivation
free
circumcised
Charlestown
Severus
xxxii
rat
Bengal
secreted
brisk
successfully
leg
quadrup
tuf
intrepidity
cake
engagements
delinqu
##rily
aye
Sept
stem
Themselves
Crow
59
shru
hasty
vertical
jointly
tina
historian
fer
Injust
rises
contrasted
blotted
papists
breakfast
authent
contag
Swords
susp
Christopher
sailor
credulity
bestowed
Antiq
FINIS
sun
unin
Lake
virtue
soci
Journey
thers
Return
indul
attacked
subsequent
Mark
tate
SECT
Samar
disappointment
##aze
committee
##ANT
Remembrance
suitable
Property
Ought
Leisure
code
OLD
##vern
Dispensation
peculiar
ug
Ti
Scriptures
granting
##ym
physical
compositions
Ford
##ich
saw
Moss
##quam
implored
voice
Wils
formality
discovers
Academ
Trea
lewd
Maint
More
##cede
ineffable
channels
Cash
liquor
Monk
##otton
ridge
##inc
meet
uncultivated
##vity
##epen
alike
##cha
##robri
inquisitive
helpless
impure
brotherly
##ners
Grim
##gen
perjury
cells
Sandwich
##ruption
##ler
frame
Jacob
bosom
camel
soothing
magn
preceding
Flora
Quince
assistants
Proprietor
##stead
##astly
Elements
38
rejoy
disagre
Darn
Edition
99
surrender
with
punish
XXXIV
139
##UST
years
HARRY
tain
superl
Recommend
##icient
Alt
Destroy
dramatic
Nebuch
educ
FIN
To
##OID
watched
prophes
Dub
Have
warmly
pea
removal
.,
Ogil
Ans
Certificate
ν
##Ι
Hastings
Richardson
Vegetables
Survey
bays
shower
Physic
##ers
cometh
undefiled
preceeding
volcano
##☜
suffrage
gifts
Turk
rulers
##amon
calculation
Pattern
enh
##ARK
Lions
##ʒ
##ANCY
exile
obstin
multi
confound
fib
benevolent
##lem
aboard
neighbours
pilot
excesses
Knife
Tie
##ities
effectual
rele
Generals
missing
##itous
La
Berry
nity
sumpt
fatigues
dians
nent
dead
Forth
weariness
fitted
Especially
deme
Pr
Lodge
hedge
fleets
invention
rascal
firm
Quant
tinct
diet
Ps
depression
Resignation
Eugen
delicacy
DON
downward
##eas
Delivery
illum
revolt
Cle
symbol
quence
1690
Mortimer
sinking
Dishonour
intrinsic
vagab
pardoning
##anus
Turning
interposed
ibid
ice
rus
Favourite
apology
detestation
ph
contiguous
Ple
Stranger
##quired
Rhetor
Breast
garments
tenacious
summary
unchar
Wynd
Pudding
af
distinct
preserving
unexceptionable
Tenor
tending
establishing
##cians
##tom
smiling
aether
Cog
taint
front
##edies
##arms
farther
nons
Modern
Text
touches
merce
##utive
seated
gracious
Henley
cleans
Say
ret
Fly
hole
middle
enem
##indle
ṡ
continent
##conduct
houfe
Gas
Feb
##rets
three
elab
theology
249
perplexity
stated
refusing
baths
wea
riding
unlike
younger
partakes
☉
diff
ants
Bless
##lemn
remot
Isab
Lucret
fore
CONC
Fing
presumption
gravy
sorely
bit
uncom
contemplate
cian
painting
Rew
Celest
Clinton
##nex
##uations
tracted
payments
Fill
examination
bringing
273
Ashes
nishment
##iles
popularity
rolls
MEM
lusts
##quisition
situ
uninter
House
Davis
Supposing
mamm
##rav
Thurs
fic
repose
unwel
multiplying
arrog
MOD
SHE
note
##gan
Fore
fully
##ome
weakest
fortitude
Massachuse
##UG
JUST
##ateral
Josh
##ergy
lords
##uen
Remo
troubles
##ield
fact
Abb
##vances
View
liberal
Warwick
beaut
##cer
Sake
other
CAN
?"—
quit
##bra
##hem
tyrann
Fee
##ETH
keeper
Eccl
##il
alm
person
Helen
solicit
Κ
neighbouring
▵
##vo
Fig
Successor
correction
##aston
begets
mutil
swift
##ological
Capacities
Greatness
##atch
recur
##aling
bi
##ability
manoe
Information
vapours
Expect
immunities
##uck
Lungs
Faith
Process
purity
cloudy
lished
enrapt
##Ē
##Ʋ
decrees
GOLD
complex
tas
painful
accompanies
##bbing
##ont
specifically
##oster
Tory
Tat
ted
##rate
formal
noblest
##lius
Waters
conference
castles
§
restrained
engagement
window
settlers
easiness
##{
shilling
Chandler
##DAY
es
mend
proofs
##nn
composing
column
?"
Theod
resorted
##asures
Rose
reprim
Satan
Persec
impost
∣
Berke
Proceed
##URAL
nutrit
yards
enlarged
Pole
within
Marlborough
incontest
##umen
toms
dirty
determining
laurel
Cou
commodious
sanction
##gy
acquisitions
GH
Sarah
Fond
uncle
territ
hardest
##erk
Penns
##osterous
punctually
Juris
stun
Lift
##,
encour
merry
Cruel
unlawful
ungr
Macedonia
##ocks
##ention
Escape
Duke
DAV
PAR
birth
soften
##yards
Cyrus
Counsellor
##oy
##thood
spasm
##ear
Ability
##eness
Pleas
same
translate
Arbuth
retained
Incon
hardness
Goodness
##Ê
consecrated
imbec
Dei
irrecon
newsp
tan
Phill
accordingly
Ames
offspring
276
##gether
##jan
City
circumspect
wo
Pad
Bree
collecting
##elled
shan
Communion
Foolish
sustain
Fifty
Ezra
hospital
bargain
Equality
Opi
Cra
Civil
excit
Lore
##nen
Barrel
defended
tasted
recon
##cerity
runs
##ilee
Strain
scheme
Neigh
##ERT
negotiation
Cul
parental
spear
##Á
whether
##olved
cuts
WORD
wantonly
pall
profit
tles
helm
Intelligence
48
vie
Sampson
damaged
eminent
##icho
quill
##cis
HIST
operated
See
ejus
1734
Torments
outlines
higher
gaping
Ann
mandate
leaven
o
##liness
immediate
York
glect
Temptations
nex
F
detail
OFFIC
pledged
virtues
confi
dialogue
Seal
Leices
preach
toward
parlia
##arnish
##inom
furniture
loosen
interp
continuing
##omach
##erable
imposition
drew
realm
Scotland
##oting
tort
pearl
industriously
heights
##ido
extract
Nobility
tumble
##isi
receptacle
170
condescend
gant
READER
spices
brance
stung
papers
unal
Riot
vidence
Custody
complained
Coron
##cied
##alls
tires
who
Sore
Bounds
LOUISA
enslaved
LE
pled
Westminster
hack
weaknesses
Making
Sund
##uct
retreats
conversion
assigns
##ches
superfic
offender
##urnal
acre
para
honourably
inv
mantle
##antic
##tus
quity
195
THEAT
Request
might
astring
##ank
##ville
##yson
SHAKESP
uniformly
murderer
Guil
complying
##ance
Oppos
argument
Vind
Early
##oliness
chapter
##urers
doing
chuses
evacuation
Princess
Positive
Iud
##ov
involving
Spot
import
trod
##iving
Ellen
permanent
Nest
##umstances
pieces
works
##enter
Behind
yon
Married
Exit
natural
connect
##ortions
inmost
##oints
ascend
Hell
return
princely
ships
marsh
Beverley
cursing
survey
##ria
vate
Scholars
ulcer
precisely
assembled
##aco
theft
dares
penetr
remains
##ve
Cob
Preface
Commun
offenders
##ometry
tribulation
monly
Paper
40
Enquire
rages
lovely
CON
Lamb
discussed
harden
altogether
drift
ensn
Dust
agent
NUMB
mity
Causes
##hi
fortunate
los
tenderness
Cabb
##vent
beauteous
recre
##izans
grip
disregarded
dwelleth
Inch
##ixed
rob
robe
Mir
Pieces
consi
vit
asd
melting
splendid
##elle
possesses
denominations
roofs
Hib
##pole
plag
##ý
external
##omer
destruction
moth
distance
##☧
Gibraltar
instantaneous
dishonourable
divisions
Gn
##ʃ
hap
quir
##arious
##INC
Te
Ordi
##ED
##erog
Oh
Turkey
duck
##OOD
expose
Volume
Faulk
prerogative
weigh
##coph
SIM
Tor
life
deter
beds
ERAST
embarked
help
implanted
Farewell
Dick
Happy
Gardens
Atheism
bout
set
Scur
condi
num
externally
recovering
##ICA
##icest
urges
##rease
##ivalry
pened
appell
heel
##ORN
lax
Christians
dep
,”
Company
Umb
sin
Actions
##tle
##ree
Conceit
grievances
pregnant
##ţ
ornamented
##emption
##idge
Loud
BUR
##alia
##ites
##os
outwardly
##Is
defensive
incorp
##☉
objection
poult
Bay
##orr
##oric
,
hoc
Edwin
Moors
##ander
adopted
moreover
berty
connexions
##emb
vouchs
Perswasion
spect
elig
169
painted
profane
compensation
congregation
gallons
Ancestors
Plot
CONF
##CH
Fletcher
dispos
compos
breast
executive
righte
Vices
proofread
##cibly
pet
kingdoms
tracts
deviate
understand
Anat
PHALAENA
shores
affected
eulog
backs
saved
great
##ė
fired
THe
propag
Hardy
ACT
timidity
frequently
##itish
DISC
idolatry
magnificent
Raymond
sic
##ained
salv
assumes
best
Excel
gnaw
THESE
Rail
Burgundy
cers
Why
Bon
reposed
impertinence
devoutly
tails
blows
proportioned
melts
goat
06
toge
happ
Oath
factions
Reflections
summer
##host
Terms
Harlowe
whir
imitate
oars
##istry
sake
judges
HOL
##UCH
asham
Claudius
carp
Virtues
Determ
unaccountable
vouchsafe
lemn
Suther
majestic
proc
Poetry
Oblig
were
Thor
pany
Data
refuted
##asiness
cest
Hatred
##istration
Pill
rend
pra
##usband
stupend
sublim
##cial
rogue
Reflection
cleared
laying
Popish
Ton
##osen
ERRATA
forn
Suff
reckon
losoph
plantation
##√
80
##oons
Dim
deduced
Rep
bathed
relations
Mast
holden
##agogue
posted
##rum
confute
moments
spake
earli
Chau
##ademy
garb
imp
##UTION
grands
Harle
##amb
ludic
persevering
Ble
stian
ruddy
fleet
ecclesiastical
Len
##unning
##♎
##acted
Notwithstanding
Affair
16th
overturned
328
Cold
extended
##logue
forb
NE
turn
##ĭ
poorest
Winds
stabb
ALEXANDER
Griff
##jah
tail
Churchill
burdens
peremptory
Province
yourselves
Did
##chand
Romance
Wood
##♌
prevents
dealt
##asc
exerted
Hours
Than
obdurate
urn
##quakes
admired
REST
!"
##ester
ebb
Fathers
infall
station
compare
Turner
savages
content
stigmat
charges
quake
##alties
cents
replete
presently
WHEN
difficulties
vin
Fits
adjud
##ault
##entions
cf
Eg
##cean
##cca
issue
Phillips
Mountains
Bitterness
manufactured
harmon
pre
##OUR
##asps
LETTER
Capital
calmness
Enjoy
Lisbon
Famine
##ISM
cepted
##FORD
Maiden
caps
fam
##UE
Hymen
reasonably
Paris
contradicted
perpendicular
1694
XII
Stead
reserved
##cl
beque
Wis
Autumn
tity
##lect
surprise
astr
Decoction
Jew
##cribe
##int
##aric
independence
##ŵ
##lass
invade
ceived
legions
Settle
##roke
barter
foon
posed
##eties
21
unhappiness
denly
##eli
Seeds
##ESTER
sert
mixing
harb
##aff
tries
swimming
##AL
piercing
##~
Events
hereto
Script
##ifice
igno
race
manif
Estate
Num
desir
dimin
temper
Mater
indispens
accomplishing
Vote
weap
##legm
dates
Scrib
succeed
Warri
blo
Mission
Translation
246
##blem
ponds
rites
Bonds
loaded
Misfortune
brothers
##afed
communi
Lover
model
commanders
renouncing
joy
Beau
promoted
pected
Phry
Stair
Mis
Garr
stry
bridge
science
beholding
breach
appeal
Sev
bridle
##aked
##icular
Standing
##ference
ith
AP
amazing
carries
Reformers
shortly
TOM
deer
Oly
Houses
characteristic
truely
enterprise
throbbing
courtiers
##ambling
Cordial
rooted
Abr
##oun
Saints
signs
##ostan
unw
Govern
Yea
##inity
resented
sons
vital
##gged
##roes
rides
exorbitant
happily
Oy
END
waved
Genoa
wretchedness
dale
retires
Norwich
purifying
LX
affirmative
tamen
Irish
foret
##ison
##orations
Apparel
##oveable
ATT
descript
Beh
Orig
mouse
##reathing
discharg
spilt
Syll
cannon
Hyp
poems
requisite
concil
Forest
chaff
##LED
errand
handsome
paternal
melanch
fle
ō
Conqueror
falsely
shoot
##OUNT
Tribun
Honey
Rus
assemb
Cele
##urst
darting
trembles
##arrant
scription
lus
uns
forsaken
horizontal
##ern
##ty
fruitless
SCENE
justify
influenced
radiant
##adv
besieged
##rized
Hop
Alderman
ently
theirs
##ongru
glories
inscribed
##INDA
Meanwhile
##pe
##apable
undertakes
dont
Prophecies
##tershire
term
heart
engrossed
##umbled
Herve
spend
Woods
paint
pros
ine
Prepare
##anth
Ingratitude
prone
causes
##TS
##cloth
256
Elector
##itting
enliv
tender
Witch
##uded
##roc
Cher
##AME
##abolical
bask
Dear
Change
scra
detriment
ence
schemes
motions
##iorum
influences
striving
Marches
199
##ott
walk
Henry
DC
ladder
spots
entail
Disadv
##oboam
##atism
Obligation
##aterial
Heathen
swer
countenance
minority
Phys
father
FRANCIS
Lesson
advocates
poisonous
resentments
Emperor
onward
Entertainment
Nabob
##umns
shorter
##stancy
Chapter
sluggish
yolks
moun
Infirmities
moder
##otic
##ent
Bro
food
enlight
Meth
],
well
##iliary
##ithm
HOM
##umbling
ral
digested
ered
Excellence
bags
impover
Bew
TRUTH
lady
Cun
Hap
by
whosoever
NL
heretics
##sd
minute
##wn
ἰ
sedate
violence
##heum
Pater
Garrison
sire
##ATHER
##ς
Dia
obser
brig
discont
##regs
##luck
##arius
shrieks
necess
Υ
Barb
yellowish
Bill
Simplicity
un
Magistrate
context
Privil
##R
deser
rooms
cess
exhort
Clouds
##orical
Mourn
Individual
Exhib
scepter
##ricts
plumes
implying
Kam
bell
memory
apparatus
enra
HARCOURT
star
famine
cult
peev
midst
Hereford
brave
Ny
THOM
##ocratical
havock
13
##ial
112
abiding
uncertainty
##uses
shroud
wreath
Human
nothing
mean
##urg
↑
Gulph
##leton
satisfaction
Righ
marble
lodg
hamm
gang
##Χ
Spare
hereafter
widow
grow
heroes
legisl
disappoint
unprejudiced
streets
award
tradesman
unn
Jour
earthly
teousness
livres
xii
belov
##yn
hair
Delvile
Hail
##omen
waves
sequently
Thing
acce
##aced
81
Ralph
wander
03
Ancients
meteor
quicker
governing
EVER
voc
Imperial
Plimouth
Writ
CONTAINING
##C
creation
##nets
Admon
coins
mole
compr
sear
Damage
Upon
¶
plaintiffs
Cooke
died
Separation
acknowledges
Synods
electricity
##iciency
als
silver
your
Bail
mostly
straight
##xt
replen
entirely
##ti
09
vinces
Sad
relieve
✶
Superior
bane
BIRD
Companion
Cen
wits
Roses
Edward
imperfection
Orange
tleman
terwards
fragrance
semblance
##bs
Aven
SYNONYM
inviting
Corporation
furiously
OM
lik
extinct
##oes
Center
entangled
meek
ded
Behalf
##ITER
shout
anxiously
HART
successively
resistless
domes
Admir
Illustr
omit
Judges
beg
suc
maze
damnable
prediction
sparks
Evac
Obedience
bud
1698
##Í
Tail
inse
##uces
##ieu
lightnings
sect
purify
##umbs
redress
Total
structions
67
sett
##usively
clock
retort
preachers
Jer
Posts
Raven
☿
xxvii
Meat
##ile
##ena
Observations
twentieth
Polit
federal
Partakers
inexp
suppos
footing
haps
impute
reply
celestial
SHAKESPEARE
froward
Rebell
League
She
undoubtedly
occup
spi
bod
pher
##elius
West
##lices
Election
##keeper
Fear
obstruction
HAR
division
eh
Justices
admiral
issues
prey
##ish
heartily
bab
##SE
sho
##♓
minions
loathsome
polar
sufficiently
strikes
##iciencies
Bapt
uphold
says
Verse
quietness
merchandise
mechanical
tinued
cowardly
##....
bic
Rel
glimmering
throughly
therefrom
Serm
doctors
vainly
surm
comparatively
Hoved
##riers
adieu
denoting
frightful
##car
##ency
Marks
lazy
Coff
##rix
quired
renounce
bigotry
entitled
Gren
observ
##ession
Thorn
bravest
incompatible
Beam
While
Clement
endure
contrivance
##gi
into
##osh
prep
corps
##win
bond
##usts
##WN
##oms
living
troops
recollect
carav
##iating
##mission
pensive
bation
persec
powdered
Considering
usur
notwithstanding
##arians
Pie
sold
reaped
EV
##of
burgh
magistracy
##agoras
flee
Match
##abitants
lower
Idol
sitteth
30th
Ersk
290
Harley
books
Flet
ployment
conformity
robber
yoke
encir
humiliating
spoil
cavities
##standing
fallen
bilious
##cies
bake
fawn
premises
conversations
withdrawing
piece
bible
dispatched
MADAM
##rying
cele
romantic
Forty
charmed
##lier
entring
##ity
explan
boldest
completely
##LEMEN
much
aversion
##pent
361
emigr
abhor
Words
##welling
Vertues
##ILL
LONG
Gentlemen
##aning
Britt
##orne
disputed
elements
##dam
embarr
equivocal
wick
♏
##quence
Bradford
misf
##see
Naval
pour
mix
entertains
twas
##aulay
Ra
128
tax
incursions
␣
di
arrogance
##esty
##lance
barred
##archy
##iam
unfortun
Purposes
closer
Appet
mush
quills
Eld
pursued
agonizing
Calv
24
continual
exploits
hurry
##lie
pist
Celtic
##ighth
##ey
Priest
Pro
cheese
concert
Ė
ballance
temples
Gun
sket
comb
operating
Southward
stretch
nob
##ga
sage
longitude
composition
Eye
Sw
tit
penes
restraints
nia
##uf
Vand
afterward
lence
masses
idly
disse
That
parox
impetuosity
Soveraign
temperate
credible
canon
healthful
forgetful
Ā
Physics
derog
recollecting
embry
prede
coolly
##cient
injury
speaks
Ang
putation
##ETTY
ingr
peer
suffi
##tr
pamper
Meekness
26th
Ounce
rad
gri
ACTS
pha
mace
helped
##AE
Jac
review
largely
discl
##cern
Post
##emes
Wid
Glad
##town
Mountain
supp
LOND
##gone
mute
softest
liament
spies
separated
borough
##idy
Fruit
lard
Richard
Hook
peopled
XXVIII
playing
condemned
sliding
scant
earnestly
Ice
##UR
Reflect
encounter
##ermore
ÿ
Ari
."—
pect
Front
complaisance
lawyers
heat
PLE
Plan
encreases
##egrity
Bul
passive
inconsist
spring
Knowledge
BALLAD
pu
hasten
Contin
NOTE
##ousness
gentlemen
293
Pa
unf
me
##burton
acquiring
readers
Case
Sail
##iscop
nuts
receiv
Ele
barrels
bowers
##ere
Nost
##cision
##EK
Court
highest
##earing
chuse
##iae
1724
cruelty
disgrace
fon
speculation
SA
Augusta
jocund
Panegy
##cled
Nourishment
combined
Key
declines
325
Conv
fol
##hing
Savages
Clarissa
exists
paste
Lodging
Sanct
##resh
iniquity
coy
shaft
##ortex
distribution
##inent
edification
attached
saying
withheld
suspicious
multitudes
nobly
Clergy
Inventions
Various
Protection
fright
Smith
Merit
valued
possessed
##iti
expression
maiden
justifiable
threatning
designating
Thebes
„
cand
Secondly
##atrous
ransom
striking
##terns
prosperous
proportionable
certificate
Magn
tres
curiosity
##mper
180
move
##TR
Sanctuary
sistance
correspondent
amounts
employments
aa
1752
propo
Stones
Ephes
shifted
arches
nymphs
##iquity
Linen
lifts
Imp
mit
Drayton
##sm
##smith
assuring
fest
boiling
Courteney
##back
SAME
Tay
thereunto
##icy
bid
toler
bashful
Armies
##rated
Legs
collective
worsh
espe
Ire
##amin
judice
strain
fit
delusion
stir
vessel
Heret
Allworthy
##urion
oaks
Byron
cru
objections
##EE
##f
Hy
loving
AFF
##iana
December
ladyship
105
Establishment
ate
##rat
imployed
vv
FIF
bonds
imposing
executor
demanded
inadequate
discordant
##cup
fying
##EP
attraction
##ethon
approaches
Rolls
constitutions
chim
##ifiable
Estates
A
Hurry
plates
impropriety
##orters
concl
Annapolis
1756
##MAN
encomp
Cut
decease
##leg
motives
##ł
Anger
du
sucking
paradox
Construction
Contemplation
PENN
ric
endeavour
neut
Look
quart
##OUT
95
oftentimes
Equ
filth
##eme
guests
adjoin
fondness
##ulis
confederates
Tables
ges
Enquir
overth
##regate
lamentable
Brus
Tr
shutting
rebu
thirteen
exercises
burn
Philosophy
##osing
gaud
1783
Obey
warn
##ogen
Particulars
##za
##anded
##isance
unmol
consenting
conspicuous
ivory
crust
erc
liam
##iso
Lodgings
##inians
Consul
formance
Ministry
contracted
Lion
surmounted
Meal
##onshire
##osthenes
voyages
Scipio
Newcastle
oath
sord
pref
furnace
specified
opportu
leagues
ceeding
##oted
##nes
abbot
burthens
venom
##OVE
viewing
being
cloth
axis
stray
Nathaniel
##AR
##itans
gal
caut
reddish
conjecture
dollar
##ICH
##xx
1st
retired
professor
expiring
##oken
sculpt
contempl
nymph
barley
Goddess
ut
Ellis
Resist
Stephen
unve
Sharp
##fort
hib
Arrows
##inced
resign
dency
wast
sibly
coloured
mild
CHARLOTTE
tify
elude
Maria
intervening
lamentation
sently
scoundrel
declare
often
pleasing
rected
##po
##uli
sc
opposition
Editor
bearer
alias
Daven
##oso
salts
extensive
thwart
##icks
##aker
hi
ambassador
degree
Mere
##urs
##Ss
Drunkenness
resides
AGAIN
Six
##el
Herald
##&
##ITED
278
aft
uneas
quarter
##ersed
particulars
thors
drying
losses
u
Unbelief
pr
##ruple
sensation
proportional
gathered
##ALS
veget
difficult
Primitive
CL
q
glance
Grad
choosing
quo
Pursuit
cows
won
consumed
##inae
wicked
golden
##ik
moved
̄
Capit
vision
contradicts
slowly
twenty
royal
##ä
perience
renounced
##lly
HAMET
Expos
DAY
extoll
bition
minion
should
ranks
beneath
instance
30
courtesy
Bles
bountiful
antagonist
tales
subjoin
martyr
cler
##lin
Cair
release
##acker
##ʗ
Sor
ticles
prejud
spectacles
indisp
ferent
##aping
##olas
poles
Bonner
crave
##enity
vehement
messengers
grew
Egypt
ANNA
generated
directed
XXIX
preca
pleat
Counsels
backwards
##ten
cartil
bona
ore
ḡ
##mor
ravishing
##rid
##ifer
##cut
wiser
veh
Bridget
Stratage
Prin
##oway
ROY
ʐ
Matthew
Southern
##enced
drach
earlier
mourning
Wald
lofty
ace
extemp
ercise
Rather
Parsons
rine
Major
##re
condes
Messrs
Astonishment
##igree
practising
Diffic
corrupting
gems
1735
Mortality
Caesar
dream
Τ
binds
Sud
poorer
knives
parent
indifference
##inging
1791
block
##elest
extravag
rocky
□
shrub
##version
Fund
##ri
Works
prodigal
adored
alk
Blair
commons
##Ï
π
HAVE
study
confed
Jesus
stab
folio
Admission
##ocities
afflic
##aunt
comparing
endangered
##erors
Fourth
##ces
barons
##as
REPR
legal
revenues
foretold
Peter
̆
##inis
presumpt
situation
Order
secretary
inanimate
Wa
ita
jury
LAT
mayest
recently
pushed
absolute
inattention
affix
heiress
manifestly
##aphrase
Do
Musk
confes
distant
Reasonings
##hma
##cels
##emen
Stocks
seat
proverb
Storm
##ifting
spotted
Albion
harsh
marking
Into
##<
Appear
estr
##enne
##♉
perior
Bird
fees
sovereigns
Brass
Obs
tame
##le
disinterested
neglected
level
internal
Guardians
Courts
oaths
protect
STATE
sneer
##nde
transact
ple
rivule
##eal
infusion
hermit
ture
promot
##inter
Italian
Astron
Hamilton
aggravate
indisputable
birch
ev
ext
##cont
##rance
##ong
despo
hides
Widows
texts
most
Visit
Straw
fantastic
dismiss
Edu
Protestant
perce
gion
secure
Instant
33
Musick
credulous
grains
Chesterfield
cleanliness
florid
##ner
Windows
unlock
##ollen
reason
cit
##ć
Straits
Whatever
Cad
Tavern
woollen
Treat
bark
##peri
Whig
Boy
supporting
Attain
##isle
alien
bishop
Negro
reconciling
##ö
Probability
HO
admirable
ie
olive
##otus
##ama
Swearing
sultry
emancip
##inary
discord
Bear
##ŭ
sud
##ike
treatise
Pest
force
dustry
tained
##oral
##bow
fry
##giver
fant
##ali
mor
##orney
promotion
##rised
##ORS
##esies
manor
unrighteousness
vaunt
Parts
sheriffs
Assess
##omp
benef
plentifully
##itas
box
conversing
Rhine
indicates
mediator
##UL
##ositions
tells
282
Horns
Tues
prophets
Invention
pool
need
breeds
unac
gro
sw
abrupt
Ζ
plead
1765
147
interference
repent
Cort
Goose
Bel
denote
Bar
##AW
##β
empowered
somebody
##20
##ogene
Bishop
Ships
concise
##ruit
burial
##etition
Butter
##vor
framing
Founder
superb
tery
Law
##yl
##LEM
symp
Employ
Wee
Mrs
Serve
preference
Eleven
Expl
directions
geese
invect
ness
aggr
payable
mun
portant
Kitty
insolence
pere
whereto
stag
Sufficiency
unanimity
He
freehold
##idæ
Baptized
steal
Trag
##Μ
streight
Dul
ploy
Nic
Foot
##oughton
##tery
ground
likewise
##iscopal
##bourg
residence
Cong
##ortality
Pay
depreci
infers
adj
artists
##ensis
##gypt
##angular
##swers
WHILE
Collins
collection
gig
nineteen
Guinea
##PEND
##ur
certainty
Noah
Cann
causing
Wet
##erour
Cypri
jov
triple
garrison
juris
Preston
refuse
emi
attractions
Neither
woe
bull
)
mountain
ADD
solar
Mand
attentions
EVERY
saith
Obli
Curses
abuses
unreg
plied
Isa
er
QUEST
baleful
libr
##þ
##OCK
Unc
Elys
foregoing
foll
##owered
##iquities
victorious
RECIT
positive
vertuous
Discour
Plants
##imate
SPi
fuel
peal
Fl
gel
flect
Wilm
fict
j
Woodcock
absorbed
##aith
groves
wonderful
tures
Baptisme
##OLOGY
Cum
Dis
fled
##pers
resolved
Business
##fa
##ize
south
SED
forever
##aim
PHALA
extend
mixture
Patroclus
Unp
insure
breaks
##illity
Lead
Publish
az
Gaz
ETH
Senses
repeatedly
Qual
Aph
learnt
supersed
figured
Cin
##ole
enn
tibi
wall
unav
##cile
##owing
##tain
##risy
Allen
infidel
Sutherland
sets
underw
Whosoever
2d
PORT
buy
condemnation
inn
nomin
Proprietors
panied
Reins
lips
tw
fitt
brimstone
##peak
excite
Nun
thereon
reparation
oracle
##oul
purified
strongly
aching
net
indicated
##ISON
students
Provision
##unity
Tun
counte
mott
scrape
##ceptible
amount
Praise
56
##NER
attrib
##URE
##irth
ring
contrast
Sterling
RAY
##ulation
ANN
##oli
portrait
travellers
Bat
##3
##ves
##reme
recover
transgress
Orthodox
consulted
mare
cularly
accustom
Et
Prosec
becometh
Visc
Secrets
companion
Need
frequ
comply
Jug
Anton
canal
Ser
Apoll
##ull
prohibit
addressed
fav
##ERIC
theatres
Card
Head
PRE
Beams
nesses
Dum
##mer
Quar
Fibres
##ublic
pec
hu
##usted
Baron
hun
##etr
Days
meditate
##isses
donation
Lies
accepts
Tert
##enary
metall
balmy
wage
subordinate
restriction
bre
gi
serves
frolic
##©
x
coldness
Charles
departments
han
Cox
zealous
Frown
##ruse
##ctrine
rely
##west
depri
Others
Mun
PEOPLE
Realm
comforts
workmen
pardon
clerk
Spectators
Jones
Hymns
conductor
Pla
Commanders
vell
##amen
preferring
##ilies
transf
Pleasures
##ion
##ctory
Depth
malignant
Disple
vicar
edifying
Pow
assent
##ulog
Candour
boundary
##ILY
Surv
stud
riot
seriousness
operations
meant
routed
omnes
eternally
hourly
oblig
##iom
eng
remarkable
enclosed
pursuing
alt
tottering
rap
Drummond
##isc
considers
##ilis
ambitious
Tur
Quint
Asiatic
allies
Aristot
reinforce
##oyage
solved
affecting
manifold
pyr
MEN
##ok
heighten
lowly
vours
Orpheus
O
Lucius
##ioa
unaffected
Branches
grea
##amps
publications
absence
sown
named
din
Hang
genera
sid
##tre
Ridic
captive
unrighteous
shady
Soll
perv
sf
Otherwise
conveyed
persecuted
brows
visited
liquid
##IFF
bottoms
grated
accusing
again
##awk
Bards
##ulty
wishes
unmolested
How
tu
##athen
solution
##ogn
JUD
lately
##ortunities
dish
Cors
Egyptian
MED
nue
greater
Bottle
Scept
Nathan
##UCT
##awd
Animals
fiction
Immedi
##ifices
brid
Writs
##OUND
##ared
advantages
unsettled
unwholesome
Obsc
Alp
aims
Sl
reef
##ist
Petition
##let
ov
##ations
THIS
RID
honour
Frances
incense
Waves
##AT
Excise
graves
imprudent
FR
Lam
Gentle
infe
Scots
Jesuits
Coch
watchful
Pit
staff
curve
##riage
lip
##roduction
##itor
shipped
pressed
Bid
ff
depending
Army
##ishops
Assem
fide
grat
drinks
##bert
##prize
##irls
##cribing
ming
##urdy
hur
vero
##OST
erudition
Scr
Good
Cana
NORTH
owes
Scorn
shivering
##erman
tends
lets
##ivalent
circumst
##.
service
capacities
Albany
ripen
indulgence
Cock
Doings
artifices
Came
##thodox
rated
confessing
refute
Articles
Span
LXX
quarrels
##liance
DUN
##respect
revered
Dray
nost
Palace
##ward
prow
wanting
⌊
disconsolate
hostilities
##ANIA
ingred
gladness
Light
Mant
fearing
rh
Losses
records
gels
Blank
travers
##uced
##umph
##iens
unsett
popular
wealthy
squander
pate
Glo
Judas
bankrupt
evil
down
##cip
sentence
Represent
religiously
##omm
tru
##used
rupted
##ody
Zool
Fever
Plen
electing
Insect
Guiana
##lv
##orph
##ternal
decide
wint
table
confin
SUS
mindful
treat
abolition
woody
coal
bard
.'
demonstr
incorporated
Wil
##acks
##ieg
pent
Vex
contests
Measure
overc
Worsh
fool
politicians
incorruptible
infatuated
Jealousy
irre
enforced
circ
Eternal
impos
Nich
##elf
darkened
char
Historian
8th
original
&
Ancient
##own
Discern
courtly
unsearchable
##rieve
Prize
metaphysical
concluding
mane
1703
##ene
Recon
93
rect
acknowledge
select
##acles
##met
expectation
##anges
##enti
capture
horned
lact
arist
146
incess
Bays
##aste
males
self
##olution
perusal
judgeth
Flo
estimate
athe
filed
door
windows
##grown
Essay
sch
residing
exactly
badly
Debt
##omination
Illness
Ceres
Put
mains
Norm
Conj
##ierce
Wash
##ilities
contending
devoured
universally
trembling
terrify
tation
perpet
wool
δ
surer
!—
prior
frost
##ript
Chester
sacri
ↂ
Coke
peel
Div
strike
fastened
##r
##ray
joyous
Ÿ
Guineas
snd
give
emit
pla
metaph
##abeth
abstruse
drama
##ignty
warmest
sprightly
Elizabeth
soberly
Gratitude
##oint
Apostle
operation
Scandal
worn
Lost
♑
promises
pass
##olute
Imitation
Winter
##grade
rabble
embarrassment
conquer
Anx
94
episcopal
confest
truths
quant
ruined
Eastward
6d
Distinct
hered
duc
Sudden
show
pin
thankful
##URES
##osition
toil
Poly
passions
thou
##ellow
Wickedness
Grants
repentance
ous
##ily
stopt
Jeff
Wise
##groom
latent
Drinking
butt
153
equivalent
shad
##isfaction
unpun
##ouled
##rn
adequ
Bread
Tribute
Miseries
infer
Leigh
scap
senators
HENRY
##ITION
##avior
Sabb
elec
rung
##airne
instead
sheets
##☞
##ENE
Burd
Amm
##unken
Grove
##ception
cryst
valuable
relinquish
Indignation
Controversy
isle
Sylv
peoples
1720
Maids
cleanse
blackest
322
reputation
atten
declining
superint
humili
ANG
effem
nec
Cec
126
excelled
Strap
bass
imaginations
AUGUST
mos
Transgress
Ready
fetched
Darkness
Hull
Del
##onymo
FE
shalt
Amusement
psalm
oblique
Stars
involuntary
infidelity
Hs
pistol
Senators
scarce
Vaughan
palm
lightly
baw
PLACE
kingdom
dash
Ey
Texts
pertinent
opens
##bes
recited
sembly
Private
superiority
Pis
infam
pul
leisure
Greek
furn
deeply
happening
Tuesday
##unch
Sparta
conc
exemplified
ses
##venants
Blessed
—"
explicit
##uthor
Warn
acknow
contributing
epidem
Per
MO
favored
companied
##fel
apostate
screw
##ly
salute
perspic
Beth
Bag
##URCH
Sid
insin
Abuse
mission
##gus
##ible
rewarded
##ape
tue
##ubar
Imm
our
mill
spectator
pirates
perch
die
Path
que
Alon
##cart
divides
Better
nominated
edged
ordin
swords
Hour
beaten
foundations
Bury
##chn
?'
##are
Gov
##flu
known
Lic
ascent
Locke
##ORT
acknowledging
##mouth
jacket
##ering
gigantic
,,
##roit
acrid
##adel
expanded
ties
representative
stript
e
gress
Ah
vic
lat
Exchange
wolf
!
Switz
depriving
##noon
##UM
Portuguese
increases
Few
chearfulness
##ERV
Passover
ips
Bolton
points
fables
indiscreet
Adm
##ORY
Brisson
epic
tin
Tidings
Jenkins
refine
licence
Beloved
Alike
goal
acqu
Compar
rage
intense
catches
British
Mitch
##rences
##repared
Parties
##zer
raptur
##ago
also
##goes
watered
found
selfish
Ry
Second
Substance
mate
Ceremonies
hating
bec
##air
listening
##ay
Dip
Slander
Squire
imper
##BERT
##CT
foliage
rigid
##cid
morality
CANT
want
fatal
186
Sep
subscribe
##AS
ceding
constitutes
Jes
##ides
wondrous
awfully
Familiar
##inated
##ountains
doubtful
marked
##oraries
written
##APP
unpardon
battles
Direct
Crim
Saying
twill
##ansom
Extravag
Pits
orthodox
Hints
cheerful
overthrown
Gang
##neum
Apology
Hav
mechanic
##cas
##hall
Stretch
scream
Witness
dire
studies
##yrs
folds
cousin
##rift
##pt
Whoever
Lar
desist
Red
pow
canst
unlim
habe
fixes
stead
##fast
Archaic
intimated
emer
orphan
apo
disobedience
guilty
jun
##ŷ
Hard
h
##ANTS
Galen
sible
throw
Mention
##uties
1775
##anks
Morris
attainment
insurrection
sate
succes
Conn
than
explaining
libel
Aene
##fed
intrusion
Augustine
press
rors
medic
Dougl
Redeem
State
whites
calcul
Hex
parts
Certainty
interrupt
vide
gentler
unable
Sacrifices
shred
dwelt
imped
clouded
Principle
Gift
increased
##arp
edict
##cipline
unaccount
STREET
venient
##issa
Pride
##ura
Burden
harangue
Horace
controul
altern
insuperable
situations
Temperance
Bl
##acea
whatever
##anias
##shire
spy
grape
astonished
cask
Breasts
aust
Englishman
splend
Necessary
extracted
ambiguous
Fe
Delhi
mourn
Tum
captains
Undert
dignify
Intrig
##oused
memor
##stone
##iant
employment
Circ
148
proflig
Danube
explicitly
presenting
Avarice
snare
Plates
disciple
strong
tance
G
Management
##kes
##sk
cramp
##reet
##orf
thod
propagate
100
cove
wag
VER
ram
vii
##azine
Lett
bred
lucky
mildness
commissioned
Unjust
vein
FAR
Ale
pickle
##annah
anecdotes
dissenters
Evelyn
##line
Treasurer
form
derstand
horseback
entertainment
appellant
controvers
ineffect
legislators
Slang
ignor
##anches
##onso
neutrality
soever
papa
diversity
Title
cognizance
Aegypt
direc
Italy
Mahometan
fundamental
musket
seditious
tart
closed
fetters
cons
murther
cathed
Tan
guided
ow
Ital
pend
exa
believed
Apo
slo
##riads
##gies
##THER
prejudiced
fortunately
muscle
255
exchequer
Insult
paring
twixt
practical
determined
##ses
unequal
##az
depop
Tot
##OUS
##arine
Publication
Navy
##olu
05
rashness
reports
ety
##hill
Til
sacred
Worship
bells
magnet
##arch
driving
sees
sanctifying
##asmus
TC
coag
Noble
Infant
Teach
steals
79
injuries
##ELS
duration
##ew
##icable
abounding
Canaan
##amble
drawers
glut
counsellor
Convictions
RES
ras
alth
##gar
##000
Wretch
adorned
52
You
semb
##itance
bright
##ives
appre
Immortal
lamenting
intercepted
particle
affrighted
##rament
##utable
stage
##OX
##alog
renders
dispel
dered
Egad
obt
Names
aux
nun
stance
unpar
piety
executions
monarch
engross
hazardous
HAV
Large
ert
Import
transport
stro
tated
##gr
##uke
Antonio
CASE
1785
ostentation
pots
Flesh
tig
advan
Bath
preamble
chide
snake
Offence
gra
printing
##odliness
aspiring
evap
##yard
Afterwards
comprehended
Bre
ll
Bard
superflu
freemen
forts
honesty
Threatnings
prostr
16
υ
Ch
##tt
confines
crude
dischar
scales
constable
Lomb
short
ȳ
##ictive
circumstances
_
unle
##'
disp
lesser
idolatrous
GW
Diam
##utter
Laws
patient
compell
strengthens
imputed
whistle
stuck
Please
some
HY
ages
sway
mimic
Vulcan
##course
compose
CONT
working
##but
Exceptions
redoubled
Back
Mysteries
beheaded
We
XXXIII
Orland
##dom
##athers
rt
LIV
find
inventions
intelligent
smother
##ford
Context
##kind
Thessal
Bas
unconnected
diffi
monaster
Daugh
gratify
altered
craggy
##lled
retarded
GR
Died
ingen
too
measured
##ustice
ANS
Even
sta
whelm
rebuke
##agious
orn
Bret
##ccess
modestly
Acts
hurl
shocks
Rag
bookseller
Bow
lily
aspire
##ounces
torn
Britannia
Pag
Humiliation
dul
suitably
engines
Wi
pond
cluster
luminous
sam
Forg
port
au
songs
Simil
Latimer
pretence
pawn
blinded
Falk
##actor
Worth
elder
sweeter
1789
##urt
orig
Plantations
##ATION
LOVE
##itory
Buchan
Cens
labor
cro
ruleth
hanged
oat
meridian
##med
improve
ficulty
##hip
RESOL
Peace
##edge
dr
devotions
applause
##WELL
##llor
Receive
besp
Set
##wh
discourses
Cath
Afternoon
resolves
though
##udge
##iod
laugh
##oc
aur
ascribes
stimulate
##quires
ordinance
trines
##ises
Aspect
##GY
DO
pi
##bb
engag
nourishing
AT
EDWARD
soup
##vous
larly
Wives
here
##υ
loosely
NO
obedient
uses
offensive
vehem
equipped
detrimental
Tac
acclamations
tives
hats
literally
masters
assembling
explos
Cry
Savior
sti
clos
##arice
springs
Gates
formerly
enlarging
plantations
Indians
Prov
terrors
##li
Mond
theless
Elders
page
warri
omen
guineas
schism
l
Penn
excellent
##ranes
incident
Chain
##culus
deserves
ISLAND
##uis
Glas
19th
aggravated
accidents
thoughts
emotions
nets
Book
##crip
nupt
##itiation
Glanville
##uals
grain
hatred
Luc
Ori
beholden
##elties
dependance
##thren
Leo
instructive
##ATIVE
##more
tian
Columbia
opening
carrying
Payment
Defence
Unity
crack
lh
##isome
entreated
##oks
invin
Tell
##EROUS
͜
Bal
ode
mortg
##ered
heter
similarity
##abet
##ING
Stro
##CTION
Pitch
public
establishments
predom
Ze
Pemb
Gate
##gedies
remembred
elapsed
laurels
Preacher
Credit
en
palms
##ina
##amples
##ifax
errone
Exchequer
Corinthians
Brand
##ilda
APP
POEM
TIT
Wing
fear
sending
##oped
dangers
undergone
unans
ER
amendment
stripes
Regular
ken
wid
hellish
Rous
Concur
manhood
Burg
felic
##ittle
##ORK
subm
Arragon
element
cation
passenger
meerly
##ping
lud
unfore
whe
postp
extream
Prussia
day
triumphant
lif
##ṡ
REMARKS
Missis
##adow
Warriors
watch
repeats
Barry
Terrible
##idated
Fields
juncture
route
Charters
designs
##UEL
mund
polit
##ath
Congregational
abstain
statutes
premise
noble
shipping
gazed
cough
##atterns
Rum
applic
##erted
dull
Plague
invasion
bas
commends
Π
delusive
wiles
##ctions
Federal
habits
Meek
Tokens
##uation
severe
admin
nued
ego
occa
abh
##IER
Lane
).
Necessities
membership
tot
foreb
tidings
Rox
waters
##str
15th
nem
companies
beggars
finds
quite
agency
cup
beginning
##istred
##ICAL
restored
XXI
Iceland
empires
assists
Fairf
swell
doe
politics
CIR
##ros
supposition
stout
Rise
Dacier
Dun
Courage
Vers
oth
♪
thousands
##iger
##icu
veneration
supported
Thus
inconsiderable
fewer
##aine
Shade
Rear
Tall
##’
bove
roots
##LER
##lish
##ighthood
Where
##ATH
said
##ments
##fh
Sacred
skin
sore
monasteries
forbidding
varieties
Thick
solicitude
.;
reach
Ben
consequence
Gale
unpro
Elm
beha
documents
Gal
Bone
transgressions
reh
sins
sevent
beats
specul
ANSW
Absurd
solitude
##ē
soldiers
pendent
##prudence
##κ
depos
extricate
Go
Mean
265
##Ο
Science
##acity
Pharaoh
ESS
muddy
nt
establish
comp
origin
ee
rendered
Bap
##lic
Oration
Chair
plane
Amuse
nove
Ruf
Lath
poison
capacity
Ungodly
##iro
Scy
row
pont
"),
injured
tracing
tyranny
Beat
##ż
Hither
minutes
unbec
possessor
##quin
Jupiter
cally
tom
legacy
suppliant
Residence
ẍ
equ
globe
line
sink
Simeon
lief
##pid
simil
choice
sheath
answer
Gloucester
##ifie
shews
ance
##ristian
Youth
entitle
5000
##ked
bath
People
alarms
includes
Und
tremb
went
Ovid
June
Window
Alley
Preachers
##un
inferred
ciety
Souls
device
any
cotton
Σ
Throne
I77
murderers
soul
fication
fended
Angl
##clay
mount
daring
post
Jude
chace
Sp
Dependance
lieutenant
determin
entrance
Linnen
Vert
##encer
college
##ο
##arse
##cular
##ito
ð
Behaviour
Orders
Know
v
Belinda
18
conduce
##non
Env
blew
##otism
Rea
riety
PRINC
manifested
spending
Cull
cares
angelic
coarse
##atives
perish
reven
Trespasses
ox
Unw
##cling
assigned
females
stores
prays
♀
Government
spends
erud
spreads
Verdict
##ada
##EC
obsolete
dice
##aven
makes
unrelenting
##annel
Lest
Ung
Vertue
beautiful
Walker
democracy
tir
soj
thanks
unquestionable
Deleg
looked
Worldly
flew
norant
Art
urg
flies
careless
precision
raw
knew
stomach
pepper
Alteration
poore
letters
Bee
Peers
182
bait
exch
cites
Peters
POET
##acre
Thirt
unmanly
sul
quam
ere
notions
mamma
##ucer
neglects
emperor
profited
reigning
##ά
article
Rains
##bing
spo
sensitive
imperceptible
Comment
conjured
Ladyship
tune
##at
##OB
events
vated
unt
##iful
Mamma
Shepherds
##é
bigger
predecessor
Flatter
Cal
talk
immoderate
Seventh
tearing
kisses
Press
arre
supreme
Your
turned
transgressed
inconven
accompan
Epi
Constitu
clusion
##EMBER
##IZ
##clamation
subvert
picturesque
##uting
meditations
tinguished
vehicle
Spirit
Worcester
quarts
℥
Dud
volition
Sorrows
gulph
##inals
awaken
##vell
Ports
preval
senti
##Ρ
Dose
interwoven
keep
Body
Prudent
val
BY
Vinegar
Lady
catalogue
judici
Wretched
Jup
##te
defray
removing
pence
Calm
##rophe
requests
proper
tabernacle
did
DES
derives
centuries
Ε
##ritical
trench
narch
worship
Memory
extremes
cruc
squadrons
clusters
revolted
environs
Freeman
HAL
acknowlege
##FUL
##ilet
Stim
##spread
fen
##itary
wrist
scourge
chambers
feeds
negot
prodig
frustrated
done
utility
vastly
##istles
cellar
authorize
∠
Constantius
pungent
resc
undertaken
zone
drowsy
battle
st
blessed
##IELD
reading
eo
Precious
Predecess
Inferi
00
Th
scrut
charters
unb
ec
treason
trading
Signs
mandments
guilt
##ops
twine
HEAV
testa
discharged
.:
Stat
##ument
Ruth
final
rapid
affront
DIS
EST
devices
Trumpet
abilities
niece
send
mim
Spleen
changed
impiety
shrewd
Provisions
Time
✚
xli
##jus
Mediator
##ther
##rius
draw
precipit
Printing
legitimate
guns
Scrip
##empers
invented
catch
prisoner
people
##cera
acci
wickedly
##ulc
immaterial
hearty
Converse
##arum
ly
sunk
##rag
sweetly
##eches
overse
handkerchief
PI
exult
myst
lea
seem
##ulk
attempting
embell
descend
furnished
fours
##erm
##ator
##IC
hearing
Cloaths
Term
##onies
Lebanon
ceremonies
strictest
Scottish
coat
fier
malice
Executive
addition
##rue
##ians
Roads
##ρ
Conscience
Nav
##ceded
position
##athan
siderable
preaching
tenure
dispensation
accomplish
Pub
Pounds
resort
would
##nne
Cord
Acquaintance
secur
phantom
list
Josiah
##odd
Flight
schol
head
##beck
Hind
Quarter
gallon
Prejudices
##acious
visit
cloy
##une
Travell
##Ė
weapon
Smart
div
mortified
roast
slumbers
Nebuchadne
##atures
waft
deserted
impot
##asting
##E
ald
transcend
authenticity
stalk
correcting
ha
phenomena
passage
expedients
tul
incurs
max
filled
chief
rn
##ū
##elujah
diam
Enem
finite
259
DUKE
Pha
EN
EP
Cert
concurring
Entertain
slightest
bew
elective
milder
deceased
consult
##uese
uppermost
ac
Receipt
##itteth
Brother
Advan
vey
trusting
Hereticks
Monks
behavior
##LING
compe
cheek
issuing
expressive
##olphin
##adne
tient
dience
flor
ging
Inhabit
Nine
impress
fails
adversary
##ra
##ARD
1736
Dorchester
lieved
subl
Soul
##ads
##ANCH
symptom
retract
cut
##NEY
Cent
dering
Cust
passed
##ss
ini
questioned
dropt
Remarkable
Sixty
##incial
twould
Euseb
inconsistency
strata
imb
##LE
decent
doms
51
deceiv
originated
shells
Sciences
disrespect
claims
NEW
gained
ninth
PHYS
number
Jove
Ball
sideration
tomb
Stomach
carn
##ips
farthing
##acent
bitterness
adh
Month
mation
Monday
Ingr
gales
##avo
##phon
##lins
Ant
define
plent
inconvenience
##lied
sented
Chan
Ν
neighbor
vexation
superstition
##ardon
prud
##icated
bou
herd
##oran
honoured
knock
investig
ritual
##emnon
Plant
ending
stant
CHRISTIAN
meeting
holds
##ouse
dewy
watery
confess
misgu
cust
##overed
Confed
Sue
receiving
♭
enjoined
breathed
had
Each
annihilate
minded
Scene
plac
noticed
haughty
towers
Wor
respectful
verge
Enjoyments
syll
texture
tranquillity
chooses
OF
##gnost
delight
##tains
Colin
surmount
prescribed
Consult
predicted
##utton
##aylor
Whale
##ION
adher
Dra
like
Gaul
Play
mined
cloves
Voy
heaviness
REG
##under
scound
OLIV
##unkenness
bul
Pipes
##cape
##F
fiery
remain
Isles
persecution
Twill
meaner
ignoble
Ohio
lights
##UNE
loy
##ies
Administrations
FEL
merc
demand
dated
requiring
disappeared
##pic
Oth
lust
##ae
##UNT
wisdom
exhaust
Prep
##olo
disgraced
impowered
Sepulch
corpus
Unreg
pertaining
enrich
Thorold
firmament
considered
##LAND
prime
##aticks
spec
usher
bu
signify
retaining
Jehovah
deserts
Treasure
intimates
TIM
##etur
##ealous
saving
##tes
Wales
features
##cence
Representation
'.
##iv
##ched
Burn
Closet
egreg
solicitous
Merchand
recite
whereby
Arund
familiarly
Pages
broth
dews
distin
Hew
RULE
et
Ode
community
neat
bewitch
innocence
Cream
##ARKS
quotation
Fam
culiar
##Κ
aim
Leather
depart
Alleg
Snare
##ubarb
spheres
Taught
unexception
##hand
refuge
##dictions
conducted
prophet
##iny
corpse
rebel
fantast
Orient
Bargain
##ROP
Triumphs
##us
##ceived
##awn
Aberdeen
Engagement
peasant
Gabriel
diversified
##des
ID
solicitations
Hear
frag
##OE
imprison
ble
Votes
ridicule
detested
think
run
brazen
shrunk
necessaries
atoms
Captivity
Washington
V
APPEND
##ELESS
##rob
cessity
notoriously
unlo
tempers
Germany
accusation
wakes
continuance
##olent
Hamm
Mild
worlds
Patriot
agitated
ced
##alv
meaning
Chamberlain
rehears
##iferous
swim
##abling
evidently
those
pretends
COME
Repro
haunts
finde
conjectured
XXVI
candour
Sover
Sanctification
chaplain
##right
kneel
sacrifice
ably
prison
slept
##areous
##iaries
sed
fasc
82
Ξ
Polly
Bran
inevitably
Fre
Hos
Uneasiness
this
Superstition
207
rats
##oris
object
env
rejoin
Ta
Lordship
expelled
fors
Sc
local
cip
gle
Laugh
##insula
##ature
Pray
##ilion
1743
hereunto
Octo
feverish
##imable
##raved
Harriet
feeling
[CLS]
Strife
poli
Op
Resemblance
Glories
53
##Ε
Mete
Nan
Tertullian
Believing
haul
Viscount
##quake
privy
forked
Tis
basis
openly
beheld
Psal
##innamon
##ré
##issary
Lincol
maint
trim
gross
hateful
##ught
Sin
##che
example
##lo
WORLD
Pompey
told
tut
DOCT
testified
blooming
MAJESTY
ledge
vernal
Foreign
equitable
158
gen
Oliv
advers
reflections
greeable
bribes
Redeemer
Ral
Ages
Just
upon
##k
Readex
determ
##inese
ingenuous
Graham
Subst
SEN
##COURT
conse
##ioces
Experiment
##frey
191
holding
preced
Token
##bour
xxiii
kn
efficacious
##enomena
abundantly
##EN
GEOR
product
wh
lute
total
\
deserved
quarto
Joy
Non
prescribes
cheer
jail
##IX
Appetite
subsequ
searched
geance
finish
bars
ivy
Anne
sle
antique
bot
##osures
Spartans
cree
Edwards
##sted
elegantly
cavern
alledge
##omon
relieving
##uper
sciences
##seth
Corp
impious
frowns
##ursed
Hawk
termination
Origin
.—"
Rogue
construed
tempor
choicest
deaf
Rank
sport
Vis
refusal
petitioned
conquests
##rup
frequency
attaining
##«
sincerity
multiplicity
appearances
##or
avar
bustle
Ascend
Malcolm
juices
important
plots
celebrated
dwell
##ters
Bible
fairs
Gain
##ouble
##RET
plunder
dove
parsley
displeased
extorted
133
##emper
entertained
##ones
1691
talents
Rand
Settlements
##ins
188
alas
Ro
dupe
names
:.
annihil
absent
Nevertheless
pen
prosecuted
Melancholy
Trades
fair
144
seats
infor
prostrate
wearied
appro
##BAR
mination
Imprisonment
Poll
Bur
occasional
##eter
dances
##Il
Century
covers
.”
roy
Not
##AB
disaster
resem
Daily
arrangements
Shoes
infi
EDITION
performs
culpable
oak
kiss
##ache
barg
brill
Deacons
Eas
alterations
##rium
expecting
235
laity
Godhead
fie
mortgage
excites
Elder
Flocks
Commodities
Gentile
Burnet
cuted
literal
Folio
Ir
owners
torments
##cus
Orator
encourage
preparatory
SOPH
imperfections
commands
##ped
Justice
Unh
;)
stren
torment
denying
days
carnage
##RE
##ad
##oni
judging
##urus
Reasons
abated
uncommonly
Emb
##atra
weights
contrived
tri
St
Agony
aright
##querade
extirpate
spot
island
##ious
prerog
sinks
Serpent
consciences
recovery
Flow
Appar
wom
unsat
Arch
Dise
infirmity
Administration
particular
apprehen
##erv
transient
aggrav
Signed
Pliny
rit
Aaron
comparison
##mit
Improvements
##ippers
sailing
patience
pierc
unbel
spoken
DISCOURSE
Bus
Pic
rits
Damasc
prest
drams
rans
isles
Mace
Ruins
poetical
pil
`.
sparing
Sen
accor
indulged
##ft
indulg
Figures
Clara
mended
Bull
sights
Dancing
organic
commu
Obst
Out
##EMB
enacted
psal
Orph
lur
unres
transaction
23d
wantonness
stopp
Dup
sil
CHRIST
FL
claimed
velocity
##onder
Impat
prompted
vindicated
weighing
bason
Individuals
20
change
aad
Achilles
phets
CHORUS
Summ
cloaths
drachm
Bend
blished
##borough
Brethren
Practices
lions
AMONG
##name
Promise
praising
Hans
##ECE
contributed
Macaulay
##utch
basely
roof
DU
##eenth
sits
Cause
Dealings
Pind
##chal
Illust
nauseous
Wed
Sex
load
reciprocal
Enemy
shipwreck
Force
##stra
ho
##lick
thereabouts
delivering
Mu
mic
Maur
thing
Disapp
Coll
##ENCE
##g
ordinances
wooden
345
##9
intestine
88
Histo
##astard
intermed
Dare
sto
movement
reflects
glasses
Lov
gas
##ʐ
termined
Dialogue
Gir
Linn
imitation
##wreck
Sinclair
##bo
languishing
baronet
sanct
Writer
creator
constitution
silken
##atica
Sty
##arts
examined
thickness
##edges
weeks
Une
Wr
dust
Sher
gather
disagreeable
permit
monkey
##℘
deliberate
illustrated
lands
##verb
22
SHALL
Lee
hold
Alexander
advocate
publicly
disap
incl
##onent
ODE
surety
disgraceful
Dance
substances
us
##asms
glitt
laun
Lis
##ma
##bell
##iel
Din
Degree
ions
flow
##ourses
sangu
improperly
promont
##eb
Rival
mislead
provoking
Sigh
Min
Deliver
city
Bands
Agency
joyn
☊
##ernity
dren
##wich
live
XXXVI
Ô
##ght
offended
exter
##u
##iI
kindly
##EEN
liveth
Scal
##enus
borr
72
Get
agonies
breathe
confident
adject
kins
Magdalen
smell
Depend
polite
##religion
Cibber
lawfully
1692
card
##ibilities
colo
flying
descended
comely
bomb
consistence
insulted
enthusiastic
gun
pus
ult
prosper
tunes
synod
tree
Building
##OS
rolling
##urb
gloves
##achus
punctual
Kno
soap
Ext
eternal
Wesley
expense
plen
apprehending
XIV
fortify
Β
Decree
befallen
contin
Boat
print
202
prelim
##ed
agreement
24th
procedure
enthusiasm
`
bis
forgiving
varies
Dominions
Oro
Infer
##FIELD
demon
Understand
Cambr
what
ft
indepen
vivid
Tales
anim
nisi
misled
skill
admire
##uously
Relations
SC
##attering
Corruption
Citizens
Deep
compound
magistrates
addu
numbers
tional
parishes
##erals
Haz
Amend
etiam
Purchase
unnatural
##embers
strongest
election
miscar
lonely
##hes
cence
despotic
tresp
##rency
outrage
musick
##enny
memorable
yellow
mini
discrim
##IMENT
AMERIC
halt
opprest
Strong
##Ṡ
farthest
."—"
III
Janet
dispens
glass
Rust
Confidence
arts
sickly
Tremb
##ker
fowl
her
fortun
colonel
boast
##ENCH
##anch
Send
skilful
##IF
advancement
28th
threats
Robin
##elvet
invari
mercantile
uner
##ubb
devote
##orus
Discipline
##rt
purport
enjoyed
Pembroke
steel
sit
Prob
hire
Ulcers
rom
Fault
Wait
##ady
##ud
subdue
##INSON
Mode
Jews
Falkland
Da
afflu
oppo
reigned
##ounced
##ett
rejoiced
Heathens
wax
Interpreter
lengthen
gly
Catalogue
antichrist
##ater
pace
although
##rete
attained
persu
SO
starved
##anegy
##lam
culty
unreasonable
Souldiers
palaces
kr
Dedication
10
garded
suffici
reveal
earl
grass
contradiction
surveyed
ass
##idan
delivery
Abra
moor
Strait
domini
Persw
regarded
notice
##empt
surveying
municipal
Kingston
|
sufficient
creature
##swer
##selves
inclinations
mob
them
debased
tinent
##ICS
happens
##unctions
glows
imi
##hib
129
LOV
bestows
burg
Rates
watches
Whilst
Deeds
Hunting
tight
##illion
conflicts
Run
Sabbath
balsam
Hush
##itution
Han
Luke
Swedish
##idence
##avi
lively
##cle
deputy
interpretation
Exhort
quisite
FER
Candle
RICH
poisons
Rhode
##eri
♋
Boston
XIII
358
##riment
incessantly
##cker
hates
mistress
."
Welf
doll
##INS
Hast
trophies
Antiquity
ders
cham
Acid
fifteenth
##isphere
footsteps
vo
Lance
partners
alternate
transp
soli
racter
psalms
Speaking
Acc
Wines
sinning
##inet
Shrewsbury
appease
COMM
Foreigners
##igne
southern
posture
marvellous
grand
coll
bri
yesterday
ver
##dington
Reli
##sw
expressions
call
verse
raised
indulgent
##anation
ab
spoon
perj
elephants
##ards
blindly
Mend
approached
##AK
Liquor
##INGLY
cur
hour
infirm
n
verdure
robbing
gor
Celestina
surpass
PAST
reads
having
Touch
##Λ
##ricious
teaching
forward
renew
accommod
Lying
Prison
##orses
specie
incarn
booty
corrected
sword
imprisoned
crim
##mun
Safety
Acceptance
##aster
perm
rivers
previous
cial
##der
##umm
##elu
Edw
##ara
Pict
broken
##untur
Limbs
Covenant
Coin
Qua
HISTORY
Concerning
posterior
wheel
quoted
legally
CAROL
Thomp
seizes
##ARE
##uri
northward
shy
Tartar
hey
marine
seasoned
ALTO
sition
breathing
occasion
Brew
avidity
peach
##orium
paved
unp
woo
##uating
family
Aff
interesting
Tennyson
##ani
glad
Name
XXIV
whi
Castile
Cour
##REE
servants
Mason
##crates
committed
Contrad
##thest
Reception
Mediter
##iling
mons
##ertook
impartiality
War
landscape
rattle
Sabbaths
slew
cxx
Adv
Kingdom
translation
Tomb
##asse
juries
##ine
abstracted
Islands
humour
lends
##rogen
cub
implies
parcel
ans
corrupted
philosophic
ë
Du
##rase
##ills
institution
##lle
see
lear
buried
mode
Bitter
10th
138
##ortune
multiply
heavily
legislatures
mark
thrice
DELIVERED
Pret
lull
gether
Constantia
literary
differently
perhaps
intended
excited
Str
survive
##itu
ander
infl
##kins
##apit
Institutions
Verd
##nal
pru
bel
Chattels
succession
passages
inferiour
##ELAND
Around
whirl
lxx
among
Joh
##o
rais
derive
abj
ery
upper
conscient
som
lash
rebellious
##ullus
Rate
##ALITY
##agements
##eneration
##sels
discours
##acy
##aean
ter
155
##........
##ux
Pref
violet
exor
Vill
TIE
returning
provisions
Cato
whose
careful
perfections
##ANTH
##overty
Trip
FIRST
northern
complaining
matron
J
counted
ME
##pet
treble
joints
prospect
convers
ultim
Wentworth
##isg
291
inac
decrease
resistance
remotest
##izz
warbling
inconveniences
wet
surface
Strength
Alb
monopoly
##ADE
dra
£.
repre
watching
Prisoners
repay
gine
contri
aer
tobacco
##eech
Israel
easie
##onents
contagion
transformed
##Q
intermission
Mull
Magna
Presbyters
Privile
Regeneration
JULY
curtains
vig
##raim
intend
Well
description
tb
Springfield
Flu
Ballance
185
certain
pick
Warrant
vere
Ener
Julian
##ried
##idels
suggestions
adjoining
Hob
involved
Pers
October
justices
##isdom
BE
keen
eternity
imported
wrought
relied
Madame
##inal
darker
Bere
lessons
asylum
##entive
lic
Bench
tribunal
unknown
,.
##ength
Lay
revolution
Revelation
Own
Cates
##Ν
abominable
Liber
festivity
straits
formally
obv
do
Pour
jest
rudeness
Sab
Rising
POL
Chaos
remember
##ELY
##‡
ROBERT
##s
emphasis
##ation
Bened
tis
draws
Gregory
designing
pettico
animation
IL
##agus
Omnis
nit
wife
mascul
feeble
##ird
##ration
1762
##OLPH
diffuse
get
Question
measures
##itt
##IDENT
MAG
Execution
nihil
Companions
292
Hammond
patriotism
patriarch
riotous
belonged
##okes
declar
arbit
,—"
SECTION
borrowed
omnibus
Empire
accidental
meli
endless
attended
injudicious
##rable
Sul
groundless
goddess
Tran
TRANS
Allow
Bos
unawares
##licted
inconceivable
##fic
drive
##oe
##vency
allot
unconcern
asks
EUPH
##ffect
eminence
sple
D
afflicted
twilight
##ig
Alic
diameter
##igable
Miserable
Marriages
Wallis
##ivocal
##idian
SERM
boar
exhal
mice
nam
trouble
##olesome
##ulations
remarks
ai
Ald
VAL
cis
parch
Hark
subjection
Believe
211
9th
##ianus
birds
Syst
Eng
fairly
Tyre
commandment
unqu
unmerited
presence
opi
piness
feign
Ja
scr
Explanation
After
Hopkins
##ch
÷
Ib
accum
century
Liberties
Something
##eling
##LEX
##ep
Assertion
rein
spright
##aled
Langu
sacrificed
proceeded
96
probably
storms
experienced
seller
murmuring
has
acquisition
effic
friend
my
Sam
incre
DIR
Forgiveness
##attern
noise
disg
##etors
el
##ack
unintelligible
bordering
##ariety
harp
successors
xxii
threatned
pages
AD
vants
##idas
Vi
##ERAL
sorrow
Bacon
##ADELPHIA
Baronet
117
WHIT
noted
scape
promulg
##uteous
Records
φ
Overseers
Nurs
Bra
HEART
undone
inquis
IN
Fort
whols
rel
##odly
throwing
##usion
ism
##σ
priv
Younger
fossil
unprof
##rolled
unrave
Christendom
high
##embrance
beck
##acons
Beware
contribution
Methods
Emp
bat
##imes
##cript
ẏ
PAUL
changeable
sou
Excellency
##onians
Veget
homage
rents
pitiful
##IV
Of
Flor
desire
served
##aper
##ref
Eating
Stuart
nostr
Foundations
Loving
versal
retribution
##ndon
odious
talent
offic
Epith
Mischiefs
##uity
abused
drawn
##imus
joyfully
##É
laughter
puzzle
Cliff
oppose
Obligations
writings
astonish
Brown
Exch
##ogues
29th
##ocratic
(
tint
flattering
fost
Pent
specious
##tles
cash
107
Bacchus
Inquis
cessation
gathering
view
Italians
Wy
pred
‖
pigeon
##erty
kettle
resource
##l
Elmwood
apolog
giver
neatly
Presents
Load
Trans
Nap
Addresses
♮
Archibald
Chrys
wil
Gor
##ayt
shop
Jun
fruits
Saul
Colour
##lesly
Compan
child
##T
4000
inquiry
##inum
caval
##inately
##vel
elated
exhortation
##eded
##ighs
Whitehall
Prior
around
ade
consign
serted
##ology
Ab
commanded
cowardice
tlemen
perfectly
##annels
likely
recommends
##ality
curtain
pulled
assass
##osed
efficient
lateral
##rip
GREEN
acres
testimony
impressed
Monarch
##aron
Elis
sors
BENJ
amusement
##uable
Zion
##ights
String
virgins
continues
Tragedy
sept
Breadth
limits
assemblage
sowing
270
Moreover
seduce
Accord
##osure
Maurice
stays
practically
hang
Disease
##ais
impudence
##tained
Carriage
closet
sensible
imbib
tributary
##fu
nicest
ROS
grace
stations
##i
Grey
forty
kinsman
bruised
Hearing
mily
unfre
Date
enable
inhabits
bewild
##uch
##oves
breed
aequ
fathers
epidemic
blushing
##orial
Viol
courteous
Hugh
Territories
Arabia
Murray
authors
irregular
##gress
shape
audacious
visage
Iesus
invig
brook
shook
participation
indignant
##LEY
affectation
conspiracy
Obser
##ialogue
sharper
##hips
duch
ce
Vienna
prevailing
##ar
Japan
ADAM
tert
dup
overthrow
##anted
DEL
Swed
haw
immutable
speck
Heads
##bation
##OLD
Abel
##craft
prefer
alter
defense
##orp
Remarks
176
‡
frankness
##ateful
Calif
glide
worse
repaired
breath
clums
Stra
proced
containing
Earl
disappe
Beef
dif
marry
inexpressible
blushed
Spring
shell
##rial
platform
##ivil
treasures
flowing
##me
##usp
Desires
BRE
Confirm
##racted
balls
bias
subtle
emulate
Hou
betimes
Close
Chron
stiff
ely
Mississippi
forgiven
##pel
apprehension
deities
inconvenient
SELF
Mil
receives
eb
successor
##pect
exceed
##ope
Fact
##IVE
arrival
##ocrates
Lie
Ei
sonable
13th
##isl
PUBL
##work
complete
##ether
Lands
privi
##ieties
behind
cover
Conference
demean
Ri
exempted
illustration
WEST
supe
Pilgrim
Discontent
sovereign
##oys
##alled
loaf
##VIII
grievance
Doll
evenings
76
Remember
withdraw
trees
mariners
betr
taxing
Agnes
verified
Struck
##ifications
reckoned
deplore
~
inhabit
flut
BOOK
exertions
intoxicated
frontier
corrob
salted
Deut
chear
Heavens
bs
pronoun
pou
HAM
Sailors
Memorial
Lenn
##ake
Î
openings
stepping
324
inest
##issaries
divers
cially
Ground
ungovern
dan
similitude
talking
sorrowful
cottages
Whither
li
unnecess
laz
Als
panic
##agers
Malt
Enmity
Grand
rapidly
Owl
crush
1708
Evange
##ver
experi
##ements
perh
desiring
Sovereign
haunt
respiration
agreeable
faid
##ju
pire
##comb
Fishing
I
innoc
##ect
162
Balance
build
PREFACE
complied
lue
Brim
##ascal
Colon
admiring
Almighty
Marry
purg
Correct
##mb
quarre
settle
jaws
##umb
improves
Discover
Recomp
274
infuse
Dukes
numbered
disguise
CHAPTER
pell
##ld
Hes
##neys
dividing
incensed
erroneous
perpetually
whilst
##th
intoler
##iment
Phalaena
rushed
brown
poetic
narr
incurred
Tenth
dred
WATTS
arms
goose
pearance
ficient
absor
cath
counting
statute
Rub
Dev
appar
THR
tunity
Pont
poultry
cathol
Circle
winter
bulk
patch
shining
foet
##verted
starry
1776
inexperi
nobility
quadrupeds
perplexing
USE
Divinity
fied
enthus
sacrament
SINCE
prescribe
bricks
gu
compliment
Lydia
distract
dishonor
judg
##swain
gree
state
pilgrimage
pare
1s
##REW
Exc
xiv
##oning
offerings
Scurvy
Det
musician
##nt
##ark
comprehending
replied
Ven
currency
obe
attacking
##OSS
across
cluded
Going
apparently
##ELL
##uteness
##ose
region
ant
excellencies
ungover
rolled
Resemb
AFTER
nobody
partnership
marvel
Donald
supream
retro
##asciv
enduring
indec
surviv
negligent
##amorph
recorded
IMP
Spectator
indiscriminately
Savi
offi
hyd
##vering
quiver
##ited
trag
##ABLE
Fris
fiddle
parallel
chord
palpable
Bourbon
Jub
Troop
discharging
sweat
Meadows
resolute
Venet
vegetation
Alc
standard
befal
weeping
ceiving
Ranks
until
Verily
Spoken
robbers
placid
spectators
Support
21st
miserable
Sickness
Fr
Isaiah
But
##olves
##ne
imagin
displease
injur
candor
Pope
Shape
pushing
firmly
cr
##osus
endowed
precept
editor
Troub
obst
instances
planet
syllables
dly
binding
Doub
Communication
persuaded
Margaret
gratification
hot
enjoying
policy
neglecting
##ax
pleaded
##onic
Authority
Thames
dealing
tories
Shadow
impelled
Egg
families
41
Nazareth
importunity
liqu
##oins
peerage
chicken
compliments
inscriptions
##rast
artist
pinion
shattered
imparted
toes
Undertaking
##umbered
Repose
Lock
WOM
coco
ginal
revenge
Ö
##ims
hea
dissolve
##attels
##IONS
##teth
surely
secondary
##/
dors
Courses
afterwards
BO
quires
283
##),
Cities
Fay
pol
##powder
Nobleman
Penalty
lob
##avours
destin
foreseen
ler
acquit
##;
##nis
Cur
Massachusets
Rabb
CONTENTS
Station
tiss
INDE
verdant
applications
cross
portance
situa
treas
fess
deepest
speaking
octavo
seeming
vile
weather
in
1758
Offic
sentences
swe
tations
phil
Duch
##ACE
Lloyd
servitude
flat
BRITAIN
Game
Universal
Oss
##inda
##iii
satir
Grot
Kel
Intention
Leicester
dissipated
Sublime
Troy
counterfeit
##isible
##easant
Stud
moveable
ministration
haue
##rations
venant
rising
##ATIC
Dead
ducks
##iter
sacraments
Mosa
Keyed
wonders
##J
societies
cheap
Admiration
##aks
##reck
##othy
depredations
favourites
Living
##itat
¥
Cloud
Ld
whence
ol
Son
Arthur
tragical
resumed
James
Tears
Valley
Latitude
/
ascribe
Travels
morrow
Regn
Tone
Habit
Divide
##idents
women
made
Aberd
incidents
estimated
Action
aver
Try
th
##cat
Manifest
Weap
CCC
Returns
laborious
##ifica
1707
seri
pig
keeps
relie
sis
holy
Exe
hated
scale
##vie
Grant
Work
Mortals
philoso
desirable
departing
Blind
Settlement
surve
Imputation
invite
CX
tacit
overpowered
material
##ULT
negociation
incurable
terrestrial
ineff
occurrences
nous
##igns
kills
##issible
##rae
freely
hear
Condem
earliest
disgusting
im
ride
Admonition
judgement
AMERICAN
a
MAL
dignified
withal
##wards
uneasy
wealth
merchandize
damn
##cribes
Windsor
hou
##iations
111
##rich
Rags
##ices
uncl
gram
encrease
❛
electric
ga
pursuant
buds
Pu
sation
Trials
Shoulders
ĕ
dearest
MON
nions
idols
desperately
indications
confined
##bal
Relation
Fix
upbraid
obliterated
wholes
wary
##ternally
Epistles
Stern
easiest
fever
Susan
principally
scribed
##ified
fiend
Decency
cessary
Missisippi
Vanity
ditch
Rich
##ndar
##ici
EM
symb
Protestants
sheet
##istle
tor
booksell
come
##zie
(;
monarchs
controverted
denies
Shep
Cat
Buck
Repent
WHAT
238
wiped
##zy
Funeral
arrest
##ugh
enjoyments
scurvy
##opt
Simp
pretend
scend
square
Daniel
deadly
##OGUE
illiterate
##cation
prizes
crystal
endanger
shun
Adul
intimately
weapons
recol
performance
Branch
spective
##bro
##RO
RE
clergyman
illegal
dejected
uncons
##wart
Sheriff
desertion
Character
308
##je
Gothic
myster
##ctors
luckily
##inion
Pir
rust
##otted
cies
1685
Vict
Offer
factious
##fulness
basket
Death
haste
Psa
agony
##agle
sA
##seen
reckoning
1749
vicious
##oty
Solitude
hearted
danger
unto
##ira
panting
shouts
powerfully
CHAP
Dam
parting
##ign
whip
trembled
pairs
##ctic
Agre
tempered
practices
Limits
boon
##houses
##aman
warm
ILL
urine
Skill
Sir
Benefic
##ì
useth
cra
##leman
##from
pleased
woods
##amphlet
shift
stre
nice
novel
cheaper
discharge
Denn
maxim
##mel
magis
figuratively
##RY
seraph
MDCC
seve
Fingal
arg
##stitution
eat
##burn
pear
art
ma
complish
ninety
SYNONYMS
trumpets
employed
habitations
herbs
declaring
Wednes
spun
animate
arri
thund
action
bottle
za
Come
wives
quietly
unregenerate
Plenty
Bristol
;'
acknowled
Penitent
##ran
Brib
shirt
forgetting
Whim
steer
nov
cho
nurs
Forget
retal
##inge
coe
##erem
Except
##olate
nominate
bay
purchase
rapt
judgments
263
interposition
bounding
Famil
va
banishment
sieve
Transp
commendable
defy
plough
predict
Mischief
negro
pret
shamefully
gau
suspecting
##cend
nounce
◦
pitied
wickedness
##IM
shatter
Wild
drawer
Young
sec
Sexes
##ules
Dictionary
##ospel
assisted
JUL
Contempt
Canon
Benef
another
lan
rance
DAVID
malady
##unce
Elev
forcing
infat
PROB
Θ
attitude
Babylon
Bibles
bate
##omet
Paragraph
topic
##icia
water
articles
Damp
solitary
Prodig
cafe
ceed
Arnold
nod
wan
shedding
Pisc
Weight
miraculous
##edi
##ged
##house
Constables
poverty
purchas
wants
Laud
##OPH
unconcerned
fine
Attention
##issim
Rogers
Simple
Pop
##verting
AE
Imit
universal
mour
##ournals
stimulated
thorow
vigilance
compil
spared
abol
colour
possi
insulting
Talk
curing
Socrates
Americ
proportion
for
Sol
manufact
physicians
##aging
Negroes
Round
sessed
Lincoln
colle
Curt
inha
litter
##mour
Sentiments
August
navy
invidious
Grass
Inher
##abilis
unguarded
##abo
fowls
##ials
MAC
ills
implacable
Jurisdiction
shoots
devoted
gistr
##OM
GHOST
Temptation
perceiv
1786
Bart
Imag
deration
spar
consented
.]
Proceedings
Warr
ths
sermon
unwary
suis
distributed
threatnings
Wants
Calls
Geneva
ge
##ometer
inventor
lease
Kenn
polished
Rites
writer
Abbot
##so
exclaim
##xton
sally
Mars
##enders
Ruin
Reading
COURT
whist
Prayer
whet
Friendly
##erce
Wilmot
##v
##uil
##igr
Ordinary
Streams
Craig
##yme
sister
terr
350
failings
revolutions
nistry
san
naval
flaming
respite
telling
##riev
Newfound
{
Med
##ciety
onions
sprinkle
Glan
otherwise
dissim
Convulsions
singularity
2s
fro
pines
Evening
loading
Silence
coals
Levi
##4
Symptoms
chem
afresh
##IETY
##icate
varnish
enth
lated
concluded
##antile
Asia
***
##ican
perpetual
Alone
†
cret
unmer
daughters
##worthy
##elope
conception
subscribed
Manufacture
103
Archbishop
Northumberland
##ofe
sparingly
Pull
##ful
ball
homin
##au
compl
principle
Middleton
Would
##ling
nef
Skies
:"
Importance
##verance
##anim
lest
tenets
miss
Essays
##bers
casks
Nob
##itent
believe
Thoughts
Fairfax
eases
gown
##zel
Sixth
Ly
##uv
Ley
factor
poignant
wayes
fortnight
soe
dignity
distr
inherited
theat
inconsider
Blessedness
tradesmen
forsaking
Enemies
##oushold
judicious
pav
##ciples
subst
wandering
injunction
subd
false
Harmony
stop
leges
Benson
larg
sustains
hypocrite
arraign
##raph
Affection
Calcul
Yard
rice
spacious
##fting
trary
States
Enacted
Cha
preju
##§
Priesthood
occupied
work
ghastly
Somer
recourse
advising
year
Corruptions
cart
excurs
cher
creased
discretion
simple
conspic
thei
different
Conquest
##abs
##char
Door
scholar
##teries
individuals
Constancy
bro
councils
mast
##¿
transactions
forms
##ingu
inh
insol
Joseph
default
##ita
Salvation
ensues
##ail
jar
wear
Trif
hound
experiences
shepherds
subsist
unluck
Taking
sters
Prev
Est
Serious
assu
held
behalf
sprinkling
ridiculed
##iguous
owed
aqu
Praises
join
vap
trace
Tam
led
whispering
jesty
Colony
tawny
scald
##ranean
stimulant
Ō
##on
sometime
Star
argued
magnific
##ONE
Philistines
enterprize
Parliaments
sticks
acc
times
JEH
##case
Natures
IT
tainly
##ennium
pearls
ration
sprinkled
##ships
Person
Particular
irritated
##loy
doings
unquestionably
succ
Columb
appeareth
usurper
##icon
studious
LETTERS
incons
faithfulness
enables
resisted
degeneracy
Od
Gown
Li
Already
anal
Doom
shortened
trumpet
Plow
!'
Fal
io
discern
frig
##XC
reeds
Ross
##phy
bland
boys
Reyn
strained
viour
echo
BR
mistaken
antidote
veral
Reg
##egr
vigorous
700
belongs
##oirs
confeder
Coming
degr
deliverer
Villages
Lun
sauce
miscon
neglig
drop
OL
bouring
Lamentation
ed
Maid
mockery
varied
Booth
extrem
rity
rec
ghost
labyrinth
essay
cultivated
##OSP
daughter
Priviledges
##ripp
pride
existent
pierce
Me
conquerors
irregularity
##ORAN
ARTICLE
leadeth
snatch
##yth
tages
##asion
scornful
Giving
Burgoyne
eloquent
Appe
wounded
232
liness
path
##acing
MER
##ysis
##very
Comedy
haughtiness
reproach
circumscribed
blessings
patriotic
Annals
impostor
tormenting
##vir
bile
##fr
Ptolem
##yd
despising
Neh
capa
successes
##utary
bottom
discharges
fearless
Glands
dignities
Clif
gour
wherefore
rece
pleasure
##eds
resting
Lindsay
sworn
conspirators
bend
##roads
hastening
Profession
Assemb
bash
TER
conveniently
inflammation
thor
plague
##liament
collections
negoci
indisc
necessity
Beggar
Appell
nounced
##ris
Everlasting
##inct
opposes
Hert
Adversary
arbitrary
defendent
Poult
##igate
angle
Dil
Vice
indis
yours
##idel
Palat
alph
below
choly
Cop
encou
Subjects
strive
praying
rapacious
Connex
##alf
##ographical
flattery
194
footman
PRESIDENT
dor
Table
Attest
##ailed
insign
Scour
ascribed
complainant
posing
##aneness
judic
inexpress
Lit
imaginable
access
PRAY
Supplies
bands
language
Sur
gravely
terrif
tired
Acad
hunting
Sil
##well
Suit
wield
fupp
det
Transgressions
##ining
bolts
Pastors
emig
splen
elu
beholds
Exp
excursions
Berkeley
Alfred
complacency
Browne
rue
##acters
wound
quaint
##ump
manoeuv
Delights
##iar
partaking
proach
Congress
amp
claim
pals
cours
KNOW
Wisdom
vigorously
compressed
sunshine
##occ
tamed
constituted
Witches
seper
rejoicing
metal
28
festival
parson
swelled
##ç
fus
Inform
Mann
underwent
##erick
vol
infinite
neg
murmurs
circling
divide
disc
auspicious
##ulence
imitated
##£
Sing
)—
lings
intolerable
affections
Services
ies
1799
Belmont
marrow
Qui
ingredient
Antennae
admonish
precip
##rections
##quer
Belly
CHARLES
##oult
Ṡ
Snares
##‐
WASH
goods
Knee
Hur
Arian
studying
Fel
SHAK
biting
Infall
intel
animating
puls
compleated
##zen
prevail
remedied
manded
pore
##berry
cla
excepted
displayed
generate
Austin
IX
wip
Chaucer
##ES
founda
##iots
inquisition
fills
Shen
furnish
1704
Such
Stations
Essex
Formerly
##meg
didst
Surgeons
hypocritical
dently
lovers
##ERE
excluded
##master
rounded
asserted
##igned
FRANK
Hamp
dispensed
Benjamin
Cyn
Lou
bowels
##∞
parable
dame
##ning
bound
##acco
ts
Finding
project
ravish
Renew
earthquake
Artillery
house
##inery
partial
legislation
zo
nefit
concom
THERE
sum
trance
exclusive
irons
):
##bec
wood
Nobles
contribute
lies
##issive
felicity
forgiv
second
kindest
monstr
creep
43
##uss
tumbling
prophecy
LYS
frenzy
habitually
Neglig
FROM
##ni
Joan
inducement
sure
Anecd
##ouched
forc
Febru
int
Intest
channel
education
politician
effected
##ington
Pra
Directors
sidered
When
Repentance
affid
afforded
Loren
Best
Seals
cases
endowments
172
unavoidable
Bethle
Moll
Resent
##ingham
Harold
regu
##oise
Intemperance
Swedes
vener
unpr
cap
Convention
Examination
numerous
90
grudge
##onius
Nottingham
Flat
already
preparing
Philist
##ects
Brom
cx
Usefulness
Wright
Christoph
##obson
Alicia
prudent
romance
overturn
defective
welcome
unseasonable
betrays
##etrable
chiefly
bushes
ked
senator
thirst
##G
stor
creditor
terminates
Ind
grav
##esis
create
exper
nurse
dozen
houses
Tour
®
fancy
vor
continu
ped
##ini
needle
No
diligently
darken
inspired
xxxi
treatment
bened
remind
Hag
after
filthy
philo
##umbers
S
##geons
vigilant
eman
figure
joke
plump
##ailles
anx
constr
swelling
mig
wretch
Possess
paradise
morally
master
cage
caress
gild
##ager
Apprent
shadows
manners
Looks
eleg
womb
specimen
Rod
resolv
##iffs
syst
reserv
nigh
bowed
##RINE
ḟ
inheritance
Gro
##uris
##ounded
INS
impotent
enlar
Consci
sands
selected
Doubts
barony
MANY
eccles
dens
Walton
Adventures
HE
least
deaths
##assad
matter
##itie
AM
XXVII
dissent
##anger
flood
refused
irresist
##EDY
irritation
ceasing
writ
interrupting
##OUN
##cension
pared
Ship
Norton
##lest
marriage
##OT
daugh
Advantage
vexed
coffin
injud
stration
##utus
shew
lon
unth
##NET
Contri
rhym
vested
B
charming
Princi
Poles
types
vernment
deprive
Mexico
mason
twisted
shaded
burthen
Ca
fold
##ived
Rumph
HOWE
Franc
boy
##ATHAN
fragments
##ortive
dexterity
intreat
Prejud
hardships
preceded
##rave
Jefferson
regent
Steps
timber
persecuting
bride
Humours
ridic
Therm
##ĕ
prices
Desert
plausible
nim
Witnesses
mortification
##Α
sume
favour
##robation
Comple
##ky
Tartars
obviate
strenuous
##one
aff
Hyl
Both
Barnard
kin
humbly
architect
outrages
costly
printer
coral
mysterious
inside
excessive
lav
Sorrow
aw
himself
indirect
CANTO
administr
ADDRESS
Sacrament
##fton
Cerem
sires
bowl
319
variations
##inations
Monarchs
##ONG
obso
Switzerland
##ignant
PROLOGUE
decree
Therefore
tide
##wort
##illed
imagines
##ante
##eting
sounded
plays
delegates
##edient
Extremity
##Ä
Quart
Talbot
relieved
##DE
thick
##nds
scour
mag
Ρ
odours
##ready
Stamp
challenged
injure
Spenser
beguile
Russian
Brit
polish
relying
inspires
dinner
Laced
Jack
Water
Presumption
Politics
Olymp
dear
Only
##agles
speedily
##rus
pomp
dress
surveys
##CI
lingering
se
Alexis
Mour
numer
solid
Cir
sooner
ip
accumulated
hint
prevention
##idus
dazz
Ireland
Laughter
to
preparation
indispensable
Ke
acquaint
Chap
##ortunes
transmit
Provincial
rotten
Jealous
ich
Constantinople
Attributes
INV
arriving
restore
Judgement
summits
cherish
tranquil
##ciences
HEAVEN
ey
##ove
##inacy
Calais
lodge
escap
meetings
Di
dost
siege
tism
271
Read
Leaves
Prerogative
ruler
wri
Imper
retiring
Ormond
OH
%
##lood
##esus
exempt
Bass
Ou
benefit
listened
Honourable
regulate
vanities
Ends
Fitz
inhabi
prun
maim
##cially
indolent
ragged
Iron
....
propos
##ocracy
Ambition
religions
nius
##ait
watry
voting
afflictions
malef
despicable
jug
glory
Verm
logy
tou
preferable
Rape
TRAG
##es
Introduction
cease
apt
surpassed
1768
arrogant
nate
Preservation
##ille
rich
votes
novelty
praises
compli
Superiour
Divisions
##claim
surprising
##cet
Athen
confide
forcibly
embellish
brilliant
178
mans
laid
Calumn
les
Himself
opposers
Thief
##--
bable
disown
Etym
Moore
Base
differs
unparallel
Turks
clar
##roachments
goats
##uvian
##agon
♦
Planets
purposes
Relating
membrane
##m
esteem
sity
yea
chol
Geor
Common
rab
##ste
Views
##lagration
transm
Morgan
COLLE
stratagem
##pri
westward
nervous
punct
methods
delude
empire
plural
dwells
guessed
##isting
Calamity
convenience
excitement
reconciliation
fection
Leagues
commits
persons
astron
invaded
##pple
MSS
Cambridge
##alis
enumerate
##cing
convinced
presided
Morocco
extravagant
lieu
crown
Braz
Quantity
persuading
Late
HUM
Ezekiel
##eg
pier
unacquainted
Supp
Lennox
maid
##IZE
clouds
##xy
numb
##don
hanging
grown
proves
Abundance
vilest
intimate
surly
Conject
Exercises
Changes
##itaph
intire
apostacy
sustained
##ξ
Eggs
destitute
expire
##ceptions
clearing
Com
##ecy
1773
1713
broke
emblem
JULIA
prosecuting
Thomson
##co
Glen
##IANS
ih
accounts
constit
Lust
Herbert
beget
##send
strip
defin
400
Conspir
alliance
##icked
Hub
OUR
apprehended
angry
##ension
##ua
explains
##upport
deformed
9903
Associ
charm
Washing
Thes
swarm
nectar
Incons
Justification
Occasion
##rases
brandy
Distempers
field
allude
Crit
ens
prolong
Freed
ideal
##ceptibly
discipline
convulsive
thrown
surre
ware
##ream
competition
determine
partake
Domini
stranger
Pall
don
brood
hunt
inveter
##phal
ch
mea
id
Strat
dw
##pl
##mat
unintell
wishing
rang
##urable
##δ
Wonder
generation
impolitic
268
Marquis
Ges
bug
hav
##fes
Abst
##ons
contentions
transcendent
condescending
Holiness
disproportion
prac
vinegar
divorce
Sim
Wars
##lexible
successful
Derby
Mar
##ignt
red
##ha
married
Ber
##AUT
ask
##anned
deceive
##lings
Florence
Concurrence
rubbed
Portland
peror
coming
cope
Much
Oxford
Newbury
bleeds
worked
grateful
serpent
##avoured
debar
Jerem
vivacity
facing
intestines
more
barn
##uel
BAR
##atum
knights
PUR
neces
futurity
steward
Assent
Pallas
##rig
senate
make
##ral
wherewith
Cowley
IV
Phala
Cattle
remov
bount
heath
Excess
rests
acquiesced
vanquish
Conver
driven
assisting
inferior
waited
Bed
succeeding
follows
##aeus
customary
##orth
Kenned
imple
auth
imports
Garrick
handled
##quir
58
religious
improv
##ext
##rain
##endom
TE
##iversary
Select
permitted
combat
##rell
guess
angel
hapless
resembled
progen
vas
LOU
compounded
hypocrisy
Revel
Necessity
haec
recomp
GOOD
##AFF
ny
serviceable
killed
ruff
districts
sordid
##abl
tension
inher
hero
chew
lick
instruction
dreadful
Wig
flo
##volence
fountain
fiercely
unpre
sists
viction
##INGTON
Reb
wild
##ettles
unholy
Candid
Veins
Assist
riv
mines
##amph
visible
chill
doth
Georgia
Circumcision
prevalent
##ee
stan
##unto
##utenant
accosted
hope
##broke
enormous
supplies
fed
Dye
uniting
misfortune
infest
##rians
Sermons
Stru
changes
remission
##neath
Dorse
¡
rubbing
dissolving
effort
implore
##ivers
Dryden
forgiveness
##EL
preservation
##fty
springing
Ves
Zach
##imen
when
Reade
alternative
ablest
57
punishments
Contrivance
lesson
arises
continental
forbidden
infect
fate
discerned
##alm
systems
female
##retch
ANTH
##col
##edes
dev
##icating
##̄
rs
clined
Unbelie
Old
Ora
mitting
AF
administer
Auth
##feit
##♒
spur
medical
renewed
Mah
Ṗ
addresses
rivals
doctrines
involve
aforesaid
Eph
lowing
Toil
dle
maxims
Coward
Marriage
Uses
Dri
Foundation
unutter
tire
fortunes
seeds
COUNCIL
chorus
204
JESUS
tost
lump
Prejudice
hy
343
Ste
Lect
##ults
##theless
modest
omnipotent
saluted
six
Morrow
—
hop
##rued
investigate
##inds
disputes
dity
fut
##wise
Disdain
momentous
##opard
Mas
##vy
spontaneously
Enough
lac
offering
Denmark
##heard
violent
disag
Delusion
fin
obno
Filth
viciss
commune
graciously
rhetor
presume
hell
waggon
Ambrose
directs
Uncle
Sar
porter
attractive
weekly
##astic
sunt
Marg
Towns
##KE
##iy
walls
analogous
Oaths
##ridge
Heat
domestic
Epis
##II
terms
overflow
defends
##arrison
emo
€
put
97
ear
1718
sae
Spe
##adle
Arundel
##geon
##ighted
germ
offence
##oly
indisposition
##uction
comprehends
IA
ket
##inkling
intim
lin
ranged
##nage
Madrid
nails
casion
regretted
Result
intirely
Omn
lavish
Sloth
Till
##ENTS
##ruptions
Our
bidding
Skins
duely
provi
statue
Yet
accused
Gideon
ax
Jewish
appear
##IGHT
mort
allegiance
limbs
Merry
sired
anf
stumbling
DEC
esp
##wy
##rils
att
cated
risen
rebell
raven
phia
acquaintance
313
Walter
109
##illa
##cr
New
hundred
##equer
candles
deficient
Occur
Shades
##thus
dispatch
instructions
##lli
Fra
Garments
Honest
inconstant
Injustice
##itchen
betake
forefathers
##ructive
grate
##rd
##ELE
Salem
Rele
Disgu
custom
##tern
derstood
Prescription
comprom
Injuries
##antine
sighing
Modesty
Nay
##aded
perfection
Idleness
##ways
SUB
aid
wrested
Manchester
Briss
Lecture
hark
Archit
##]
forbids
digest
SOCIETY
navigable
eff
Weakness
Lat
jack
ors
##shood
##ony
hearken
Harp
Surely
nor
Tenderness
Romish
withstanding
allowed
hook
Husband
Dame
foreigner
maturity
Patriots
metals
Ram
Prayers
Conqu
Geoff
defenceless
##zo
engraved
SMITH
immoveable
stipulated
##ustom
negligence
}
dyed
unapp
Mach
sovere
acceptation
Surface
intelligence
##wall
ocean
author
Faun
##IAL
SIX
Wilderness
##enta
Eliot
Testament
##ially
tragedy
Masters
Sally
Spartan
##alsam
highway
quartered
Lev
remem
Lod
##ropri
subtile
Holland
party
Themist
lamented
provok
absolutely
Platform
pocket
##itates
STRE
tants
MORE
hension
Intent
winds
tiles
licentious
Eter
Legal
existed
##Δ
Type
spirited
Schol
##ead
##eer
Barn
artillery
Pretences
ulcers
Iss
Circumstances
eral
feud
panegy
Pair
unacqu
##RIST
gums
ston
depressed
vineyard
honestly
reverse
ments
average
perfume
contro
natures
;,
##mes
nus
consistency
gale
Purs
Flame
Eugene
paid
corn
perfect
corrupt
employs
ADVERT
Hypoc
quarrel
##ennel
Design
fectly
ratified
succeeds
sung
nature
Dignity
Letter
bits
##ITT
mite
favourable
##idote
formation
Inclinations
tar
independency
##adows
Library
Member
ŵ
Manners
unfeeling
Ach
seconds
##UINE
thority
scorching
Chart
ree
242
Williel
Cheeks
##vre
cus
advanced
feeding
disturbances
himselfe
comfortably
mixed
twist
redemption
repugnant
interruption
Chapman
Parson
withdrawn
Dissenters
passeth
HUN
##isph
mud
rior
umb
endureth
Ass
meas
##ots
##enture
inquiries
withstand
beneficence
forbear
impressions
Ss
Exception
##rehension
TW
quickened
ruption
LI
Aim
boots
diligence
lucrative
reso
solemnly
obstacle
Esp
Fem
Fall
stating
innate
hiding
excellently
splendor
dang
Church
lit
Doctrines
floating
WILL
Die
##cture
reduce
Organ
Poets
##ussion
smith
unfavourable
revival
perceptible
Fidelity
inclose
Theoph
CHIL
Φ
##ouncing
##ley
opposing
pillar
Waste
ind
forehead
Apothecary
##ifts
privileges
assemble
dressed
impeachment
Dreadful
Are
baptism
develop
entering
fixt
thrive
enquiries
uncomfort
Resentment
motive
fatten
Frontiers
Gree
1689
1680
##ingo
##ANK
uter
awful
sleeping
lengths
greedily
various
##ipping
Dog
notwith
Quantities
Satyr
referred
read
ý
Mystery
##rom
Third
##rand
Statutes
Cursed
intent
Damn
Sovereignty
Congregation
ε
covet
Sene
##Ie
conscience
searching
Sometimes
##brook
Attrib
descending
Intentions
Companies
lime
Subject
##ographer
pursue
mystical
ferment
thicker
entire
villain
##mption
blem
ó
thence
airy
Ier
##af
Cassius
priety
liver
Palm
accept
couch
Martha
Dread
demanding
Diff
Another
Likeness
Exam
subdu
resume
ζ
Origen
hollow
♉
sac
Mogul
hypoc
calamity
##pherd
##lan
couple
manner
Nova
##ades
plained
shallow
sermons
doubt
##ibb
15
##alions
##EMENT
oppos
shud
finger
Heaven
Cler
seize
gn
##itti
subsided
veracity
Shillings
mercy
clown
constrain
gious
wond
##age
debauched
##inces
Policy
##anche
Ham
matrimonial
perpetrated
requested
Hague
##uff
Dom
seq
dissu
##urities
##rees
commodities
Despair
ED
Strip
hail
storm
firmness
Frost
gentlewoman
Isra
Delay
familiarity
##lace
tropical
regularly
unheard
nodding
convinc
##igation
##ification
Champ
Jean
departure
renewal
Vapours
MILL
Summer
levelled
Des
These
##allel
##anse
Temp
knowled
iuch
##bis
steps
stall
vast
ample
gradual
Pastoral
using
##ribution
rump
Boats
croud
iniqu
unmarried
shewing
Ulysses
habitation
advances
##andal
sight
##app
repro
Language
omitting
Imagination
foolish
cle
Trump
cited
MUS
cogn
193
##go
##apped
Tyne
Aetna
Walk
Chancellor
criminal
Pharise
dismay
##ipotent
myself
combination
extol
entred
Midst
tract
pervert
Adorn
worshipping
##vill
enterpri
Magi
volcan
Trouble
Fame
##ania
aged
##eers
prosecution
Medium
Lewis
198
##ampled
falsehood
displeasing
fbs
Calam
Mr
##BLE
lenity
Beer
furnishing
Drop
Blame
sequence
plundered
Negligence
diverting
##ASON
decision
Deer
##IDER
decay
nakedness
PROV
##ipt
Ker
AL
##igious
##nia
ENACTED
safer
ventures
asking
##oment
Esteem
tense
dutiful
Batt
Host
Fright
husbandry
intrusted
defend
affliction
wronged
stream
MR
lads
316
Smile
##ifyed
Equity
stained
arose
Jonathan
levy
Air
Ephraim
##cclesiastical
Ring
civility
##ivity
Reason
Prem
##ger
Baptists
##iments
limitations
Moment
scur
Universe
##imely
requis
##rane
##ongue
##cot
Mau
purchasers
civilities
good
mon
##ibbons
lu
confidence
improvement
Green
covenant
##anct
Baptist
fers
prodigious
slight
##ample
exh
certify
epith
inspection
Valancourt
Sup
wine
atrocious
Misfortunes
lodgings
nause
endeavours
##entimes
Recomm
designed
possessions
exposing
##enerate
Shr
Vel
hereby
necessities
Mo
finding
convince
Herb
Away
whale
1748
∫
forbearance
visits
fools
Wrongs
##ired
dauntless
further
##liaments
notion
hungry
spit
encountered
repenting
she
##itive
127
##retched
ounces
##atick
lava
vom
parade
##uming
ready
##ilian
Suffolk
##cession
sow
curse
(-
##recht
witness
identity
tang
fessed
adultery
lievers
gem
Hat
loqu
THIRD
witnesses
thine
faithless
THE
Arminians
cri
Moor
##ca
##α
quent
frustr
orderly
Gods
White
Specul
##itted
earldom
prayers
Clock
Chear
accompanied
VOLUME
ferry
AB
appoint
##ragon
Shot
##ifter
exp
chased
excluding
tumult
exhibition
occ
lodging
Opposers
propositions
TIS
yes
reluctant
obviously
husband
Answ
liar
Preaching
distraction
intrigue
reducing
Principles
Hypocrisy
believing
detection
Whenever
##μ
sted
##IDGE
singing
lou
friendships
Happiness
reaches
Themistocles
mechan
remonstrance
larva
##lein
convoy
##oles
Against
SYN
instruments
abject
cream
tell
valid
rived
##ert
##ton
fal
official
over
roasted
Woe
Galilee
thankfulness
Ag
Kings
cause
cabbage
contented
streams
##erated
almost
##othesis
shed
determination
trampled
Adrian
something
Executors
clam
##ithes
Union
repres
consumption
oversh
Bore
friv
ŏ
entertain
debauch
tel
##YM
##chat
crying
N
adjourned
##KER
##ah
volunt
##rim
unprepared
before
##rified
Blunt
Separ
Hanover
Agn
sakes
preme
Estr
ar
abst
cast
separates
##lictions
##nton
flavour
unsk
personage
distempers
Defendt
Forbid
underst
toe
Edgar
252
Savannah
Delia
Eleg
Propriety
Ia
Juno
mangled
dependence
corresponding
Eminent
vation
Dorriforth
Statute
thar
Corinth
treachery
##omi
jus
degenerated
blade
Dan
fract
ungodly
##count
paroxys
##chant
cipal
taught
Bruce
Vine
Proud
growing
dissemble
El
PERSON
Sac
Buckingham
ŭ
Victor
fel
preached
λ
Righteousness
liz
##NING
insipid
happy
adverse
curt
wait
Sib
Loch
Tib
##uly
Memb
oz
Reigns
directly
approach
Canad
blue
##encies
gaining
DISCOUR
ET
aband
rough
univer
Arguments
##ishment
provided
Milner
##ickle
##aged
preferred
Crime
cul
satisfying
##ame
disconcerted
proph
Bru
mitigate
##oi
##eous
Brute
##cients
predictions
Serving
Stand
##ias
deriv
annihilated
obs
##eves
Fest
Once
##ster
122
##anny
'
abbey
massacre
beset
vegetables
blaze
strengthened
period
Maxims
practition
votaries
refuses
##onis
discoveries
cock
hel
Worm
##akers
Lor
sli
##**
Desire
relative
18th
Lith
several
Christianity
##urous
Never
Tresp
decorum
single
##oma
point
Writings
efflu
Thee
advertisements
initi
transl
branded
##da
Cel
##ilst
Naz
reluctance
incline
founded
Farmer
Loth
ö
##ical
conversation
tolerable
##rimonial
Dies
##forts
margin
ornaments
intellig
informing
##esc
Cullen
complexion
Purse
Concern
unfit
Command
Remains
##iest
Pun
##not
counterfe
Doc
denied
whither
IND
Carnal
undertake
stupidity
sheltered
circuit
mold
Baker
entertainments
Follies
##semb
spoke
Cast
##adies
hackney
commissioners
CONSIDER
impediments
Virginia
Dispens
nel
stories
mur
▪
##ANC
performances
narrow
defendant
Hudson
ὁ
Bottum
Medic
College
recommended
##AX
Oak
Ced
Pant
conveys
Ara
cheerfulness
since
indisposed
destroyed
First
MRS
ad
##allow
Author
##zz
Evidences
bore
confirm
unper
hug
##bacco
nut
picture
latter
doubting
stately
yielded
Jury
duction
vourable
piles
statues
vertue
##BOR
endearing
degener
espouse
HAVING
##irch
enact
Atkins
recommend
trodden
##arm
professors
Proportion
Virg
Horse
pole
Bleeding
faint
SIL
##aldi
tribun
##sea
ORDER
celebrate
shouldest
however
Alleyn
heroism
Howard
##iform
gre
amber
Welfare
Vo
##ures
ia
Brad
cession
imag
sistent
##Θ
xxxiii
indication
Constitution
Pearl
##edience
##oughs
dreary
undeserved
recess
##entia
Sn
prompt
annihilation
avoid
Co
Whitefield
permits
constant
Tro
devouring
Theb
##%
foibles
compre
clearer
PAP
spark
fron
##p
dictate
snowy
surprised
affinity
ue
##x
Innoc
eas
ingly
Kne
bloss
infant
source
Humour
energy
popery
congr
interm
Predest
ail
Veil
spects
abuse
##orem
##iege
extort
fix
treacherous
Kind
Hym
297
reconcile
enchanting
163
Dwelling
melancholly
Us
Greville
distrust
ley
Apost
Bud
allevi
Esc
Face
##ECTION
lar
Circumstance
wert
Depart
Poem
throat
Charta
á
Uncleanness
cin
Juice
En
Morr
fairer
resigned
foot
##inel
maids
Thr
Tree
Soil
Adversity
500
Wrath
grievously
obeying
ponder
virtuous
##lorious
ill
Friday
influ
blend
Height
fas
savingly
disposs
recede
Pick
##amma
##ced
##ilus
fight
##rinted
stronger
assem
pretending
sable
##ario
Rej
instituted
Gol
Dish
rays
xl
Su
Patty
Bishops
lers
trying
Curiosity
sensations
Phoebus
##ashes
##psy
##ACK
praed
unple
murmur
Found
treach
wav
originate
excise
##sis
Thorns
contracts
##gian
wra
Deliverance
GEN
##abilities
trimm
Moderation
exceeded
fibres
##apsed
##insic
Cost
Fo
acquires
##ras
CRE
inhum
##pents
edge
imposture
apothecary
oss
##achel
recommendation
meanly
##reeable
##ancholy
Haste
informed
##oice
##ETR
##eroy
Dol
archbishop
Schemes
Lyons
Rever
INC
Dal
##ees
offered
convey
Bodily
Og
Sto
teacher
##entric
Cyprian
antecedent
obsc
candidates
Peo
Don
Publick
lad
Delaware
acquiesce
unborn
##st
##br
kingly
attracted
Montgom
Privy
##rench
Successors
GENERIC
paintings
perseverance
health
Draught
Rex
blemish
Weeks
Review
inst
encl
277
suppressing
Tiber
Sleep
##felf
Kinds
bribery
##elling
Call
Prime
Solemnity
##unction
REC
corrup
hairs
Containing
yield
aloud
surrounds
Stup
##ominations
##edo
silence
thief
deacons
##ustules
lam
cloud
##inite
fined
Natives
ě
##oded
Providences
Wife
CLAR
brought
##oph
Guy
ry
insert
xxv
fallacy
Proclaim
thereupon
extraor
wastes
illustrate
Ammon
Briton
destination
attach
Bri
Dict
plunge
Barrow
successive
softness
inspiring
searches
##ruction
rant
##apt
fallacious
`-
Dunk
alleged
##ote
##aser
expensive
debauchery
♈
conven
promiscuous
respect
Industry
amicable
FRE
##itious
Particles
emperors
Broad
extent
machinery
##taire
Aur
str
##to
slack
1706
peop
worth
Hic
graces
eligible
ire
unde
friction
##inence
closes
phal
Defend
cheeks
##obo
TR
carr
swore
Bent
MAS
##ness
mankind
##rical
Ii
app
##atious
Welch
Disd
Cro
Salmon
Er
##ham
gover
##itum
Lanc
exceptions
Affect
adversity
company
Arabs
Professor
puts
deservedly
unfolded
Eliza
Voices
plainness
##℣
whatsoever
hunted
apprehend
guished
Orle
obstinate
crew
col
unutterable
suddenly
spic
Diseases
tinged
##lling
deposit
ning
Spanish
discour
MA
apostle
priest
##iously
miracles
handling
adorn
##key
##itre
Departure
repe
fishes
##impse
impediment
rainy
Catech
hosts
Vass
##itudes
harmony
HEAD
CR
interval
OBSERV
##EY
##ANCE
consideration
##safe
youth
obeyed
Hitherto
huts
##ancourt
Tar
paper
edu
perpe
money
onely
Faults
Shall
Ene
Middle
Eb
Fil
Bount
whatso
curved
##avor
rience
enters
Double
compared
Conse
dioces
phrase
##ernation
Pepper
finer
286
##Z
Liturgy
gaol
stayed
ministerial
9901
WATER
Kir
due
pension
Mansfield
Attendance
disun
convict
inclined
Shoulder
Hedge
sign
1715
desp
washed
elevation
lids
Through
Sugar
!"—
##versy
cam
Cult
Distinction
Po
near
batteries
prov
delightful
ignomin
chang
overset
PLATE
Print
##lot
Agripp
heresy
oven
spite
##IAH
Distr
##issions
##ARS
##uc
answering
Vulgar
footst
cordially
##YR
uncomfortable
tryed
##ince
repuls
proving
Wedding
myth
consume
deride
thanked
Turp
tragic
Pros
Aeth
lectures
##eland
##alling
Cand
ambition
##fly
∞
Less
61
gut
##ropolis
barbarous
239
masterly
bathe
surf
Purg
uneasiness
##gin
hither
inflammable
##arr
##Iy
Nour
SONG
Council
1764
##oses
soph
impartial
vir
convert
##els
commotion
Will
proba
infants
Curs
regions
flash
vacant
Ct
indifferent
bye
elasticity
ardour
d
prejudicial
##UAL
wisely
‘
puzzled
Owner
depraved
accounting
marching
Properties
latest
##mark
youthful
rational
Leon
deavours
confession
fires
superior
amends
##Ó
soldier
##MER
Engl
sus
RIGHT
Above
’
key
Lyd
Hamlet
##ulo
ray
admirer
Strict
Concl
##icul
##ENT
Bp
##arrow
copious
,’
torrid
equalled
Alonzo
Prudence
Wills
##ENESS
evi
Express
Chand
##stock
shewn
34
gravel
Employment
hym
##icates
##avery
Devotion
weight
pecially
Ornaments
affluence
Translated
stat
characterized
tast
raises
##ift
regulation
accursed
Columbus
visitation
Rud
probity
cum
ception
##nel
viv
reflecting
perceived
##ural
unchangeable
sery
palat
warranted
Slo
Retirement
Lordships
reprob
348
BL
extingu
provoke
flung
unfavour
ears
ridiculous
dy
Hey
taylor
##ardy
1769
3d
respects
exchange
65
trans
Direction
356
vents
kindred
oa
##anging
joc
keys
Fortune
billet
slothful
son
1798
disgust
##î
retir
conjure
Mortal
thread
##inction
Chronicle
ern
clause
atmosph
RELIGION
Bound
proved
if
##teenth
Na
blame
Uncon
case
products
##ocations
Dumb
crimes
Complain
bounties
animated
admits
veal
mood
Pil
Jak
##wa
subord
employ
Roy
1714
dower
roads
worthily
Drunk
Accom
stability
##ress
tip
##gate
fru
assist
REL
Virgin
thro
##̇
╌
compass
preserv
confusion
favorite
##fold
measuring
(,
Temper
burden
dashed
Offering
advoc
conferring
Wind
par
##amber
##itaments
##eric
ordained
determines
histor
born
timid
sens
MONT
pictures
surp
faire
217
Newfoundland
sove
chag
joins
testament
proceedings
drops
intest
SQU
scribe
##terbury
Distress
chart
perman
disadvantage
administred
because
Voltaire
equator
Thom
clearest
Mining
Excellent
Gum
##LD
Lin
##irm
123
hawk
##oen
Labours
encircled
Backs
##stem
sr
canals
Gen
Dec
##urious
tranqu
##RON
##ledge
earthen
reful
less
Ned
',
bale
Vindication
blunt
elevate
Opportunities
stockings
Wals
##ases
##rib
Step
particip
vols
error
VAR
Capable
pris
ā
Libert
Gord
null
Agree
pt
##IVER
##igh
condem
nece
##iasts
##ries
phrenzy
Beds
winding
append
teach
eyed
Day
owne
Fingers
SOLD
Evangelical
Interpret
strives
arra
##pa
##ears
contributions
priesthood
Kindness
hypocrites
##atia
fainted
cards
Monument
900
ceas
Chevalier
ess
breeches
Magdal
##izance
Cham
allowing
themes
monopol
moment
desert
assess
kindling
Perish
Alg
Hamb
Convers
jarring
hend
eighty
big
twice
acquiescence
practice
despair
impossible
Guide
adjusted
exposes
Like
professed
record
conclusions
CHARACTER
Jeremiah
##enser
##ACT
gallery
favourably
cland
Fru
##ruct
Feeling
Lab
Legislature
Stan
educated
Dreams
Superi
##nut
clear
southward
informs
parcels
publish
distinction
foe
stair
gird
noon
tented
pamphlet
Satisf
##with
attendance
proposals
called
divines
bility
emp
ancients
van
##AH
east
differed
quitted
admon
Impossible
Sire
Ò
redoub
disclaim
witch
Commit
rectitude
chain
vex
bleeding
secondly
defined
Voyages
Whether
contemplated
punch
Divines
doeth
Loyal
interpose
Dund
aggress
gathers
1740
twelfth
Gather
impro
XC
##ET
bloodshed
##ulae
Harry
corners
Critics
steam
NOT
Preached
scholars
dem
Whit
##oked
repealed
chancellor
##shead
##Ü
projecting
order
##ado
##io
seperate
##ede
##dale
Clin
defendants
Eat
Elegy
Iliad
Lo
partition
[
Sorts
insensibility
Ric
Disciples
necessarily
maintains
##ILE
PO
##lett
fering
sales
holder
nour
battery
probation
practise
Wax
representing
Insects
##ittee
conceit
##adoes
instrumental
elders
verd
##ceness
pinch
##amy
hort
##2
##quent
frowning
threatening
TIME
fixed
##par
traverse
##num
Gave
ancest
faced
dictates
Accomp
imm
##rem
Ignorance
Weep
consonant
hadst
##wind
suspension
om
##rawn
ordinarily
claiming
enchanted
Mi
Perfection
SH
sthenic
tack
Pagans
impositions
wilds
261
tam
##isse
repub
Approach
##arsh
Nature
Enthus
inattentive
values
Malice
swept
Catch
peared
##>
scratch
Chri
Qu
Ethel
Martin
"—
##stan
maintained
amusing
Eur
Hero
Accounts
Terror
##issi
foremost
scandalous
Villain
solely
persist
Agric
ployed
attract
eclips
##order
sides
Bald
Dire
##emp
dejection
Mort
Crawfurd
##ety
DRAM
inten
370
ents
exciting
perfidious
terri
##ading
##earse
##pas
228
Sussex
Hutch
##sn
anger
Imperf
Performances
##ressions
consequent
represents
divested
troublesome
##eps
dies
entered
others
Impression
Prof
##du
secrets
rye
FLOR
Potent
regal
##livion
##inency
eastward
alleg
##oughby
##AMM
confer
##adier
qualified
Converts
Brave
Impatience
residue
meter
Vanities
insuper
Knowlege
Spoonful
guard
leather
ihe
ALC
esta
##orning
perty
Counsellors
English
adversaries
Isai
aloft
unpardonable
diversion
specimens
##oh
Ign
EU
Conform
coward
ordain
gaz
##ys
Tw
##cess
##OLE
##zed
intrude
migr
Advance
##lege
trait
patiently
##iencies
Matth
Tyrants
Before
sparrow
46
herbage
signification
additions
Aet
Though
Pennsylvania
electrical
considerably
pouring
THOMAS
##ylon
##itude
VIR
as
past
opera
pressing
which
full
Vernon
country
##ulted
##iscus
##emorrh
Dow
overwhelmed
bably
Adam
gliding
##:
##a
Engagements
handle
scenery
gent
##ustible
beauties
pastors
time
1688
Altar
##ructions
aut
beast
countries
sages
Id
chariots
##haps
association
##inous
pine
lars
armour
secular
Humility
tacked
XVI
Pig
##amus
expans
evangel
##penny
nightly
##tic
Harri
former
muscles
##ECH
guarded
prophesied
YOU
Sincerity
prince
##rine
ape
shields
##iasm
deficiency
depend
tumults
Mal
humility
July
2004
drums
showed
Franklin
possest
##ash
shillings
changing
Im
##ify
knit
proprietor
nite
##istics
dir
##ple
Sit
Crea
banner
Exod
mocked
hatch
Jul
Edm
##idences
MAR
mem
plaus
nerves
##Ge
dependent
Raii
Witchcraft
convicted
Ins
fairest
Taxes
nourished
##ι
thren
height
IMPR
##inus
1760
##EMP
lid
conveying
Record
eunuch
Ramb
Servants
planting
##erva
##IFE
##cill
Amongst
seen
mence
taste
disregard
SM
immedi
♒
fubj
chancery
Seraph
Snuff
rest
infectious
commercial
Parn
spent
mol
inhuman
inclining
moan
wort
sue
fanatic
ausp
Mary
Infancy
powers
pew
Girl
wreck
consti
Roman
fishing
coronation
transferred
##ados
comr
Deity
fabulous
car
SIR
Minerva
lined
troubled
saviour
##fy
clo
whitish
hidden
##orton
blasphemous
Talents
Spark
proceeds
temple
cruelties
qualities
colonists
facilitate
agreable
TUR
Sicily
smite
host
undeniable
unavoid
uncertain
##kee
mortality
Hen
Dem
##enc
advantage
objects
aggregate
##ate
area
Orat
fist
ele
considerate
wines
Copies
##OU
Uly
pecun
##SO
manuscripts
contemp
intercourse
12
##OTTE
Pack
Too
Incarn
##ortment
administered
Neighbour
riage
imperfectly
intelli
manly
Gray
bliss
METH
Catholick
refer
declares
rector
abyss
childish
orphans
protestants
DISS
tone
UNITED
mis
##pts
production
sundry
##ora
Fife
Let
funds
scept
Rush
1787
seu
admirers
Thomas
blust
bron
ecst
Chil
##oplexy
Expence
##oyne
Basil
SEA
##avit
TAKE
break
progeny
Episcopal
329
Peg
pronounce
madness
accountable
##∶
Contents
Impudence
theme
altho
merchant
##ap
Applause
##ariable
kindled
##amour
##iew
estate
Dur
poetry
terminate
followed
oats
Members
Mares
abolish
distilled
reinfor
##esterly
accents
##UT
stran
abounded
deeper
Earthly
perswaded
##lington
impaired
##giving
resident
##uble
##riend
##ineas
Rapt
excess
Catholics
Thunder
Cease
ceeded
Sober
Electoral
nations
insist
sacrificing
unworthy
Bell
forge
Correction
Creature
equality
Inhab
impropri
languish
nuptial
Aurora
directing
seeth
tr
Thank
Greenland
##ewise
Myr
bushel
depre
exhibits
Lieut
##ordinate
Jon
##com
disreg
##icat
revive
Sparrow
expel
Richards
XXXV
sizes
fail
collectively
##aea
sap
##aro
exquisite
experiment
prohibition
ternal
memorial
⁄
follow
##whelm
Sins
##W
Blest
Gauls
word
Ralegh
##iage
##ADELPH
##ACTED
Solemn
314
Reformed
##vag
meditating
crystall
Pur
eruption
OBSERVATIONS
Milton
##ATE
landed
Atonement
lapse
##ICLE
##♯
abhors
Dinner
security
##ANG
Mouths
##perse
Here
bran
America
abominations
##ampum
gentle
##AINING
Unclean
aliment
##net
namely
greedy
accommodation
Isaac
consigned
undoubted
crease
Officers
vanqu
Cornhill
Ʋn
nisters
Task
102
encouragement
marg
lawless
##ryst
Impr
countenanced
can
tial
##OV
intrepid
able
Prim
Sophia
Majesty
guiltless
##DOM
##♂
strait
aston
Charlotte
mistaking
Blood
mist
belt
unwearied
prominent
##gest
##bot
##othe
diffused
laughed
Evan
pfs
offences
fb
Bedford
unless
dexter
imply
Global
Oft
color
##icut
Mont
prop
squir
exist
criminals
rejoice
cottage
CO
dazzled
##agues
mountains
##cell
In
##bery
Copper
##eth
wing
##agraph
lab
bounded
Eager
reprove
Penalties
##king
productive
Speaker
rag
##icus
Uni
ī
availed
penetration
##reescore
Continuance
decisions
habit
##roach
Duration
favors
Nymphs
Burlington
attendant
##IES
perceive
Want
shriek
Fred
salmon
Operations
Galloway
loaths
innum
STE
frighten
YOUN
##aws
Morton
Absolute
constraint
badge
implicit
Orleans
Ende
##unk
where
ont
Ð
boat
labourers
Dull
lessening
##L
Possibility
triangle
Wherever
enumerated
parte
assented
Turtle
method
abrog
Thine
vend
Alas
purged
shooting
spher
##AV
##water
imitating
Spread
##rors
luxur
Fountain
Fleet
Cranmer
hammer
«
uninterrupted
penetrated
##ORD
fable
abstinence
Counsel
streaks
##ru
##olt
Benevolence
Breath
vengeful
2
oppressions
MAT
FA
counten
grove
upp
flag
equity
bea
conqu
chapters
##bar
Indeed
drives
aug
201
Fires
Yor
##wel
Constance
roaring
Agreement
Ame
thereby
covered
vern
acute
unkind
deemed
carpenter
propriety
##roft
AV
##WARD
##eh
overlo
challen
researches
bladder
deceitful
trifle
extraordinary
Plaintiff
represented
cradle
Method
Committee
crest
departed
234
solidity
##It
Luxury
thorn
Beaver
fortress
stems
ducing
beam
fox
haz
Bold
ǣ
Loose
unint
Eh
inim
dishonest
##iot
harr
marquis
separately
Side
distinctly
##ongues
episcopacy
Plate
ign
##rof
lordly
##versions
Suc
##istring
detest
unim
lurking
household
suffer
sweet
Pyth
inward
perused
##said
Careless
forwards
returned
generations
superst
persecutors
oysters
enabled
fac
Demonstr
engages
Idols
esc
Particularly
central
##lian
##ari
devil
Chorus
Mock
##hed
impracticable
rally
apace
Pet
sprink
sincer
obstruct
shack
summ
jure
Sime
##rupt
##oss
hei
Deft
Tit
series
magnify
xvi
Zech
feather
rears
crowded
##atural
Testa
dispense
rib
##ique
Defn
jour
husbandman
Governments
Ast
popish
disob
degrad
Flock
fession
omission
Exalt
##ligious
trump
nought
##olation
vour
alone
##rac
qual
fashions
inactive
old
Phil
forlorn
1796
JES
##vii
remo
taking
suspend
crowned
SN
##licting
Treaty
##SON
laughs
promote
loan
end
##onde
pity
notorious
publick
ite
um
encamped
produc
##sses
pop
##utt
conceived
##isp
QUEEN
Times
Inv
regiment
##xts
about
##ë
ñ
doctrine
cliff
lymph
mongst
defile
☍
Gre
ascended
tempestuous
Ingen
Gordon
appli
partiality
maintenance
essen
ĺ
℞
Purity
##estic
##aking
##aving
heaven
dye
acts
charge
Quod
hesitate
è
sheep
Bron
may
##ilib
victor
deny
##ggy
Vortex
##licit
reduc
Notice
##ancing
Persian
Far
##uments
dispar
unnot
##mond
beach
##umn
Gros
protected
##uary
Cyr
viscid
##dle
provincial
embryo
cliffs
conditions
Z
My
dissolution
##ACHUS
embrac
dealings
Disc
Vac
tum
##isis
drain
Ox
exigencies
sl
nary
##eed
smiled
Experi
snatched
Monster
convincing
delivered
firmed
Arg
Space
tye
##alks
##roved
Pilot
Justin
illuminated
Titus
VIII
Appointment
treme
lect
abund
Lusts
unex
Partridge
##bu
shar
Called
canoes
lots
tine
kind
gratis
Shakes
##ility
Cornelius
possessing
quicken
σ
disor
rationally
sea
withhold
Prophet
ved
digestion
ratio
muse
punishing
Wool
relating
##irts
situated
Punish
##ctor
enumer
##emon
Manuscript
Phi
##icial
Months
##resc
Tongue
Agra
##orum
68
Bala
little
comet
train
WOR
Apostles
Memoirs
##lt
Divine
tempted
owning
CLER
brass
treaties
lov
Hundred
##alla
individual
only
Expression
thrust
##emus
Kid
winged
Adieu
Conclusion
cheated
inhabited
checked
##ares
dreaded
confisc
SY
Fern
discon
##rie
##holders
Paint
fay
##hire
Assistants
Jar
Giles
behold
Clothes
nav
##uous
##⁂
Produ
##ties
BIR
Americans
pers
##olk
lor
sew
scen
fat
##rative
##pow
##ANKS
Fire
cure
loyalty
Duncan
##gage
Vol
lent
##IAN
pursues
distinguishes
tun
try
Image
##irs
Ferry
Damned
##itic
conj
hers
rancour
virtually
supplications
Makes
medy
Abd
baggage
Oracles
Mich
Reconcil
##val
Goth
inhabitants
tale
awoke
populous
##rect
gland
scriptures
##ancy
unacc
Merits
accurately
thickest
##agan
##way
ci
Alphonso
modes
consec
poll
differ
##ceeding
sinister
##inger
Humble
racters
extreme
##otson
Lawyers
enthusiast
##̆
Hea
sans
oid
lap
##ol
##ays
hal
greenish
##ernal
##cen
##antry
Joint
professes
##rest
suspended
beloved
##forward
noun
Sult
haught
wilt
ministry
advis
Xen
##itus
cop
Anim
vigil
smooth
Tinct
luc
##ortu
##oking
Cart
##regation
beings
Stairs
knoweth
annually
Hypothesis
consider
##idity
imagi
Rome
XXXII
##AIN
##kward
Danby
##uum
fuller
mac
night
fidence
Quest
cat
imperious
tow
Oct
##ither
wounding
Ell
hs
commem
OUT
##bi
bishops
250
climate
additional
Staff
##rep
Prey
##ş
w
##ously
Η
ETERNAL
Consciences
Prophets
circles
ingredients
restricted
1759
unreason
appears
surr
Houshold
Dangers
prized
tection
pressure
POPE
RH
arrows
##ule
discovered
resources
Bondage
Militia
##resent
wer
thirty
dangerously
age
##atitude
loved
neighbourhood
Gore
adul
Vall
Commod
Bash
reproaches
expiration
##ese
##sell
Exerc
planned
##ylum
era
congratulate
Directions
je
##acus
heretofore
grief
infernal
##TON
Monmouth
dock
phy
independ
hovering
TOWN
dispensations
let
##raw
threaten
evidence
Forgive
management
pestilential
hum
##VER
University
Horror
consuming
peaceable
draughts
Yester
quibus
Oxen
##rence
Grace
2006
Falm
nes
Add
dismal
Ajax
ROM
surfaces
separate
Nation
Delight
professing
brighten
Taylor
transcribe
?)
Florida
exhibiting
##iners
Mix
reg
ker
controversies
##lihood
##olen
marries
Dwell
##tha
##know
dean
kings
##henes
##oon
##@
gain
impenetrable
grati
Mony
syrup
divi
suppressed
obligation
##ounce
heavenly
introduce
Princip
Theatre
premised
touching
Costs
social
reluct
lost
t
embarrassed
airs
##ames
wholesome
compassion
legate
##ius
share
##avia
plans
Trojans
##gl
frivol
cen
##ifest
ò
¿
##burne
mutton
##lec
nourishment
fum
hallow
Elish
prejudice
you
dispers
rustic
low
og
Elo
Join
com
Canst
sine
bids
attainments
Elect
gone
Cred
##ongs
ū
dawn
expect
##iven
Unhappy
intimating
periods
##ICE
strew
tastes
tokens
Road
Fiend
ks
##pped
horses
Rav
fir
Fut
communicating
delic
thyself
##retion
cordial
Carter
##ill
Honour
##ore
investigation
Ο
Â
gran
##red
roars
Conc
##M
Honoured
##nd
tramp
##sex
oftener
Clay
Hud
invitation
needless
resist
quae
creates
planters
stairs
They
tab
drum
##olph
desc
237
helping
minut
High
##arried
monthly
Honours
Val
hab
##dd
means
fasten
##ections
Evidence
alledging
##we
mistook
Ces
ones
portion
manuscript
Extraordinary
appla
roses
##real
glorious
★
deposition
##izing
Jess
Harvard
errors
Aqu
saddle
##escope
Obe
°
bespoke
does
fulf
calculations
Amos
##ja
Britain
vations
Gram
Grief
Quality
prepares
suffoc
##where
arrange
sceptre
?
behead
Privileges
morn
Sheets
acknowledgments
sequel
WIL
melod
fuch
##iery
abundant
Cathol
Jay
encreasing
replies
AND
analogy
relinqu
mounted
miseries
Fable
grows
flourished
loath
##raments
##acock
Instruct
merous
##uy
asserting
##ishing
##utor
##ician
wonder
frugal
##Ò
hinted
safe
##rality
plains
wand
meth
legislature
##ENC
Gaming
Agriculture
Minds
mingling
billows
comfortable
maker
##ifully
constitutional
Consequence
deliberations
##ibi
ladies
##lications
##pi
Barclay
rub
1779
meditated
##hab
tube
floor
fitting
##ỳ
angles
Indulgence
exped
quer
Open
Skr
Barbadoes
##resp
Abraham
comple
titled
divine
Spoon
hospitality
##ourned
voluntary
adorns
such
##oubted
defeated
materially
Triumph
Consent
Resp
bow
chimney
gular
Con
1737
Trustees
School
pack
##diction
Mol
Upper
225
certainly
Thirst
current
cil
folk
Arth
Ren
##OC
artifice
p
lemon
conditional
PL
Marr
sweets
stif
Fisher
hir
sive
27th
folding
affection
Garden
##et
Office
cleave
foresaw
Jud
##chants
coverts
321
1t
Chris
above
Crowns
##cere
Compliment
connexion
abandoned
but
Coat
suspicions
Part
Camilla
icy
##teen
287
covering
unwise
##ix
weakness
AH
tremble
210
God
marvell
impatient
intrep
institutions
Sion
i
##alities
##ross
Lieutenant
Jest
blind
##OTH
surprized
voluntarily
Rect
##aton
players
Bec
Believers
Henri
callous
##EG
Burning
fervent
Dayes
Delaw
##AG
refinements
bloom
NUMBER
manage
ob
punished
harder
useless
Swear
ri
vered
atone
robb
restoration
collector
Israelites
tish
bodies
WELL
Randolph
profuse
dungeon
transcribed
Poland
unhapp
##antage
##alion
exer
essence
rible
Austri
â
reformed
uprightness
gilded
##ero
nights
personal
scripture
å
-.
discussion
##aries
##θ
apostolic
##Σ
giv
Propag
utter
penalty
31
hymn
Barr
nings
glob
coolness
finished
rate
feels
Ditto
exerc
howling
##imer
Austr
tenor
##ervation
Whose
##iance
37
Shak
##aints
##afts
abovementioned
flamm
engine
ju
stretching
beware
”
Overse
Any
Benefactor
likeness
debtor
begs
##atic
Canada
rand
Stop
sophistry
##uate
swiftness
##usive
gins
far
318
##vert
mercury
tombs
fervour
##retions
STATES
oun
##raid
Ott
247
concerns
arrive
protecting
toss
Doubt
Custom
VERS
martial
adjacent
Gom
econ
inter
murders
started
Capt
##■
##ends
along
PRINT
weakened
Else
regarding
glossy
generally
XML
thresh
Heirs
air
Shilling
pits
##udent
##vey
##ands
brilliancy
abound
##asonable
stig
paltry
Spirits
Tab
Abbey
jump
Jap
assistant
learned
⁂
ferv
anoint
mell
Honorable
Der
venge
##◦
Affections
river
##rating
slightly
cleansed
creed
##ustrious
Avoid
fem
blast
##VII
Hezek
##ight
##vs
caverns
culture
Complainants
settlements
thy
Year
uncont
##erun
blameless
##ils
desires
performed
JOHNSON
lark
rare
Bolingbroke
Vessel
avenues
##χ
##ully
##OSEPH
##PP
altars
wre
Lan
##INA
tolerably
huge
bemo
##untary
Orn
##HAM
persisted
Certain
é
per
fr
Those
disaffected
artic
Chance
##known
omn
gold
abode
Four
##ief
embra
shewed
Globe
Commission
Χ
genus
devise
Instructions
devils
Cornelia
curity
Trust
solace
DIV
inwardly
##sham
anchor
ther
##entieth
##illings
##mitted
Moun
Fors
##augh
ticular
##ded
filial
annals
cot
##OY
growth
alto
arduous
frauds
∵
prophesy
Cup
streaming
##dal
appertain
domino
scaffold
Preach
##UDE
cattle
assurances
summon
Knight
petition
waving
##ka
forth
Wal
sty
providential
##„
girls
1750
thanksgiving
##obs
toleration
##ector
precious
intrigues
MASS
favourite
danc
Parable
always
MIS
ã
##eless
Oyl
blamed
peri
##OLOG
Britons
brighter
∺
##ana
attested
applies
bless
##lls
Shel
concent
admi
##urer
thee
forfeit
warmer
resisting
sor
brightness
THOUGH
Meetings
avert
##onge
##orm
Opt
##ider
ound
Constant
xxvi
-
Chr
overlooked
provoked
discredit
##ifted
liberty
neck
aside
livery
##angu
cient
separation
Apollo
abso
vented
Ho
twere
drown
Singular
tors
justifies
##uther
depl
Right
Spaniard
unfortunate
Break
##utes
197
159
snares
Suffering
ADV
Æ
bru
whereupon
Child
##ASTLE
Mag
adm
suggests
Matt
reprobate
Aby
##ald
PART
Ob
dainty
Erect
##ms
##ulgence
eagerness
gaze
Neb
lish
vanish
Shepherd
enlarge
Parent
Thra
hogs
outrageous
##arks
##NAL
Levites
##IL
misery
bees
hive
Brick
##onant
##ETTE
adventurers
fatherless
amused
Satisfaction
from
Think
Fare
madam
##withstanding
Blessing
retrieve
shine
PR
##apolis
##gia
truly
##Û
Gallic
ws
Hun
resignation
ive
torrents
Hod
result
Eiq
##ocation
Ax
mutually
##ĺ
##cent
##erd
Physician
cathedral
obstacles
lakes
consecrate
Sr
##ubborn
##omed
Rut
##ingen
##rer
strangers
Resurrection
Fab
Puritans
##quisite
##phin
##uge
precarious
Infidels
Bax
##ise
False
Their
Generosity
built
##ificent
signing
Considerations
beasts
seeing
Bad
Friendship
119
transported
sar
observations
##ustr
##ables
Assert
##rier
feast
diamonds
##ô
shade
that
struggles
inclosed
frigate
Generation
Pity
stony
performer
##oths
bank
##arnished
Supposition
Luther
vantages
MOT
innumerable
##ror
durable
seamen
##urp
##BER
building
⟨
Other
##orah
surrounding
patients
placing
Sta
idleness
##bon
##burgh
emptied
livid
patronage
Eternity
quire
Imposs
indorse
ESQ
Perf
failing
Psalmist
expulsion
##orating
ques
√
##cul
##rh
adding
Object
ribs
Poetic
Oper
——
safely
regain
instructed
christians
Brightness
Lu
##fon
contained
☞
##ovah
230
Appreh
Calamities
alleviate
desart
fp
Tongues
Justified
Pious
complaint
##quiry
##thes
conspire
##uscript
discovery
jam
##ilemma
Saxon
".
injuring
##eriff
Bounty
lev
Arabian
gentleness
overwhelm
##yer
Hale
Cough
##atians
adopting
capt
5th
estimation
harmonious
##chieve
both
petitions
##voc
SERVANT
##uan
assume
anxiety
Banks
ʒ
##ury
##att
slip
##anta
Sinai
troub
##terior
Dampier
Qualities
##sets
beneficial
requires
Williams
baptizing
induces
##ν
281
representation
mous
1677
impatience
Alliance
vicinity
relaxation
##VIL
##isement
sensibly
Eden
knowledge
unspeak
round
tons
1712
##YLV
potatoes
2005
Service
Sphere
Miracle
maz
chose
infested
volatile
mixt
ashore
Improvement
Ransom
Ger
succour
betray
stealing
Hundreds
plun
text
leve
deserve
Seamen
supper
monument
ballot
Register
Troubles
goodly
shiver
cost
accompanying
Treaties
Harrel
Picture
Admiralty
##arton
descent
stolen
Adams
elected
Club
extraord
rev
pursuance
alienate
inte
faded
Lem
Market
forced
vest
##ANS
reproof
##asmuch
Chains
scene
Tertull
cour
hurts
trad
##aired
wrote
batter
takes
habitual
Shame
exportation
beer
##irect
accounted
enemies
##ories
audience
re
mules
rods
##fi
speculations
##oir
scenes
##ereal
sentimental
##tts
##lorn
Deacon
shakes
chairs
abdom
tossed
ani
wonted
butch
Antiquities
despotism
Matter
gust
##roy
function
taper
##den
##ortal
WOMEN
Ty
establishment
owl
##UFF
Cheat
phet
oi
void
attribute
unne
Vy
hostility
♌
<
inquire
whoever
Somerset
hoisted
freed
##icacy
advantageous
evid
Zeph
nough
lett
##asty
BEL
HEN
Sympathy
##iques
PASTOR
Duchess
producing
Harrison
rejecting
##ituled
Dash
Hubbard
Who
Seem
##ulse
##ulates
##elia
##jection
##US
secret
naughty
1725
##ir
Rousseau
parchment
Biol
traordinary
##icism
86
couragement
keepers
world
##iner
interested
xx
##uration
few
continued
:,
circle
slender
lying
drooping
shares
superi
Parallel
Philosophical
fuse
charg
encreased
perpend
assail
Asi
##IT
Ē
grin
##ortunately
##ime
Bou
##oned
Plain
strictly
flames
##gins
rave
bosoms
Misery
ceedings
Tract
mint
avoiding
##IG
tues
STR
April
denom
congress
Apart
circumstanced
Halifax
gainst
displ
Metaph
sacrific
##beit
gener
painters
type
stantly
Dug
apple
calf
scientific
burst
yard
Jewel
##ho
##asant
pretty
ĭ
guish
Bil
tartar
doc
consci
##iction
Pretender
conveniencies
matrimony
silenced
usurped
rush
Cap
Doubtless
mayst
imploy
Enjoyment
computation
Male
price
∴
apostles
fec
Study
##ysent
Mem
##anor
Az
direction
);
Clarke
Trembling
solids
Vit
momentary
Week
stationed
##œ
mediation
lxxx
spread
productions
rabb
Serv
Consequences
vel
Objection
abdomen
wished
##athius
velvet
phlegm
regard
acquis
Neg
amorous
counsel
Aged
simile
##INAL
Plutarch
Lives
knife
##opy
##iosity
unquestion
gratefully
Newgate
malignity
swearing
accident
inaccur
thicken
Harriot
##other
Parker
presbyters
plate
construction
asses
sult
##economy
Antioch
church
Affliction
Edge
##utation
Comb
scope
Flattery
UPON
Lakes
##inaries
Society
Moon
##cept
326
totally
##aund
howl
justice
player
##some
##shaw
Furn
Query
Devise
SL
Hungary
ren
Pond
;—
60
contributes
comprehend
rude
Easter
swallowed
##ite
##urgh
hastened
muscular
##ffer
taunt
Imposition
curst
Alger
pious
decency
admitted
treasure
Flanders
lations
Alle
exal
insolent
commanding
tumbled
Talent
Had
##MUND
cured
execute
suits
Emperors
deserv
49
nostrils
questions
Lever
Welcome
decl
COLON
##in
##istical
guile
Sweetness
youngest
fath
Nights
muc
sider
##VERT
obscure
tt
approved
List
cumstance
Oxon
Adultery
Jos
possess
##lished
##inia
rhyme
cious
##cipl
##roll
deliberately
ali
Ment
ignorance
##pton
Dress
##osity
Brid
subsisting
application
istence
beef
Apothecaries
Dean
##eve
forfeiture
imagina
Northward
Pau
##ric
peaceful
posterity
damned
concord
Gains
suspic
Siberia
tice
Iohn
veter
Colo
rejoyce
Teaching
mies
faculties
Storms
Up
fused
Eliz
Tus
commandments
sympathetic
14
Rebecca
withered
subterraneous
gaudy
Interests
ineffectual
Maj
Gospel
administrators
##if
medi
##inea
fitter
odium
approves
##ereto
skilled
##rington
Consideration
metaphys
##beth
laudable
′′
contention
##UC
landlord
Plea
captured
Pac
Ka
Rad
##ittent
Venice
##oa
##omatic
rows
##cia
unaw
disorderly
##mph
fleshly
##agen
##andum
mouth
myriads
Pitt
Almost
command
bounds
surviving
size
undertook
Hyde
##gs
paragraph
Ridicule
ot
##ing
Governors
##peci
363
inviol
invest
tious
county
Neighb
Influences
Acknow
significant
inc
ger
244
lim
refrain
hue
thofe
Fuller
Faithfulness
steep
struggle
enfl
##oqu
shrew
Arbit
quaintance
deciding
##swick
thirsty
Abram
chants
##last
##soever
Š
revil
##iation
earnest
incorrig
##log
Wrong
Franks
##Ā
abide
thinking
330
Authorities
mentioning
answers
fading
Poss
##dem
Regis
Mess
Impiety
Spa
Correspondence
grammar
Elisha
Finger
chivalry
canvass
wake
Pass
dregs
QUE
cre
##ista
##lement
delicious
##ETHER
cardinal
s
##inate
manifests
dissimulation
cad
##athing
Northern
prejudices
ps
##held
Lambs
Desolation
conveniences
motto
transg
exploded
Advertisement
Gil
ct
trivial
##cast
Permission
utmost
##TH
##pey
Travellers
LY
plaintive
justified
1793
publishing
specific
Shells
trained
gar
reigns
worldly
Theory
explo
##=
##assador
he
gov
susceptible
ls
Tools
exclusively
introducing
Palestine
plentiful
Down
fashioned
him
anth
Criminals
Soft
Boys
Ov
Twenty
Rejoice
##core
retirement
DOCTRINE
chron
Doth
annex
stroyed
##ios
weal
IM
unfort
##archable
—(
11th
Pear
September
##hold
##mon
date
##all
Numb
confidently
History
privately
hired
weed
apparent
creating
Forms
exclude
##K
92
prolonged
bravely
##ails
mory
dissem
controversy
home
languid
intermediate
pleasures
If
dawning
distinctions
stock
##gal
##enance
Booksellers
milk
Challen
1701
ST
GRACE
toy
Orlando
Saf
destro
##NESS
anything
united
##using
##j
hearts
terminating
room
conceited
Pound
surgeon
oppor
Holl
Ellena
##ê
thefe
ung
##finch
man
taining
##ishes
Bale
Souldier
##anthrop
mingle
##amed
Fail
fondly
Woman
Stewart
Muse
mama
##ostom
Assy
rugged
nourish
Gu
##ete
Û
shaken
Audience
decently
Brimstone
uniformity
unbounded
##öl
bles
propor
ç
tunate
candidate
treaty
##fs
Histories
Gibr
Salva
##USE
Savage
OP
disgu
##roar
fing
eye
communion
Occasions
Defendants
appet
begotten
##rehensible
trick
##iber
penance
vigor
##day
attempted
##end
121
anticipate
integrity
dipped
Increase
##ively
Gib
ultimate
delir
##assy
##ron
##arium
relig
attempts
Masons
babes
allows
Damnation
##ce
outer
confederacy
Collector
vindictive
epistle
Alexandria
lead
##reath
Solic
flight
selves
scoff
BEING
OHG
Dennis
antient
dependant
ated
behave
trif
blisters
##licts
Tiberius
FOURTH
Grievances
resid
Mac
Deg
meddle
accumulation
Oppression
Diana
incomparable
declaim
fluence
Ver
##ex
Sk
Poet
assurance
sometimes
Judgment
disch
Friends
fainting
Sung
sublime
perceives
lock
redeemed
obscurity
Douglas
none
##isme
handed
H
vind
thorough
Comforts
Demand
attends
enraged
pores
##eration
Warm
##í
Camden
ruffian
story
learning
##ulated
##opes
Argument
##gers
Ez
South
natured
Judah
subsists
inseparable
Vale
profound
##lete
superficial
contemptuous
appl
Ecl
##enger
None
killing
##eon
damnation
##ateau
Bob
JOSEPH
##uish
Tempest
celebr
Expressions
91
enumeration
LET
1672
fierce
shows
concerted
putting
##quate
Pictures
marches
##unders
##erties
Liver
COL
commerce
provide
Butler
Capacity
disqu
conti
Sentiment
exquisitely
string
nurses
regardless
gore
Sne
mar
Vaugh
sealed
Abyss
##IP
##orns
Relief
Blasphemy
##PR
Attorney
weep
harbour
Barnabas
diffidence
##EW
tn
blasted
##ASE
clover
detect
##angled
Variety
##ission
festive
##È
Future
commun
##fal
WE
disabled
##stall
##irk
69
wig
alum
##ainted
limb
prett
##cible
CA
Hot
Creditors
reputable
W
Artific
promise
Illustrious
Cly
fluid
trusty
##OCH
Blu
Next
Brook
encroach
kissing
Murm
occasioned
##oyal
à
aud
Shire
impre
closely
converse
Ma
connections
enforce
Antiqu
shapes
ringing
forasmuch
Var
Clergyman
Tok
Evans
cordingly
unspeakable
witnessed
##iss
compassionate
##ousin
inex
foetus
liquors
Painter
##ī
uproar
Tent
Antichrist
boiled
shuts
##ideth
ORATION
expedition
##ithmetic
Elijah
##ption
##ERM
Peer
Carlos
umph
regular
##ulf
Bol
conscious
1700
ent
French
Sufferings
acknowledged
encoun
quick
fome
##essel
ah
JON
scrutiny
Rules
places
##rea
gratifying
becom
##OME
definite
Invasion
Furniture
trusted
contem
dismission
proceeding
away
elsewhere
frustrate
311
##etrical
##ƿ
preserves
##idi
ador
burying
fra
Sollic
suggestion
1753
##oret
##elly
fected
##olutions
Summons
Bodies
SOU
political
Condition
CAES
Thro
lament
suf
mitted
relaxed
mistakes
fil
Virt
Catholic
pope
distressing
capital
dispersed
undef
##olly
peasants
manufactures
accusations
Minister
##riculture
Bi
Studies
##cher
gaiety
regulating
NAT
##à
correspond
faithful
roar
board
revenue
Bern
including
shocking
Ci
Lovel
Indian
assured
Material
affects
Belt
contend
offend
improper
dung
provocation
arrived
paused
remarked
##idings
1662
Africa
sup
Olivia
Twelve
required
Elisabeth
charter
Mind
Troj
##odies
ô
Brun
##IA
AID
contingent
next
##rove
##ents
Frank
consists
requir
r
conjunction
ceremonial
sured
each
Girls
Fun
75
avo
MARIA
Inst
Scribes
pon
burned
ney
seventeen
misrep
unmerc
overcame
Willoughby
carriages
##iver
inserted
##erogative
##ory
respected
ripe
trifles
suspense
EPISTLE
comforted
Frenchmen
##OPE
##ircum
HONOUR
plex
##uccess
wink
stubborn
##aly
connected
45
PHILADELPHIA
curious
forbad
top
##rates
##ry
Lik
Hannibal
Reproach
subs
Flour
certified
Ord
Truly
exports
##SS
##ition
philosopher
##wing
251
Tal
dissatisfied
Arc
î
saves
Violence
ceremony
shades
Fowl
Can
ρ
##illes
Nose
heinous
expert
Append
##ctr
simp
FIG
sparkling
avow
vehemence
##ife
Motives
##others
circulate
disapprove
##after
garnish
pound
##ambles
Captain
Hymn
##umption
##owed
Curse
prefixed
tage
diers
receive
Dro
##rel
##etitions
Observation
frug
P
Ash
gave
##ART
Clifford
Pru
CAM
##ILIA
woes
lines
ford
oftner
##∠
Tweed
6
Lard
covetousness
Discharge
##uries
awake
hardly
sailors
##rooms
riots
Sound
##azz
Remainder
Vols
intell
Grat
lyre
Rot
Peru
Sobriety
##mt
mutual
##♑
THEY
agrees
neral
vil
empt
FOUR
LINN
bitter
eclipse
##aught
Means
##raction
purposed
fi
nail
##lection
distinguishable
Fulness
Wall
charging
Skin
dole
thirteenth
##ân
excused
driver
Mur
pecul
Lovers
Hate
chor
AS
wed
extinction
len
##ois
charmer
tall
congen
##rances
dart
they
utterly
extremities
swarms
pacific
impeach
heave
##oever
Priviledge
Pist
blank
hooks
Apparition
makers
undaunted
stowed
Tim
surpri
Roland
##eman
pat
Roberts
showing
ssd
foresee
suppose
rosy
##ε
Cott
##aign
spleen
domest
bil
##resses
forso
burd
theory
Monthly
alarm
workers
strove
Exeter
Manila
pursuits
##igo
extremity
famous
##while
bolt
Mord
Merc
θ
Norman
##urch
##oved
Infection
interrupted
ascertain
compliance
Saviour
Autho
uncon
enl
Pretensions
sums
meagre
##olence
tant
sustenance
Academy
##itan
179
compleatly
quondam
Low
gasp
Hi
Coasts
Street
oy
pangs
dext
dug
VOLUM
Happ
vio
stake
beads
forget
CLE
lance
Whereupon
Plantation
candid
Pron
pastoral
discreet
##aths
Jane
fortifications
tyrannical
duty
fashion
##EAR
##Β
Experiments
insinuate
National
Blackstone
##ESS
mont
powerful
cox
preposs
##ifs
Gust
rou
##alus
ο
ations
Plaint
afraid
bankruptcy
∶
tary
##jou
rul
Groves
##♊
##liv
melan
evinced
bleak
sir
augmentation
mach
tural
propitious
devised
Abhor
Soldier
puer
vy
mee
obstinately
unnumber
Confirmation
nose
fulfilling
admission
sensibility
Popes
injustice
Nephew
MEL
##can
Stirling
##sequ
Aston
probable
##urbs
!,
Arb
Nurse
ỳ
##chin
meekness
##10
stagn
COMP
toll
lum
threads
torrent
##afon
##ashion
repute
commis
liking
yel
singular
lustre
declarations
Correspond
dancing
##fellow
disapp
Sounds
contentment
Currency
Diversion
hoped
mineral
Charlest
ru
worst
looking
affirmed
indecent
Refresh
##my
last
##mn
bequeath
proposing
intervention
enabling
molest
sweetest
##wealth
calculate
PROP
Wharton
concerned
AMERICA
174
Holy
ungrateful
##uten
uncontr
Homer
der
hills
mock
Most
##imonies
##ege
##idia
ambassadors
crea
waist
office
lieving
grosly
kill
useful
Incl
##Γ
Mos
disturbing
ide
##erit
##dles
roused
c
##ember
sell
border
patriot
Advert
incred
pang
Prospect
Multitude
urged
knowlege
shoulder
Style
whispered
foun
lawful
compreh
cook
Thousands
lieth
##OVER
##ertaining
species
Maryland
##alty
fork
##ost
design
Intell
##athesis
caresses
Womb
Approbation
##usal
navig
embrace
cakes
Emma
indirectly
Electric
indolence
##atre
##erving
frantic
speak
assumed
avarice
expects
##affected
Top
site
##oments
assembly
pie
clever
accurate
##amper
##ato
##rosc
fero
Serjeant
finest
Park
Creator
longest
early
naming
Valour
Beng
horrid
stimuli
Schism
Wou
feelings
ord
lowed
Blow
innocent
atchieve
Bones
fathoms
marshal
[SEP]
remainder
Il
leading
insisting
colon
infection
Tribunal
##arded
rubb
YOUNG
ↁ
ferocious
Proposal
embark
Ed
pull
sal
Hubb
Contradiction
grou
giddy
~,
Worlds
nied
inequ
Directory
confuted
Raph
Commands
convent
##long
file
.
Marcell
discoursed
##anes
mediately
chie
customers
skull
##akings
GO
External
rum
44
exerting
##outh
△
ros
##orough
fad
bent
four
Writers
Dogs
augmented
Fet
##essed
dispo
Russ
tied
hangs
figures
fs
oblong
000
pendulum
Indifference
comment
ARCH
bly
unjustly
Generations
mir
cun
bruise
##IET
quis
Brig
Shakespear
amiable
Sermon
mess
##TERA
sour
convictions
LADY
voyage
honest
penetrating
##mo
Mor
earth
ours
naturally
SAVI
versed
##)
́
consisted
1697
]
Alps
##erville
message
expeditious
ć
appropriate
mounting
exemption
.),
##BE
equip
Help
##7
Hor
##ia
Vid
taketh
putrid
##viate
prospects
efforts
orb
volumes
directors
1660
universities
fittest
affectionate
prudently
medium
dition
shrubs
Exec
leads
##yll
prove
relief
gros
116
##lon
##iancy
##la
Barbarians
Begin
ungener
##read
##se
joys
Servant
senior
commend
Value
serving
Aure
glish
despised
song
bleed
particu
##GE
##itud
vance
shepherd
;.
remained
Vengeance
misrepresent
##rs
cred
##acities
citizen
request
##manuel
nick
##arrh
Leaders
indignity
writing
government
1717
historians
plenty
dol
servile
tinually
##ieves
##iting
##ihi
cities
ish
countrymen
Emily
##ANE
Lent
##gu
##othing
sall
##cur
aggravation
dispensing
##sembly
##lla
mucus
Presbyterians
##ook
Recompence
understands
ì
dissipation
##IFIC
soothed
diamond
bird
finances
pilgrim
Smell
horrible
##ams
Suspicion
AZ
Hom
Guilty
sixteenth
##icit
Wolsey
τ
Atl
Submission
balanced
##och
glori
serious
secrecy
abodes
Impen
peaceably
##ommon
Prosper
Danger
##uities
inade
nance
covery
‐
rence
mounts
Hills
mu
glit
conceiv
##anda
labors
admitting
ligious
meat
infancy
##rov
mouths
Cre
news
1771
rules
animad
profes
exposed
strument
vines
Fle
##inted
expe
cinere
Legislative
impart
speci
Spo
rashly
##rary
extra
##ida
defeat
Blue
prehend
Dispute
Sack
Abs
diminish
readiness
##V
stripped
vernor
212
Were
finely
Fat
##U
pecuniary
quiry
an
oo
fraud
Moments
##formed
testify
assiduous
##UCTION
dam
ary
tention
BOOKS
Gives
BALL
George
Clause
ţ
terrible
demonstrate
12mo
extraordi
entr
Swell
misle
##ivid
cannot
effect
sculpture
Propri
portra
##atory
Dac
Offences
populace
Iniquities
temporal
detestable
Tender
imagine
##ying
stip
sv
##grave
impor
sad
American
nocent
Lys
corp
rican
Wh
Civility
Agrippa
Ray
##AF
assign
preh
##ized
brush
SERV
125
dum
obstructed
avenge
look
sandy
drest
Congre
noth
Salt
mater
confounded
belo
Conditions
pau
Laz
cond
Realms
wilfully
Brag
animosity
inflamm
WIN
running
##indful
Alms
Tempers
insect
##asive
passing
+
Rul
bread
fierceness
Gay
sly
SEL
Agent
Dew
##und
##fully
Uncertain
nect
provident
beyond
PRESENT
Phy
mart
lous
che
##staff
elections
##itate
aiming
##ITOR
equals
Terra
Floods
engra
insuff
##LECT
Germans
heating
47
demolished
pos
fanciful
sort
indefinite
slay
capricious
##ANN
stupendous
##ipes
theatre
preventing
place
anti
labour
wondered
SECOND
invaders
Criticism
unceasing
nister
##ecies
trifling
inund
ensuing
##ulus
adulter
:—
Disposition
relish
Gad
formidable
pest
vocal
##action
unh
LAUR
Angels
##orary
contemplating
cats
bursts
exception
rescue
nine
transporting
holiness
positively
amity
priviledges
waiting
##jac
realms
endear
Commonwealth
gentry
264
perpetuate
plum
err
leaped
##ernacle
veins
conspir
levying
##ued
impat
taxes
latitude
Gent
Trad
##ork
##heim
NATURE
despot
##ω
abounds
May
ä
warriors
Usher
##itimate
Histor
chat
neighbour
console
purp
Macbeth
WHERE
Vio
HOUSE
Cruelty
MESS
assures
Athel
frozen
true
pursuit
seek
gerous
Substances
doomed
##assing
encre
hogshead
pernicious
illness
##minster
impose
civ
##rit
Proposals
la
alluring
deposed
gospel
papal
Algiers
ars
dian
purge
discipl
somewh
foss
accord
Suspic
increasing
Fanny
Genius
Conce
##ioned
##DIN
belly
THOSE
Priv
labouring
insidious
##ister
##iston
Sirs
sym
Sister
Siege
64
Hardness
##aughter
Tillotson
dou
proceed
screen
##rement
Convent
Season
diminutive
right
markets
Hunger
leap
examine
##usb
POLY
traff
##va
perplex
##ided
impl
conviction
tool
predecess
Sandford
Peruvian
louder
Shir
##vian
##forter
Mistress
moderns
##ṫ
##lus
estates
defiance
could
Rack
suns
k
cab
entry
Mass
comprehension
7th
##rage
prim
Determination
perishing
Corporal
INT
obliged
rapidity
immoral
Bever
complain
pict
blister
coasts
Reh
Countrymen
##rite
unwilling
Luk
##ular
Hall
ners
Subjection
impatiently
expenses
passengers
##abapt
terrified
offer
Greeks
Europeans
Write
##spring
burning
inexhaustible
##irp
prol
##odox
##altar
Epic
caution
Freemen
Palmer
brut
Prede
pad
MS
merits
smitten
precipices
##ue
##IVES
assaults
VII
bounteous
19
Scarce
Craft
unright
##itably
Athenians
ariseth
sense
Richmond
##chi
Appl
rewards
Scale
Volumes
ght
Daph
crit
Knox
resolving
fert
predominant
scarcely
irresistible
strange
imbibed
swear
##ENS
resulting
##icious
Tradition
bestowing
haply
Prosperity
♎
##thing
WHO
##rews
applaud
##cribers
##ORA
duces
narrower
beetle
Claim
Ears
Partiality
##uine
prophecies
edly
Box
Respect
pan
UNDER
prorog
##side
mentioned
##OLL
##de
godliness
##irt
murm
bards
heighth
ψ
captiv
clim
inclin
gaged
Oppress
Myst
jolly
Printer
allowance
Nestor
endeav
Now
Conduct
extinguished
137
Priests
assimil
##uta
##si
warfare
Advantages
##AD
##umberland
##ableness
Vic
Advocate
whis
##Ô
violated
valu
143
cavalry
pro
gently
Squad
Pint
Representatives
Carolina
words
##igently
##inates
Chiefs
ences
easier
festivals
1777
Hu
ensued
##eph
elaborate
brist
witty
ation
eter
##ipel
favours
fund
Hon
Wide
avails
Habitation
wavering
prohib
rever
constrained
lee
Novel
>
##fore
LO
Christmas
PRINTED
existing
magnanimity
throats
##esy
Flower
drove
pir
nobles
prelates
##URN
Them
officer
treating
Success
Widow
Dying
bite
Criminal
livered
##ALL
ATH
thus
1722
bury
headlong
wou
Then
intention
Gou
purse
wa
unit
blessedness
Pequ
circumspection
explore
joint
barr
girl
repel
Br
Treasury
##soci
pint
##iol
decreed
##ortunate
combinations
expedi
Followers
Andrew
Propos
consciousness
dollars
moderation
300
Douglass
alight
so
Persians
lessened
bigness
Tow
coff
ell
##asp
Captive
hos
merit
affron
##van
Cypr
Wings
lore
ters
Inhabitants
##enes
commended
Controvers
enjoy
Wages
Miscar
electors
adventure
adherence
Epistle
fictions
Rapture
Published
Proc
##FF
###
Eccles
circumstantial
Peggy
folks
Tyr
GEORGE
lt
Map
Burthen
Intim
dared
sturdy
##q
##orn
Sach
Nut
Cherub
Republic
fub
strengthen
mile
Innocent
ELIZ
banquet
##ERY
##ISE
Corn
##acies
blasphemy
1200
bree
importation
##oke
honor
##izes
declared
heathens
Poor
haunted
infected
##rings
wanton
##iding
opportunity
##igated
Timber
Murd
negroes
definition
Gest
Insolence
disco
adapt
soll
conjugal
uncouth
TH
TREAT
shafts
##emn
conquest
recruit
dele
Farewel
starting
1780
Money
1728
Graces
North
restr
Hole
##ricate
Standard
##act
##imon
nother
;"
Opposition
eats
pentance
perils
pathetic
transacted
Milan
conf
Magistr
gout
##alvation
adduced
GARD
##amation
search
lows
belief
flocks
personally
fane
Ne
mansion
repetition
Phoe
Compass
##eno
sm
′
##istra
intern
venal
Guardian
Report
jealousy
needful
Complaint
swain
sisting
##ONS
experience
Done
Lac
curses
ches
general
saline
Whoso
support
lightning
manufacturing
improvements
Linnaeus
war
obli
glaring
control
Erskine
Fatig
II
injunctions
messenger
##uring
nitre
Sa
concurred
pills
leaf
commissioner
##oth
dis
Hypocrites
insults
Chastity
precedents
robbed
trunks
philosoph
Viv
guarding
##URY
happen
grieve
Charms
quote
ve
branches
##aw
Alex
deportment
stopping
stress
silly
while
##λ
active
BLACK
Barons
ashamed
Enoch
avail
Expedition
##onia
cabb
substituted
enjoyment
miserably
shoes
##lar
Life
Solon
enlist
##REN
AG
Shew
Caution
##RESS
Burton
importance
Effect
©
nated
afore
hemisphere
intersp
Licence
Written
till
filling
unfair
wis
##ù
process
##Υ
excellence
Morn
beggar
spiral
heads
ingratitude
shameful
wildness
1770
attributes
Wicked
membranes
Hurt
Instruction
space
Safe
fitly
205
CONV
evident
Philadel
Sm
cries
##essions
displeasure
levied
infamous
architecture
greed
Watts
republican
Ï
warmth
##be
John
##ALE
repl
mere
worshipped
fn
##ẏ
℣
deceived
Dispositions
Mod
reasoned
##ob
Ordered
countess
Authors
##ard
impregn
Disputes
prisoners
exaggerated
cd
##uated
Jeh
inflame
structed
Naut
gloomy
grie
bus
tually
proclaimed
206
Whence
Went
depends
fictitious
shifting
stu
borders
mass
Hint
##ès
##elve
lowered
Connection
are
Ὀ
##law
##IE
##orders
355
observer
HAPP
ave
disappear
fan
Vern
intricate
retros
admittance
performing
defence
##iday
Joel
Durham
##aved
Laurence
##uti
monstrous
supports
politic
swallow
##ezvous
Port
governs
Rs
Goldsmith
Slaves
##ogue
spight
weakly
artless
recl
awed
##ȳ
Harlow
teachers
Catharine
Innocence
abideth
willow
Harvey
Sple
1709
lighten
count
titles
INF
BOSTON
diver
confirms
Hog
Yorkshire
struction
unhappily
Charleston
pleasant
assuredly
XV
##ò
##osp
Guns
Dove
Imaginations
Gard
quiet
Bulk
SAM
pute
ei
##♏
##ensions
Embrace
Tents
##board
181
lungs
indigence
invent
##riforth
characteristics
##isions
##unities
FREE
Notes
speech
lays
##ctrinal
pave
lean
dimensions
coinc
Flowers
eighteen
downy
trem
philosophers
By
loans
##alian
PRES
GARRICK
##iated
deluge
benevolence
Countries
Ethiop
menti
exam
popul
els
Ol
discerning
demonstrated
Sisters
ba
brother
##quire
remote
Cl
Pars
Threatning
##ensity
pleaseth
Faint
Reproof
boundaries
thousand
Opportunity
Salis
Aurungzêbe
afar
##oit
Shield
Vig
OVER
Bridge
peculiarity
conceive
##oll
##andy
dayes
##ONT
recollected
loads
divided
reproached
leaves
XXII
const
interven
—'
Diction
##uosity
presents
Cit
curs
##iis
deposited
naturalists
Eusebius
Series
##Ç
cruelly
Punishments
cance
please
Hart
Bookseller
despite
property
dissenting
tra
##cester
publickly
pror
♊
##vest
followers
confid
forces
regeneration
third
Chennai
##then
deplorable
Cont
repented
pillow
##istinct
ven
Opinion
myr
Os
inform
Meditations
Celebr
JEHOVAH
25th
awkward
lane
chapel
gratitude
“
citiz
ƿ
##ayed
Garment
Forbes
Species
Purpose
prognost
ari
ninet
inflexible
ends
courted
dily
Narrative
oxy
greatest
##er
intr
##ica
sixth
overt
##agger
rapine
akin
1710
ins
garr
precipice
Facts
descriptions
major
##`
Henrietta
adhering
suited
incidental
Doctor
scold
##iguity
##OOK
ciently
extreamly
nunc
opinion
constitu
sobriety
Grandeur
discouragement
genial
amid
α
symmetry
ns
Reynolds
Dry
Wine
enlightened
collateral
bapt
Product
##aders
ARM
prefent
##eousness
##Ξ
newly
##natural
Retreat
disapprobation
mage
market
Quebec
Godliness
##ihil
brutal
dure
##WOOD
stifle
##inian
precedent
##UCK
ANSWER
affirming
ingenuity
sensi
Situation
fallible
repine
Moral
kissed
strains
##MENT
topics
columns
Fondness
combin
:
combining
Bea
##bid
##xious
##an
sends
Dep
created
captivity
industrious
Ingred
Scholar
Guild
leak
È
132
Glory
ef
privile
GOD
lux
Commons
Gul
Ha
liberties
Fees
removes
sustaining
##ldom
diate
Transl
Bank
Age
UP
peep
##ila
Crowd
1795
holders
apprized
capable
Displeasure
dece
gift
Kn
##itime
Powers
requireth
tryal
raillery
Antip
ply
spray
stole
exceptionable
##rub
shrie
Peop
poly
##5
mischie
ope
lot
fairy
##ipot
inordinate
lity
Majority
fidelity
remarking
Doctors
interpreter
Trial
loins
Brief
reception
Valentine
paras
Forn
Short
grad
chimer
imme
retinue
timorous
Math
Monte
assertion
Heavenly
##ridges
benefited
Knowing
capitals
,"
reconcil
Cant
pur
Behold
executors
oppression
disappointments
##loyd
fhall
##ban
Reve
##»
mi
##ige
23
friends
##ow
Miracles
Roll
Darnley
##ü
Prepar
317
Hume
renov
usurpation
##osal
yields
pretended
say
vince
##onement
dwellings
egg
##ding
##ions
fabric
##ination
imposed
gon
Paradise
fc
activity
Eight
##OO
##pecially
traitor
Profit
transports
mang
recoil
BER
Thous
diligent
Groans
mournful
managers
dow
##woman
interest
##aret
Stodd
Fears
Test
##etta
dispute
##elm
ty
sheriff
257
Eve
varying
fellowship
exagger
Brussels
assur
##irty
##ueen
generous
CAR
origi
plunged
Surprize
##ricted
young
##lady
converts
Raw
demands
Morning
meditation
##lage
##sy
dia
##ubstant
Eyes
##ists
singly
##oup
Native
invites
classed
trunk
Fruits
indi
sulphur
Garter
dedicate
nc
##ording
these
vet
cabin
unst
surplus
fatally
exhorted
husbands
excessively
Scand
speechless
##III
amaze
tailed
Lad
nerve
insisted
prepared
inoff
Hibern
Grie
sighted
oeconomy
bearing
Heroes
securities
exercise
craw
moss
##aration
debate
ecl
YORK
flesh
##ople
chast
83
part
##ANDER
rheum
pigeons
##avish
invading
throws
improb
Muses
1000
business
protector
dissolved
reduced
Fitzorton
Spin
—.
occupation
managed
conclude
hearers
##aves
strokes
Lords
student
##agu
conso
wider
vanished
##ij
ceive
Narc
##worth
##asses
##atur
##OP
unanimously
week
sayings
Inscription
Afflicted
Spear
Grain
Place
threw
##reed
##Â
befall
Eleanor
finery
cave
rigour
trop
lift
meals
##out
cool
175
Advice
Evil
trader
##ORUS
verily
archiv
##cest
benefic
##omew
##rages
##aband
transform
##oser
Arm
Willing
Copy
still
Hazard
Log
##reg
Instruments
Horn
profits
customs
pard
Desp
##ns
earls
##uus
##bel
repeating
consequ
351
Three
unfe
facts
citizens
squad
Chest
Lap
clared
##atus
crushed
Cer
parliament
damage
vessels
##ingly
endeavouring
fluct
dome
pursu
disposal
Pretence
##itutions
inl
farmer
Arri
underneath
loos
pastures
mother
misc
abun
Morden
ACC
stimulating
##itia
burns
heels
suppression
tile
Same
leav
98
Farm
authorities
published
pas
Stores
Philadelphia
beside
Eastern
flu
##ied
ability
cooling
curiously
THUS
humble
appeals
GREAT
##OVAH
pretensions
Mirza
##respond
labourer
##ended
Tower
fri
allotted
weighty
connection
contact
De
rupt
travell
Bohem
Vest
Trumpets
hem
##bly
##athem
##iety
##ye
##inety
hart
arrangement
publication
genuine
Act
unsuccess
275
exc
Was
trades
##inam
hom
arched
269
##ommod
deluded
flows
Subl
heirs
loc
Always
Robe
Inclination
irksome
##olations
creat
precaution
stances
Conven
token
foil
PSALM
breakers
.--
##isco
communication
Self
149
##γ
sentiment
##ggling
intreated
treads
insects
boisterous
Craw
acceler
invariable
bestow
shin
squirrel
Brothers
Songs
Compliance
rhetoric
Ot
Mult
##gon
Lightning
dose
indifferently
Judg
##ppers
##ble
♁
carnal
##deme
pardons
silently
##lio
##LOW
##ooner
instruct
##oman
##onds
sie
Last
luxuriant
awe
standing
##away
##ensils
sale
enf
MIR
rendred
##form
asserts
justifie
agreed
PRI
seemeth
Hend
actual
assertions
envel
Sulphur
quality
##apse
limit
offending
instinct
;
Osw
Lord
prevent
Liquors
Perhaps
desolate
Line
aspect
##ibly
##arest
Defin
usurp
remitted
##bitant
completion
spont
Learning
##orous
indigo
quan
##elfth
ix
disdain
purs
Salv
devilish
##Ñ
tormented
January
##change
MY
Carpenter
##ask
repairing
Xerxes
prize
universe
##als
mise
impertinent
Rev
woful
Earn
glitter
And
le
pears
transfer
felony
xi
##itherto
naught
superintend
felt
reversed
##itch
Rom
Appendix
enforcing
##LES
sust
Lazarus
##ice
Hosp
caprice
unanim
indiscretion
Idolatry
##entially
∽
nego
fiss
refin
disorders
Gulf
humbled
tem
depred
Commodore
##AC
adoration
Presbytery
##emperate
purely
Cupid
provinces
Due
Sutton
Carthag
##taining
##cated
##umble
argu
long
pup
fl
Often
Pillars
PERS
mand
##bor
##uing
Ip
Philo
melodious
tirely
##court
capit
viz
Vigour
Wonders
Monarchy
arisen
sev
bin
sinned
urge
GRAND
chur
bl
follies
Certainly
##orthy
Generality
qua
Wheat
Montes
toys
248
implor
fh
##ERN
Big
boasting
affronted
##agor
Oracle
##crib
##lyn
Rams
snug
redeeming
Hunt
submit
##ẍ
Examine
Great
Harbour
##ilh
##anies
Judic
Quot
hardened
Tet
gestures
descriptive
buying
Save
Clarendon
Inspiration
Observe
##isons
Ocean
Anabapt
##hor
demur
pervers
dub
ries
##oyson
VIRTUE
plagues
302
Freedom
impet
##ceed
experiments
##ervous
mented
SOME
Fur
Gos
dign
##iterate
.).
Comparison
vindication
Cos
surround
##iph
Motive
stretched
Dream
Speci
Experiences
nourable
appearing
step
Gibbon
##sf
pract
believers
whore
Pot
conspired
internally
Village
smile
1744
From
##vi
healthy
##ABELLA
anci
benign
humbler
politely
Papa
Colonies
##ven
ta
disobey
describ
##udes
terest
demonstration
Rap
indig
##stand
Unright
acids
rocks
illustrious
opposed
Extent
##sss
Abbé
persecute
Appeal
requ
perverted
disfig
##TY
##affection
pends
Fowls
animal
Wanton
.-
disordered
restraint
Sage
Trem
poss
##ivorous
blameable
include
Zoöl
censured
##aire
##Ψ
Efq
reins
FOR
rise
Flux
princess
##atiate
##iances
9900
##orted
deline
laden
##acit
Fer
##I
118
heated
Proclamation
improving
sloop
scal
##sec
##❛
Principal
sion
aggrand
animals
Gird
hoe
accl
##geant
##wed
##cil
speaker
enemy
ACCOUNT
ach
raising
ES
inflict
stept
unnecessary
##ls
wards
Pale
##|
Sym
soft
Stri
cow
Hunter
poster
),
Buch
differing
##ums
Woodley
wolves
Les
direful
##ala
sig
suggest
Seat
Thence
##inch
doses
essays
Infamy
171
gazing
Faust
##etime
fullest
AR
1679
##ative
lists
mirac
NOR
##eeds
Messiah
8vo
##ORE
Item
ALL
alienation
##elestial
Scot
burth
Patron
##iliation
Fif
Again
aided
affair
alle
plaint
Intr
even
Outward
barbarity
fire
3dly
Pap
providing
Propositions
moon
##fl
298
fertility
##ically
Tin
hitherto
bolder
##gression
unexpectedly
Treason
288
Mirth
EUG
exha
report
obstinacy
##ving
undis
possible
contemn
envy
camp
##ic
Gran
Par
##res
nat
Sheep
Pl
##ammar
Warmth
Yearly
start
gene
conceptions
Solomon
stare
##ts
awakening
school
safest
156
nursery
##icip
alacrity
##esie
##INESS
Passages
subdued
inherent
Midnight
Spite
retains
##OGR
believeth
Edification
placed
Ms
Ac
Elias
##ccles
excuses
Gab
supplying
gum
succours
endeavor
gav
stup
duced
copies
dew
vacancy
throne
##itant
drunkenness
liv
width
Favour
##sts
Coast
heightened
wedded
assuming
narration
##ravity
TCP
begot
fermentation
spirits
Specifically
attendants
blown
side
Scope
##xes
Gentry
highness
dissip
Fabric
body
ISA
presented
conscientiously
Physick
providence
Euph
Frederic
disdained
north
squ
sag
Objections
Tear
Yes
Rale
Battel
archit
tolerated
members
fhould
heir
main
Cay
##uter
Use
anterior
pern
Grafton
CY
##rements
ecclesiast
Manner
##ermen
unclean
##icum
Patent
bon
damages
dit
memoirs
hee
Δ
Charm
sinners
Athenian
tiful
##ug
Michael
back
py
Remission
pres
detained
escaping
##atage
precipitate
■
Rebe
Reverend
winning
track
Euphrates
Buff
152
escaped
deference
liberality
displays
decoction
nomen
Aut
Contro
##keys
Prefer
Andre
ene
ul
detected
slips
valour
Ψ
##old
Spi
laure
variation
fought
Medicine
Mistakes
Hereby
##LESS
deity
prelate
Sincere
quotes
motionless
##idance
284
Em
authorized
##olving
fy
stew
222
avoided
Answer
creek
Christian
unden
##qua
Stras
##aces
##ids
##ority
Alarm
cultivate
##atories
jo
##"
ESSAY
sayes
orders
Sampled
Confusion
Belief
##IDE
mo
receipt
visc
solutely
Mes
lour
Firm
Advent
scar
instantly
Athanas
remembered
tenance
nic
COUNTRY
attorney
vb
Cooper
is
Existence
variety
135
admires
misunder
brute
Continent
commod
Shrews
plants
attack
use
therm
Faces
gest
Ruler
tering
dined
act
competent
sorry
things
giant
hunts
##ibility
effects
##ute
casts
Reasonable
essential
Cru
especially
supply
##itence
##lies
Afflictions
Zey
continually
excommun
##ointed
organs
grac
facility
sack
mine
Reports
contrite
1699
Colle
##ICK
dation
PRO
beauty
habitants
Tax
believes
swains
Judea
gray
##oz
debt
disd
contain
lasted
Bit
completed
Usage
foc
prudence
apost
possessors
thirdly
eight
Said
Story
Creation
bubble
hence
Offices
unrem
snuff
sweetness
prefers
##asy
chariot
Mack
flame
GENTLEMEN
transitory
Belie
Protest
pub
Earthquakes
##iet
murder
Pleasure
##UTE
rose
YET
##yond
Sums
##UTH
destruc
##ola
sufferings
##aughters
hopeless
Awake
Andrews
ranked
Disorder
reb
Debtor
##IUM
##isements
##t
empty
Godfrey
passion
Begg
DAM
##°
Zeal
Oun
##IN
reck
Constable
pose
Mediation
visiting
##ittance
forthwith
ṫ
##pection
##eca
##rent
Revenge
proudly
fatigue
Navigation
##OMET
partially
##seless
gage
##GAR
quali
##AINT
##USH
##erna
##penter
brace
##ales
##ternity
trun
##asions
brutish
doom
Aristotle
Lament
Theme
Moth
lame
##ilio
##cious
Kin
suffers
punishment
Louis
dic
Que
Seb
Inde
Mademoiselle
##etus
##vers
illustr
Charter
Syrup
victuals
crowds
##ount
Ing
why
begging
##ised
death
admonitions
prepare
##aren
debates
demption
2008
drinking
bien
cautiously
Winth
##asing
Sails
##ade
compa
horns
Honor
kitchen
partook
Sens
##iloqu
reviewed
##ourn
##OULD
together
Persecution
wholly
culties
degrees
suit
tled
amuse
contradict
##esses
Rector
chase
rode
indulging
##vin
mirror
preparations
results
##bur
Marchioness
Crest
debau
##nant
##ucing
amb
fellows
Sew
med
constantly
sorts
colouring
Stile
artfully
inco
##ulent
impract
bur
##nec
Quarrel
Damages
appealed
sighs
squire
ex
Food
##itty
brib
wilderness
Painting
##IEL
grievous
PH
##XXX
underval
##UMN
Goats
applied
judicial
##entine
Wolves
disciples
Alter
THEN
Streets
Vir
Professors
title
keeping
##oin
##rimony
dist
recal
owner
##gh
Deponent
Constantine
Mist
Hector
##pher
##ENN
sentiments
persuasive
morning
gin
GAR
sk
wak
blackish
Practice
Circum
style
##CRIPT
Figure
##aci
Perse
longitud
Samp
##dess
##ilar
claws
Amster
career
overcome
magic
##AKER
Tumult
Countenance
distances
Trifles
stile
Plim
substantial
repos
allay
properly
gy
##GL
submissive
Music
Matters
edition
Dunbar
Reconciliation
Censure
1705
arch
fervently
woman
Compassion
gallant
##itis
mil
Bottom
Visits
cord
fertile
196
HAD
##ring
signal
travels
Governor
Hebrews
303
ludicrous
##ST
richest
rains
EXAMP
cy
orph
reliance
delays
sequester
##!
Hare
Sag
merchants
dre
fifteen
afflict
Subscribers
Instead
retard
scrupulous
increase
##light
Wats
##ETER
promised
##low
##quest
disguised
prost
##quid
##illing
dissol
##ret
despis
almighty
suff
satisf
##ylus
rep
SOL
pattern
##ippi
Vessels
warned
august
fighting
leaders
execu
easy
argue
fickle
Commandment
redd
##Ë
gaming
roving
recept
Narr
Ban
Ere
ew
Calvin
pel
convened
2000
commissions
##ender
vow
contr
##ð
Cow
discontented
##Ö
Verses
older
##adise
direct
Societies
propounded
Under
##raneous
spr
emitted
tremely
ward
fates
Officer
repeal
Decay
victories
altering
ensigns
joyful
Security
relent
os
smo
Rice
foresaid
Printed
sadness
pitying
asc
Lips
##H
precipitation
goe
Tart
imprudence
##IS
##CIL
conformable
planets
Cobham
8
rested
manufacture
sinful
distresses
tribute
covetous
teen
symptoms
Joshua
cine
affirm
salutary
Families
na
rates
serpents
ASS
##AEUS
Convey
off
earn
pant
climbing
expediency
cumb
Lond
Quiet
yourself
teous
Anna
ancestors
##aglio
reve
Perseverance
nd
quar
sheweth
ces
during
corruptions
particles
Ken
reformers
delights
wedding
##OND
##eem
''
Worthy
philosophical
fly
organ
Heart
Brist
mus
experimental
MET
Occ
WHICH
heard
##atem
Chol
dos
Ι
beat
Renown
Tort
##estions
##ESTY
Bernard
Pul
##lasting
Since
236
##olog
Crimes
China
mule
tardy
superiour
##father
##attle
fulfilled
darkest
shs
blaz
##itts
Poems
##eeper
adopt
##airy
##ney
immersed
GU
Chat
suspence
Hope
yonder
wrapped
Dor
undisc
Thanksgiving
~.
monastery
Dig
Square
Den
hay
Gild
Tel
Steward
##aterpill
depreciation
denounced
160
Cr
Pres
estab
corporal
315
thirt
HOW
Vide
scul
Naples
Abuses
valley
extends
longing
PEACE
Objects
immortal
Ω
Fellows
swine
MD
invincible
Inter
quies
defra
Pock
else
voluptuous
Sessions
peated
visibly
##END
Roger
Piece
submission
Rash
gets
risk
hand
av
##ŏ
tee
##♋
##verse
Lovelace
##kshire
♯
brutes
Drum
AIR
Arminian
##AU
Ridley
Travel
disturb
Attempts
##iced
##iate
##ibles
defects
harmless
France
221
##affect
##icity
Strange
considering
perturb
unc
Le
init
Lays
indors
Col
privilege
proclaim
Conclusions
Heir
333
Germ
##ethar
##ASS
syl
incumb
stands
unlucky
crossed
Gloss
Jordan
portunity
express
rival
Fi
wares
Regions
secl
defiled
sinner
pulpit
##NE
Anch
Knights
sulph
rain
occur
62
bal
Ely
Admin
midnight
abrid
quantity
##zza
##ustry
ENGLAND
##ord
untill
Turns
Confeder
Wom
Military
legislative
cheat
##seau
##ract
possibly
Treas
brooks
sant
anch
Gener
accepting
preside
crept
Marshall
equally
Zeyl
Nove
better
eighteenth
swered
##eat
Swiss
frown
worthy
##interested
Cannot
Athe
Lieu
brink
##cknow
##emoiselle
abs
SPE
violently
lib
##mount
crime
richly
Punishment
alwayes
orange
##±
base
Perth
Powder
vices
blacks
obedience
bequeathed
Number
choose
##berries
SUPP
fasting
lend
commonly
previously
SUR
harps
Pharisees
wise
vac
Establish
shorten
Ones
monsters
sitions
gamb
Chaplain
duce
stri
fort
##no
related
##ez
rusty
##ournal
Preparations
##bird
##oiselle
dry
rea
CAT
wages
cott
##city
☽
##orts
Eli
Performance
##P
##ulg
Magazine
Tranqu
dence
Parlia
farmers
Plymouth
PS
rupture
income
Profess
##forth
"-
deg
owns
Amidst
itself
obstructions
Fluid
Louisa
##yng
eating
unsuitable
Cons
Shipping
unbelief
dain
expos
manifest
ping
unprofitable
moral
7
academy
##PL
##asis
transmitted
cautious
heark
Vows
recollection
Assistance
##ach
Malcol
Constitutions
dumb
temptation
DUR
smallest
bitterly
embraces
Sapp
1716
Captives
contains
stratage
emphatically
##lb
##ored
Seven
##ifi
missionaries
Instrument
##77
courts
exact
Converted
inquired
divinely
##lying
Essence
hopeful
Walpole
godly
##upportable
quotations
142
Gilbert
steadiness
OD
##iterated
Belford
##ident
##ace
##ISH
Physiol
Measures
elastic
Numbers
Motions
dangerous
Salisbury
##nings
ham
##ust
Mad
resemblance
cell
SE
dearer
Sword
Aber
inculcated
Cases
appointments
Exper
##lander
•
##ators
Needle
Nancy
wheels
benefactors
Marshal
thereto
##inges
sels
warnings
ardently
attent
##come
ancient
Defendant
##fare
##aken
Men
Unf
Arn
lack
Insp
184
chance
Newton
Sign
Labour
pars
acted
Immediately
Dou
Notions
Privilege
Pomp
##udo
223
Pee
anchored
##eus
pulse
cog
emplo
##utations
unbecoming
sole
Unbel
##agg
cellent
fetch
pronouncing
##ivoc
##AVE
endow
autumnal
idle
butcher
layer
west
##vious
provides
vows
##ev
possibility
refresh
29
catholic
Hampton
Suppose
TO
relates
##ells
327
cumstances
190
##otion
Edin
ARE
men
timed
##rew
World
##asure
barbarians
dearly
paints
Amb
leaning
Resolved
Bridegroom
ambit
colonies
##ifh
VIRG
Riches
##aults
touched
Breed
ú
sanctified
##amphlets
##itutes
Att
traffic
walked
Argyle
vert
tower
have
reverend
##itating
Dest
looks
##mine
3
Serpents
colors
sharp
Administr
Veg
remonstrances
iniquitous
deliber
Liberty
seemingly
187
produ
spirit
Succession
supplication
heats
55
##izen
subj
serenity
ugly
Session
recompense
stick
##b
intentions
cherished
gall
##iastical
impregnated
infused
busi
occupations
large
scruple
appointing
virgin
##♪
rove
islands
admit
summoned
triangular
Creat
Swan
disgusted
civilized
WHITE
##lex
encroachments
Madam
propensity
effeminate
Likewise
incor
##ulge
ard
ng
potest
counts
SP
##utiful
satisfac
Syl
suo
ref
GL
##eck
Thursday
Stu
##rec
refreshment
Lye
awakened
infin
Mans
nominal
joining
heavens
wrath
comes
prerogatives
Middles
vot
##ELLA
flourishing
Descent
prisons
struct
##say
Ideas
Pigeon
resour
##bri
Drink
map
chris
resurrection
##angling
anniversary
adult
cerning
deduce
##aintance
dispose
Ward
torpid
whisper
foresight
##bles
chalk
##iders
##—
##aps
sep
Organs
ange
##ELLOW
Heed
unconscious
Manufactures
Saturday
Sweat
Women
sensual
value
sence
Salts
journ
constructed
Pos
anticip
Montague
seeking
Temples
ciples
delay
VV
suaded
erected
1766
waking
enum
fixing
sollic
##bank
grey
modern
Messenger
lex
Lessons
Daughters
Cherry
Cave
venerable
Ă
derived
disadv
perdition
Instr
circular
Theodos
supposed
Accus
fig
Ali
boasted
hemp
##iring
torch
Scip
piteous
mathem
Might
##imb
##+
##OTHER
Infidelity
devotion
##ood
##ribly
willing
horizont
civil
strand
Watch
Remorse
Warren
kinds
stomachs
unjust
Allegiance
cha
Ibidem
##valier
atro
duel
##ale
##Ŷ
sol
sex
favor
Sould
downwards
thr
Maker
crisis
neglect
magazine
guardian
dutch
##ential
ber
##poc
obnoxious
clothe
gill
Gesner
Pacific
terminated
denomin
Account
dorm
Condemnation
execution
inferences
parents
neighb
Spart
Bott
renown
derness
advent
gradually
fullness
climes
edges
betraying
nal
converted
!)
partakers
##INCE
##idem
supr
Mog
magistr
sque
Ath
national
demn
Warburton
fraught
whey
returns
sip
##eding
happi
modo
quarters
approaching
##acon
humb
##aring
##joy
Legisl
dwelling
##ws
Doctrinal
poet
SOC
Stam
giving
##ht
boot
Cain
omnis
##appy
K
vassals
##å
pork
shoulders
Hearers
cursed
cruel
Contention
reject
condition
Def
Continental
begged
##sworth
##inking
ligion
Eu
studied
sepulchre
expir
employing
motion
Quid
##enson
revel
SERMON
##sil
##ants
redeem
obvi
ances
##OL
Newport
inflamed
##onial
##era
regret
merciful
no
WR
1754
majesty
Virgil
flagrant
band
Difficulty
domain
Progress
##ool
flax
SPEC
##por
quainted
persever
shrine
fa
##ifier
tress
Molly
cuse
##adem
dern
sings
Aes
Draper
Puff
Greg
begin
##enton
light
discontent
distinguished
spurn
reptiles
##D
##tym
computed
instit
##N
coars
evince
Sea
##uls
castle
tainted
suspected
Neptune
xxx
dissat
There
Ordinances
dragon
Embra
vass
Because
Disgrace
perse
heap
Cale
##mont
apprehensions
##atter
inasmuch
Captains
Treach
considera
locks
Wherein
mortals
unsh
unnoticed
chargeable
embraced
gh
doers
inestimable
finally
outside
Sat
mortar
obligations
Destruction
affirms
##11
radiance
##tered
##cel
cution
towns
incomp
##ased
rather
VERSE
swamp
HARD
Laura
Rece
Form
M
Clerk
friendship
##aginous
Shaw
Concerns
##∷
Transactions
usually
##join
abandon
til
faith
Subs
tes
##Þ
apart
æ
respective
Tom
267
shortness
supplic
cor
299
##atiable
ON
Secretary
Caled
insp
issued
##tion
##uber
intol
comparative
Inspir
troph
Idea
conquering
sumptuous
dine
Colonel
♃
fast
stars
##6
##arge
##pical
·
##HE
##lor
##erxes
##unt
##On
blot
##ISTER
anecdote
208
##mity
1767
gratified
##sr
rept
Hopes
pensions
martyrs
musing
ingenious
emb
Rais
feel
impudent
accidentally
tians
Titles
##actions
doub
E
weaker
Ess
Eustathius
how
curiosities
incredible
Res
unrestr
queen
travel
Perm
nally
thrones
tions
pause
squares
erad
192
ap
assemblies
shines
THO
Es
Aid
##amp
supposing
congrat
##erity
##ixture
PROVID
Catechism
Ninth
Passion
HYM
Books
miracle
jewel
Vow
Thrice
nobis
Knot
deliverance
circumference
heareth
##ICT
enquire
READ
trea
doubtless
##bled
Mer
commodity
knowing
120
quantities
alo
Feast
Which
Ioh
palp
under
verses
navigation
Kent
governments
Guard
Aub
Presby
Gold
Ped
blasts
Goal
##IUS
Haw
templ
hat
Calling
Nehem
WOOD
Hem
Rem
##ock
afternoon
##loe
##estern
Patrick
Mahomet
1757
##dome
##Es
regularity
anticipated
##lets
sn
##icke
Vomit
wind
cone
lamb
##ittees
har
##atively
##cessions
inch
il
hist
insult
Naked
Austria
279
##wer
commence
herself
incur
bol
Metal
##¡
swells
Cousin
marched
##airn
Agamemnon
##atim
operates
overflowing
Sec
accost
Veneration
sexes
Quin
authentic
temp
##orse
settling
##etimes
pagan
Encour
eighth
decks
Foun
Car
##atis
Sy
vassal
##reth
Hezekiah
bushels
timely
Paine
COR
##FT
ea
##thenic
ourselves
wrest
eagle
formid
lordship
Cub
Yesterday
caused
enerv
truce
##igence
û
Nat
affec
considerable
effective
Anderson
penetrate
techn
ser
Chariot
prosperity
fourth
exactness
Rymer
cinnamon
exhib
ln
Providence
lection
uterus
ammon
ratify
ms
forbid
thither
Excellencies
inflammatory
♐
indictment
ib
Bor
knowest
surprize
Engine
WIS
revived
Antio
Keith
upward
weaken
notwithstand
go
Patience
Bartholomew
moderately
Earthquake
excellency
Stew
listen
shifts
somewhere
Isabel
##AIL
Marl
Petitions
surpriz
##eti
garden
ά
Earls
refreshing
ş
Scripture
Stafford
province
groaning
reflect
Aust
peace
Oil
##osis
77
copied
Fevers
Should
##ores
dusky
disposition
168
periodical
##avour
anxious
accomplished
accent
Som
Amsterdam
wor
##set
Surinam
drows
##iary
admonition
nerally
swears
§.
Carol
minutely
Char
ling
plainest
inspire
1746
Fath
Delivered
impetuous
Show
ξ
rack
disgra
arising
Patients
STER
Ef
200
##CO
##cover
Mercies
constitute
scrup
##ONY
##chief
Search
73
sovereignty
##nder
disappointed
##ORTH
misrepresented
spell
ena
Ark
inner
Contempl
proof
##ithe
loth
##WAY
partner
Blasphem
interfer
##press
superseded
morbid
deform
84
Taste
Negative
Reluct
Resolution
Maxim
saucy
alighted
Restoration
poses
Dragon
writs
flights
exprest
delighted
suspicion
##asted
police
prel
therein
export
Western
complaints
Reformation
nonsense
1772
vanity
Anchor
reaching
countenances
Portug
Address
ting
Laure
Chartulary
prof
##apping
spouse
disclose
mete
Grecian
##IR
remiss
William
##istence
modesty
##ourney
marks
begun
##ary
SOUTH
##gow
##iency
##ently
inti
ounce
##dled
seriously
convex
##-
Vicar
POST
##YS
Channel
Geo
ately
trample
##ushes
As
##QU
stay
prick
Theodosius
stirring
adore
##zing
necessa
FURTHER
circumcision
belong
Iniquity
Misc
OR
##ution
nances
##és
##cate
-,
Yoke
##ting
##fin
Posture
301
baptized
indulge
Ske
surrendered
disputing
##acter
##sher
2010
##ds
Job
hereupon
pert
denominated
conceives
Praying
Along
lege
SOPHIA
vall
Boer
Gmel
commonwealth
evermore
admiralty
##UP
musical
##hile
immense
Class
mortify
##ken
EPIST
tasting
ihall
Deities
02
betwixt
softly
tamely
Hol
quest
remonstr
hardy
ruling
perswade
##cribed
wilful
Full
CXXX
revol
tertain
ardor
##geance
##ugal
fe
drink
subsistence
elect
##ulch
cape
Carthage
##onsolate
36
vi
imposs
bottomless
vers
Give
breaches
BET
rarely
Historians
tears
γ
##ithee
baneful
##ointment
ro
ordi
##erves
discouraging
reached
statesman
Tacitus
##hmus
Tob
nap
Tabernacle
Whom
talks
inve
autho
Drag
uncult
Soon
warrants
dom
##onious
Disch
##etary
engaging
nearer
Song
Shell
cared
##asticity
communicates
regiments
mingled
grounded
benignity
odd
##endi
lb
dans
deep
delivers
exemplary
Root
Compare
inhabiting
turf
admiration
ruinous
proaches
prosecute
steed
##gue
ned
satan
sham
unpol
##ints
puff
Inf
heed
990
##AN
moll
guest
procession
vantage
bours
tenderest
Professions
gru
Va
ink
##ête
Produce
devast
overtake
grossly
petty
stones
insens
agg
With
Cree
SIN
ungu
Tracts
Weak
##off
##ingale
Fain
Francis
Lav
Psalms
##ruce
belie
##atherine
Mercury
##eys
Coffee
excepting
noxious
unusual
monster
vari
inexorable
Fac
cir
gs
##assed
axe
Seas
debtors
bends
▭
##antes
nest
var
fatig
chest
village
Sanch
Breton
ject
##ast
##ished
Health
answerable
Nice
horr
mer
charged
deeds
pasture
lun
buildings
The
Maje
##onym
Faithful
##ind
softer
warlike
Sho
183
Loss
faulty
##riages
LIBERT
##ense
Essential
##OUGH
encamp
qu
Stanley
tensive
##alt
Points
Nept
##uet
Discourse
Evangelists
began
degenerate
Mons
HER
pupil
##ains
Ä
Lawson
pit
Redemption
Unt
span
lowest
Doors
tie
natives
steady
physi
Smiles
Warning
abridged
meritorious
infallibly
fears
diminishing
08
murdered
C
heret
Harr
going
inquiring
##metry
inclination
##ibald
##ét
involves
seven
##gain
destroys
Sle
astray
Foll
indiscrim
1784
incapable
Empress
Savoy
covert
lure
titude
endured
inconsistent
supplied
Hercules
##ip
substance
fallow
magnified
##strong
dread
parish
Un
##born
conform
cale
##enomen
##arned
remnant
##ocolate
stool
citadel
clearness
lawn
##regations
idol
Dissertation
bee
1794
special
##ea
Heath
excl
JAMES
borne
##oring
rite
adapted
♍
»
terribly
Thess
partly
##iverse
Inhabits
Ba
exposure
Ten
##ennet
##VI
traditions
clasp
alled
seasonable
ark
tradition
tortur
passionate
305
Plead
ENG
dict
misapp
233
chil
ornamental
seventh
ALEX
forfe
Benefits
##abe
##rity
cong
poisoned
vitiated
Mixture
##lice
Check
##ifl
subside
##udence
ech
Cla
righteously
Ἀ
ds
Synod
testator
##ATA
Hampshire
expost
bare
frat
##quiet
circulation
manu
Ferdinand
thighs
feared
Resistance
Bohemia
settled
cou
Envy
Tol
Is
BEFORE
Brutus
accuracy
stools
republics
Tre
martyrdom
ris
sixteen
exhibited
Ŷ
Personal
##lu
##een
pliant
picked
Thought
sessions
Contr
cane
contest
Sig
whom
fanc
accur
##urrection
##ertain
smiles
Fin
##ula
pressions
abatement
nocturnal
elev
disposes
exercising
standeth
266
minerals
##uminous
figurative
Materials
##wo
private
Bu
Orators
basest
##ACTER
##agre
Truths
##yss
ARG
vomit
palt
DE
##oub
1792
Reply
Five
flock
##sters
breathes
herald
unansw
XXV
Golden
pended
##sey
Edit
##OD
India
##assion
##×
##land
HOWEVER
154
Felicity
Covet
It
Offspring
Plac
extremely
JOHN
Hatch
rushing
wrongs
213
Russians
Influ
benefactor
insur
sagacity
##Φ
##iton
reclaim
roll
SAVIOUR
253
Ex
Yield
trodu
##clus
xxiv
##inks
##licable
eleventh
violating
Chim
Glor
##ography
madman
loveth
##iff
resemble
tempt
##0
oppressed
##athy
antients
play
unconstitutional
Pure
lasts
Maintenance
Punch
remed
lie
##ethe
Sort
stifled
Stock
River
embro
##ets
Jamaica
vengeance
stinking
##ILITY
##dling
amusements
Cape
##irely
king
##steric
AN
tyrants
Cardinal
##anum
starving
belonging
shared
advance
dru
warms
communicated
##rose
clad
##neth
estim
##IO
angels
##est
GOVERN
Sav
##imore
##ichrist
pay
Confession
##ols
chastity
##e
Nymph
Loves
accomplishment
nameless
chand
plan
melody
##ORM
##ú
sorrows
##arged
##ello
triumphed
##♩
Kingdoms
dishonour
planted
prostitute
##h
ub
KN
Prel
enim
Patro
club
strengthening
vib
##ograph
nomination
tried
##ée
diag
easily
Humph
Sel
journey
mas
Tyranny
@
##ecd
##ods
##now
babe
Immortality
hiss
knight
Cruc
14th
tinue
digging
Russia
Const
echoes
hood
instr
а
tumultuous
likes
##iri
extension
Sap
vent
historical
enorm
stern
Anti
Infl
savour
sents
Trojan
Beg
sitting
Lim
disobedient
slavish
superstitious
Marian
Afric
shortest
##ysic
San
loyal
rememb
hide
##hs
dog
decayed
affirmation
truth
repeat
##erate
hunters
Ū
Rob
##arus
reflected
pencil
Pertaining
doubts
member
gull
oil
agitation
vant
Ay
LEV
Merciful
consumpt
##ictment
##full
Queens
vention
lyes
deviation
finishing
furrow
hosp
Antony
##ment
218
An
builds
##imony
LA
Ask
unme
rowed
chaos
##EX
##alogy
blasphem
Ebenezer
deal
fall
rall
manufacturers
WRITTEN
##ab
240
infring
Fair
##rels
##OGRAPH
Morality
recount
ideas
Miscell
admonished
preface
Fortunes
##ï
inhab
expend
acquainting
sepa
tread
dot
##Î
wandered
slave
##inders
unprov
Sinners
non
surd
##ESP
##USS
Ë
grieved
senseless
##usalem
jurisdiction
busy
deli
Indies
Cicero
lifted
wi
bounty
Adeline
##alth
affording
##OTT
##eron
Multip
Roch
grosser
calc
deceit
checks
Rays
del
##viii
guidance
Proverb
Belg
skim
##og
Max
ske
Saint
Moody
union
appe
protestant
SPECIFIC
elegant
Yellow
Cu
microsc
Assembly
Burr
advised
christ
treats
services
Frog
Waller
1641
Still
valor
prevails
precautions
Affirm
expressed
bewail
Prot
skies
scorn
Meditation
stone
##ituted
##em
rescued
##eld
Cod
108
mutiny
Neighbourhood
xviii
plenteous
Versailles
variously
##ews
ADVERTISEMENT
weeps
##icing
maketh
tenements
Ordained
nuptials
BEN
Mount
Lang
fleshy
principles
artific
Composition
Carp
ran
Remedies
sod
baron
##pes
underm
Ni
azure
##ny
Dece
gibb
##inant
cloath
##most
enam
knees
##‘
presbyter
Deed
link
royalty
procuring
Activity
tempest
Philosophers
ease
spoils
maintain
considerations
vault
mant
Robinson
undes
##CUL
.)—
ton
Does
Web
##ien
defer
fab
months
zeal
bust
strangely
properties
##ENCY
##UD
Dost
##rows
Ink
Consolation
getting
##itur
1745
##ned
Martyr
1751
evening
upright
tent
exert
NJ
Troops
facto
##irst
##igible
inferi
disadvantages
ay
Gh
Jan
XI
Blo
Diod
sooth
Turkish
enchant
unworth
Division
##nance
fishery
##isk
Critic
mists
assault
intimation
HOLY
season
divert
Countess
liter
Bond
ane
sultan
ca
sd
pun
fathom
allure
longed
Pens
lecture
##rational
Sale
sb
Be
##qu
Party
Whigs
remaining
Ar
criticism
Tea
Ph
ʗ
scriptural
##umpt
Princes
##cised
luck
gard
Dictates
Stay
quot
Charl
Secure
poured
desirous
Gentleman
vailed
HEL
stalks
Dionys
legs
sting
Camb
bones
unforeseen
CRO
wit
Sands
panegyric
Amen
covenants
PROLOG
offers
rela
whirlwind
continuation
rig
Benj
##pan
pulling
exec
Monsieur
heathen
alco
judiciously
Cries
tet
Cunning
surv
Memor
beans
Care
Californ
##ested
jew
straining
rightly
Pocket
##IST
##oq
miniature
loiter
Plains
QU
thigh
hairy
EUGEN
##ench
##rious
fruit
inspect
of
##iloquy
courage
regenerate
received
IS
foolishly
prec
DEAR
189
SW
Gael
##ond
##rible
games
Jord
320
tutor
ried
##rick
##ATORY
conceal
pillars
falsly
Revenue
sures
##yers
Marsh
##rifices
Teacher
million
discomp
Note
recomm
delib
Recovery
denotes
Magistrates
rial
millions
Occa
indebted
cement
importing
Wad
Excell
luxuries
##head
academ
11
Betty
rural
##wife
Understandings
Kiss
PRINCE
own
Eleph
spotless
##ounds
pag
ihould
##ision
Angle
##thia
##ANES
Comp
##aped
goodness
Leader
##road
Hist
##anged
secre
christian
painter
balance
##iqu
aet
##ke
Mankind
frequented
tect
mature
occurring
Canary
frightened
aperture
Oswald
store
Wag
##φ
melted
fait
Cran
##ANY
ropes
Aud
Eighth
##grim
indub
Hered
attentive
Jur
augment
rapacity
ELIZA
hypothesis
bending
produces
##ALM
righteous
ille
##thy
##ildren
entreaties
##like
Hospital
amazed
##illo
Prussian
Annum
##asm
retreat
Walks
Addison
##AMIN
heavi
intellect
settlement
285
chemical
Danish
CC
def
RED
Venus
##RIC
##iveness
nou
al
defending
Cross
trip
Al
##assadors
be
appendages
hymns
Chinese
undo
bund
consum
Prod
withdrew
washing
331
##ceive
Reform
Possessions
keying
Excuse
ben
##upon
seasons
##eton
preten
turp
##ound
CAL
delicate
dismissed
raptures
##ederal
envied
sky
syn
perly
imperfect
Hay
DELIVER
Agg
probability
lucid
##ashed
describes
counties
occurrence
swiftly
Swe
inequality
induced
iu
WITH
Aj
##ISS
Robes
78
Dishon
speedy
receipts
fun
Maced
reformation
##night
Gem
Mat
##erve
plaister
smoke
precl
groom
Enthusiasm
mighty
##emperance
reform
wreaths
exhausted
rings
gladly
##oseph
##othes
correct
##pell
Corrupt
ep
Cor
thoughtful
##ON
Wel
##vis
exten
Pulpit
sioned
Managers
crimson
overlook
quen
##aining
pledge
antiqu
Seeing
Marquess
1761
dedication
dissolves
yee
Cass
Coun
pronounced
Foes
##PER
administration
PER
adjust
uncommon
catastrophe
formed
−
sabbath
immod
##entious
annual
stipulation
tenants
VIRT
tedious
SAMUEL
##itz
officers
cations
enterprizes
severally
##otto
##ÿ
wrestle
entertaining
dant
expences
lo
Persons
hate
counter
shadowy
glare
grasp
##ilful
214
healing
##phew
poem
bridges
laughing
##ick
silent
conducting
lace
##IOUS
Rivers
Mayor
##lemency
discourage
therefore
limited
slain
haviour
penny
grandeur
##uits
rations
##ructure
Off
Portion
hed
meads
knaves
spirituous
Designs
pure
hospitals
criterion
Hab
poorly
alternately
##here
intellectual
clamour
Ge
ag
Owners
griev
on
hard
park
calumny
##ennial
ction
##isf
Defect
LXXX
##orrows
composed
stamped
Prop
fancied
Ens
wouldst
Chald
await
commander
charac
effusion
Sard
wher
secures
hideous
Sum
deplor
blowing
apert
Torrent
##endous
##nies
preposterous
blissful
excel
Newsbank
spires
justi
besie
Silver
##immer
Judgments
ingra
interview
X
ti
companions
##pelled
jelly
Inflammation
bailiff
declaration
masts
allied
contemplation
Morals
Inches
Ordinance
sources
##bl
##iola
##asper
persuade
hazard
Hyd
Barbary
regener
##ean
humours
savage
mistake
Wells
breadth
shudder
Timothy
bundle
zealously
Debate
flexible
Sax
teeth
231
figur
Λ
fragment
beh
human
Practical
##ge
valve
expressly
Carn
temptations
Frenchman
inflicted
mr
Celt
Deputy
Arms
##urbed
chant
Y
ł
blindness
lessen
prox
meets
wretches
Pup
sigh
##imil
Saxons
RU
##dict
Sultan
immortality
##†
neatness
##UMENT
##ox
disperse
Wallace
tinction
##ITY
peers
Reign
Tu
apparel
##onson
##berg
indef
saf
hereditary
impol
##ates
waits
conveniency
honours
:)
eggs
Prohib
scarcity
acquies
##LIN
##pr
scarlet
imperf
##ui
justly
enlighten
coach
obliging
##aters
territories
ened
MIN
vegetable
inge
Whate
noisy
draught
strang
tainty
Beauties
paces
society
implied
Relig
TEN
amidst
##UB
clamours
proposition
suck
blush
power
disciplined
congenial
verdict
MISS
abolished
##aga
charitable
persecutions
enough
derful
gr
agreeing
diffe
##PT
##iser
ples
304
Zounds
Rat
cant
tified
calmly
mong
cite
##gn
diabolical
gisl
lite
Beaumont
Subt
##fted
guide
Eloquence
##acrity
mending
goeth
Climate
tones
casual
commission
debated
worketh
Feel
courses
concessions
Trave
inaccess
mystic
concur
sullen
Damascus
Lucy
##MA
tous
##ione
emergency
scanty
reap
##itage
proportions
Pan
Ever
range
eu
Miles
##gre
Wol
At
##ituting
demol
eastern
Tribe
elo
am
##eek
seduced
awhile
pitch
##Π
Mirac
later
hostile
1755
flush
Shil
spiri
##lemen
OFF
Si
##rones
performers
##istr
confessed
sickness
Natur
frames
Clerks
306
Kindred
perempt
Samuel
##rifice
conceals
##ans
Scar
reverence
pile
Apostolical
representatives
chap
[UNK]
Pel
glow
##lia
Blessings
Mc
115
sa
willingness
palliate
Mini
incessant
##eel
Ration
one
Westward
approve
blushes
Pennant
Beasts
stages
spectacle
hr
taken
legislator
##hat
##iley
melt
##urd
##uding
During
befel
##erne
INTR
insatiable
spontaneous
obscured
Infinite
##utions
Seek
pointing
lonies
Extract
road
Pere
##zes
enjoins
exasperated
#
interred
Flem
Scotch
caves
unprejud
diocese
##vet
Tub
##ourt
vity
Fool
groan
suae
Fury
Husbandry
Armen
deduction
1500
Hebrew
minde
̇
understandings
SK
ubi
Hosts
salaries
bold
##ifieth
monk
canoe
diversions
exported
DIAL
concealed
Af
tured
##RED
##ng
alluded
##inguished
conject
cloak
ofthe
hol
##room
preferment
starve
eleven
patent
explain
gleam
confirmation
stored
surprizing
bill
heaviest
Creek
Episcop
quently
increas
Fen
cull
Humane
CHARL
prem
##licity
darted
mov
##DR
Infirm
transgression
Difficulties
##AMES
childhood
130
Spaniards
repug
trespasses
Testimony
Ost
rattling
±
crucifix
Acres
Voice
Remedy
liable
☋
critic
pardoned
Habits
##CC
##isms
implac
resp
Assemblies
226
hindered
accession
spinning
Folly
contrad
inscription
wave
Pestil
Assurance
##OOL
potent
tro
extracts
unsp
Ʒ
##atile
journal
Ȧ
Philosopher
unimp
assassins
dross
Wretches
push
vehemently
Lines
Sedition
Counsell
07
pug
neque
struck
firing
antip
pron
CAESAR
displaying
graph
despairing
conve
Chambers
Every
scatter
##shed
descendants
1781
ventured
iv
concession
sprang
missed
miser
INTRODUCTION
inclosure
outward
strength
##ests
posts
spice
contrive
lities
Cotton
Deputies
Aubert
prayer
undergo
now
sewed
arriv
astringent
disple
Constantin
contagious
embar
laud
servations
wel
1693
Adj
Thousand
unalter
Angel
dreams
understanding
Tale
face
##ngth
Ghost
Ter
Howe
gers
acquainted
remarkably
lever
eld
tout
Colloq
CONN
##ugg
Battle
CAPT
Clifton
fet
Bride
##rown
##ject
will
tenement
Colours
farewel
iii
assaulted
##len
supra
##ressed
Chur
Fellow
##iast
deliberation
Parish
##olv
eagerly
fulfill
proprietors
##otten
Throat
Arts
Daughter
ERRAT
mall
siness
every
Riding
prevailed
##di
Sport
Augustus
upb
epoch
inculc
promising
♂
rej
Debts
forsook
Passions
incont
Isabella
undist
twen
bour
Lind
apprent
Led
##rop
concurrence
Juan
Multitudes
damsel
Leave
differences
plea
Thirty
confinement
interrog
mani
##oud
TOR
dive
lig
##usc
Comm
Hippocrates
##ieur
nursing
##ecture
Current
##isive
##it
rive
decisive
worms
Vision
Country
way
ù
##wright
censure
Declaration
Norway
thumb
ramp
Annual
cords
pri
prosec
Portugal
Ware
Interp
Roof
preserved
Inheritance
##ened
##icans
chearful
Doctrine
voracious
Hemp
Respects
sisted
cular
apprised
sanguine
352
℘
overtaken
professions
Actors
##actors
owing
losing
Roots
snow
Farn
prom
##orable
Mood
##ieve
ons
Þ
nobler
Proph
notes
##frid
fill
Strand
##ocity
ado
Wat
Accusation
acceptance
dashing
##illery
inact
discovering
peo
##od
neigh
Folks
lambs
PA
inability
certific
throughout
Rational
Warfare
observe
rail
bows
ensure
remove
##ivable
purging
clergy
##DREN
lamps
Weapons
##liest
289
##pecting
tavern
##rant
rasc
display
anointed
Kill
rd
mead
Anno
##oney
altar
pap
##oda
##aract
Gout
prithee
yn
cerned
improved
##imo
Saw
ʃ
consequently
up
continue
sland
consp
clude
flowed
apply
cens
Herm
forests
##ane
reality
##ashions
XX
Ther
Ü
unbelieving
viol
CIT
alms
Plin
inexha
sug
140
governed
Conversation
Thou
True
purges
Dominion
repaid
spreading
Fine
hands
circum
and
HORACE
pe
5
treasury
citi
tha
##en
##inson
Rock
##weed
##ct
JE
startled
##ignity
verb
unrel
revealed
Anguish
associate
ascending
Sic
leaping
fur
ima
dur
cerem
endeavoured
resembling
Cynthia
Fellowship
fifth
alters
##lag
Chel
Hier
Hardships
oppress
RET
stale
cli
Burgund
Collections
##ameless
Bloom
Independent
Bland
##less
pinn
dism
mask
##BY
brethren
ron
Booksell
.'—
Cf
Countrey
tour
Je
Penny
doubly
inclines
##ube
xv
eject
shock
##ian
Earth
##ual
##▪
inan
Eug
Fit
bald
sphere
small
EL
bra
wasted
APPENDIX
wherein
##parable
Impost
Stone
rubbish
meanest
?—
Historical
Sodom
Opinions
wounds
left
hen
vales
insignificant
Hutchinson
Learned
AEL
slumber
##atically
kept
sanctify
hunger
pite
proposal
communicate
Saturn
##sides
disturbance
hours
breathless
Interest
unce
##1
Philosoph
fre
engage
inexcus
##ishness
turally
civilization
ANDREW
militia
Count
##−
##S
Dublin
doubled
Complainant
Leonard
sloping
Winthrop
wipe
Ezek
##kew
Vineyard
deputed
R
Lud
##aline
lighted
##agne
Brain
Surety
pudding
withstood
Delph
Field
Lacedaemon
remembrance
##cu
Am
Sworn
mained
avenging
readily
generals
suffering
dig
##elihood
spire
Mechan
quoth
Hispan
##ode
dar
whenever
actions
Endeavours
wal
sss
Sloop
feats
One
intents
purchaser
fevers
blow
##bed
inval
bubb
##ashing
Fran
manag
Sear
##ILDA
omnia
crowd
##orce
##ounding
signified
wash
loses
Clem
Suffer
##edral
##enth
chains
nobleman
ordination
Duties
##ountain
##ifix
MAY
write
♩
mail
slaves
gos
##ifick
Flood
##oration
shut
hereof
gates
Amelia
Suec
quell
##keep
Arabella
worm
Motion
##gging
Ñ
structure
decorated
##itle
Chrysostom
Frederick
amend
selfishness
ago
307
added
Supply
unconstitution
pounded
lass
odor
##gle
Has
Inn
Necess
Neck
##oper
population
##etic
tooth
Butt
marriages
deavoured
prowess
knocked
##®
hoarse
guar
dominion
tisfaction
separating
Bo
Bloody
Chem
esteemed
Murder
Grammar
propagation
beforehand
ENGLISH
##eur
Madness
comm
í
Persia
municip
reserving
peruse
tub
undisturbed
Africans
mercenary
elevated
beams
coats
Descend
patriots
smaller
##aut
Snow
flux
whomsoever
##uty
unse
On
unity
Territory
Specific
Element
1788
tution
forest
positions
##mar
moves
Passage
Article
refreshed
bun
split
never
Mills
earnestness
farms
Nero
Vincent
##ences
Tories
observance
##orated
pending
thinly
Athens
Chick
##erton
Inh
##ASH
addressing
##CE
adhere
Sky
forfeited
Piety
Dial
##ated
inven
pink
!.
LAW
bloody
terp
shoals
HIGH
insip
Guilt
welfare
SCH
progressive
##arn
hoard
Pier
##COUR
##gom
unchange
##he
##osities
Temple
reserve
Senate
1721
observes
Ru
Contrary
Distemper
recalled
Simon
observable
foes
skins
##ori
declin
Faculty
recital
villages
157
110
Affront
minister
##rad
yawn
##inently
class
dei
uni
Marc
Answers
magazines
##odied
dagger
Hannah
##etor
aiding
##ouded
##azines
therefor
Bees
##face
Messengers
degraded
unre
curb
deco
cob
Europe
conjectures
nu
sua
##mpt
Omnipotence
grandm
duties
Smo
shame
VEN
Additions
Dar
persevere
willingly
ministers
##agement
Exercise
bills
##body
polity
Cab
Á
Rest
beau
DEATH
obedi
Conception
reed
prayed
heaps
COMMON
refers
caterpill
Ephesus
maintaining
assert
erect
Diss
simplicity
hastily
lamp
##ḡ
awak
Creditor
##ably
hyp
Accidents
predecessors
appropri
governors
clearly
abate
Ili
corporeal
bert
##ague
tude
Error
infantry
##tshire
concludes
##IGN
167
For
tory
##idious
Mercy
##CASTLE
##athed
Civ
Tartary
rectly
organized
etc
unfold
contrib
Experience
Commissioners
Wheel
humanity
##penters
eruptions
##ciation
Drama
fami
candle
Citiz
march
Commissions
restrictions
obsequious
##ortation
crowns
familiar
Political
Uns
unequ
models
infallible
orna
##apers
fects
SHAKESPEAR
Nant
Pruss
Sidney
generality
Eagle
heroic
rent
Circuit
##ā
Forces
conduc
presuming
Arbuthnot
vary
Queen
Cary
ever
Proper
Agam
half
extirp
##As
⟩
rejection
actor
whil
##LET
Zo
Ministers
##for
dragged
university
Tune
unlimited
boil
Chancery
Adopt
ROYAL
vul
Hel
Profits
Turb
Mea
Regiment
native
purchases
slow
ight
yo
General
resolutions
##ELIA
minor
consul
privil
hints
penitence
profess
Pyr
endea
Arab
fade
theatrical
Cs
ardu
captivated
1790
##umst
perform
lod
mut
##ilton
seed
marshy
endued
##IB
convinces
Unless
zens
agriculture
riod
favorable
Massachusetts
mony
Cey
pale
##ungs
Cheese
arteries
##stant
##ted
Robertson
SCOT
agreeably
##rice
(.
duke
cautions
##akes
cise
deformity
ou
##IVERS
01
##eward
Litur
abo
clare
Rebels
Eff
voy
sent
preacher
##A
##z
Fines
villainy
frighted
Ahab
fences
soar
detachment
carved
hospit
Seventy
##engers
##stood
brav
staying
##ort
##iences
Way
limpid
meal
nies
Ameri
govern
seconded
submitting
mightily
unfin
##lain
Jakobson
##aque
##ando
indel
jected
##onian
HERE
Persuasion
wither
enc
reward
berries
withd
catech
maj
test
##furd
predest
Provi
stiled
Grains
Lawful
sleep
tuous
##ioners
##ati
grapes
monop
Near
circulated
pipe
dim
Wilkins
Shar
pays
detached
downright
opium
FAIR
obvious
prob
repulsed
Thel
effecting
incap
Faculties
This
exceedingly
Humanity
Family
animates
produce
lew
rid
Chapters
##LI
ke
everlasting
constituents
Err
deleg
section
without
aris
Aye
Sall
##abb
parti
##ienable
dispositions
##omb
Ful
Jersey
g
accusers
indicted
L
preci
intermixed
asper
Patient
Fish
##LY
##OSE
eager
OB
Insin
##ener
Keep
##ICATION
##cond
Livy
##apes
=
Visions
##um
Block
teaches
primary
armed
elephant
Drops
##is
Reader
shou
frank
##fred
OX
princi
Analogy
brevity
HARLOW
##ENA
frailty
Rochester
horrors
penitent
est
4
##ization
brings
crib
lye
##outing
##itative
seal
forgery
Luck
##ARCH
inad
talked
##chie
qualify
"'
Ó
encouraged
destroy
vene
workmanship
elucid
##ulture
##udently
Hands
add
##ruc
##ODY
confirming
radical
Tick
##ific
Scotia
fish
Fresh
Reed
Wight
revolving
##enn
##ching
Fishery
Reference
making
inviolable
clergymen
SUCH
Percy
Community
Christi
delayed
Bankrupt
Mul
##sh
145
,'
Rage
sects
recall
–
utterance
Equal
stain
spiritually
pip
Salm
##uance
Miss
episcop
",
##mosph
cal
Caroline
Counter
griefs
clime
Circulation
Charlot
erred
31st
106
##ive
WAL
Fasting
Excl
365
torture
hall
chosen
Majesties
discourse
churches
baptize
##othecary
Stroke
seventy
magistrate
##Æ
sentment
translated
##oid
FIR
profitable
Deal
induce
camph
palate
Darius
##AMP
atonement
apartment
Dav
##ib
Nam
##inn
personages
##encing
z
falling
##nf
Sou
##ULUS
##ks
East
stocks
organization
Devils
paths
Ancest
Gs
measure
1676
letting
Singing
Tenements
Questions
variable
dense
OBS
inches
dresses
luxury
fou
abruptly
desper
##ermost
struggling
##lanted
unfor
terrific
##UGH
##bus
turnips
Together
##û
marrying
Restr
##êbe
plete
solute
at
Qualification
participate
Race
innocently
Gr
subtil
Trib
##uted
boldly
Bladder
##ensible
Fow
##IRE
devour
Surpr
teem
seems
REP
respons
Coleridge
intending
WAR
elbow
themselves
Congregations
receiveth
examin
ports
taxation
restless
Criticks
critics
##bre
serene
presides
##bet
Message
##inder
##dy
edited
##alo
WAS
pretext
stim
seeks
junction
recompence
fleeting
##reams
##ilius
November
WHY
anno
fury
deserving
sentenced
doubted
instant
beech
Amer
aukward
##inions
swall
Given
fling
buff
timents
Bills
signifie
Lawrence
Mediterranean
##nam
Milk
whims
Original
##ó
Provided
Structure
abb
ruins
praised
##id
oxen
Expectations
Iews
Tobacco
2dly
Celestial
flatt
Patri
saints
piqu
^
neutral
Reach
##INUS
##nected
purple
##ID
Wits
Spect
adherents
##han
##osom
starts
indignation
bast
pours
Train
Papists
subservient
Sour
Quarters
Chief
##aria
##usbands
Wednesday
Plagues
##itatem
sought
##eterm
##kerchief
Unto
solicited
thoie
chin
palace
inf
diamet
interior
##ics
teacheth
##amaica
##olia
Forts
pl
republic
payment
##antages
Covent
mod
bag
remorse
##irit
evangelical
salt
op
deem
##ens
wherever
Frame
##uates
fields
Surgeon
##lical
Ard
extinguish
violate
Gracious
priests
Gri
Univers
##phus
melancholy
possession
Several
##itio
dishes
##asons
cate
retire
Barth
##ULL
0
Band
arguments
Hypocrite
ravaged
##iac
ceased
arc
EG
vowed
clap
weary
care
cataract
District
##YL
Page
feed
##dock
currents
emph
##ought
##erved
272
Chapel
monies
emol
Obedient
calamities
Looking
Slaughter
##enty
Religion
surest
opened
##aceous
detach
Satire
##enna
##quently
stuff
unlaw
##lands
recent
pic
powder
fell
ror
Boling
##ATT
absurd
##ined
É
##castle
packet
##iffe
efficacy
Readers
Purch
Exh
plung
furious
Antenn
##strich
confesses
music
Ts
Councils
##bit
Journal
attentively
extravagance
inconveniencies
##con
Seasons
Loc
defeats
Decl
pointment
$
Sunder
sympathy
hesitated
foam
##aulted
seest
bap
161
convention
##oo
thermometer
mien
pleasantly
ensue
unman
##aundice
Hath
evils
muses
captives
sheds
orator
denial
history
hind
affright
sports
##SHIP
##armed
Yon
1730
##ader
mote
##aux
Neville
begg
Mart
Yo
anecd
ban
uncor
4thly
tough
##ervis
portions
sumption
sincerely
Barbarian
Gra
nom
implicitly
uttermost
Ea
74
AUG
Philipp
##ER
parliaments
admir
Aurung
Supper
glor
nicely
Ways
##inue
counsell
gardens
begu
impe
unruly
Pilate
##ZO
wrong
Lyon
inoffensive
Description
serve
Dover
richness
abundance
Johnson
rectify
Lastly
Draw
Stir
reader
sticking
##itions
bute
Thieves
conduct
representations
Husbands
MIL
honourable
langu
quenched
oily
Jen
cloathing
Lamp
Gi
resound
freedom
Condemn
Ecc
ointment
##ALTH
complais
Traders
Nar
##uled
Connect
overp
out
thirds
##olis
reviving
##port
Methinks
##race
worthless
cures
245
Sed
mot
Johann
depended
cocoa
obsequ
##edy
sen
♥
aunt
sufficiency
Britann
perfidy
Manufact
YE
impair
##ERS
loud
##mentioned
ω
sudden
1742
examples
Greece
Complaints
##hum
##inand
##hood
Consider
unus
LAST
pitched
unites
ast
##CL
##ocles
##ensation
reported
linen
243
##ATIONS
Apprehension
##econ
observed
Joys
composure
Mine
Carlisle
injurious
Lectures
##gent
Declar
sequ
##ech
protested
Reputation
Enc
pointed
mysteries
compel
XVIII
Make
Steph
Distance
lay
averse
voured
aven
overfl
convuls
Wilkes
Ceremony
Fortitude
Sighs
dislike
mould
##ovel
203
Animal
confiscated
effectually
shone
phant
##ITTLE
cried
mates
sx
##cep
##lesh
##ighb
undue
undertaking
dec
appellation
expand
compounds
imploring
converting
decided
declined
succeeded
clothing
Pine
deed
##ISA
dance
once
Minutes
shire
exalt
generously
##mi
unlikely
obliges
Martial
Supreme
viscount
adequate
LIBERTY
presses
##avian
subter
Mead
Coc
Repub
po
gence
rapture
cident
##ommun
Fro
plication
analog
prompts
flatter
fluctuating
Mall
delirium
rudely
procl
first
Decrees
Ye
Past
Dark
embold
Swift
kid
##orious
tran
squadron
rock
farce
spoiled
Wo
##′
##irms
lighter
accu
President
graceless
Ref
Dru
dedicated
##FORE
stamp
##ubble
##..
sary
respectively
##angs
##abit
##aus
perceiving
##roph
bling
drunken
Convert
##Ṗ
MDCCL
blunder
fain
134
Testimonies
Glorious
Lovely
sov
Apoc
extant
ordering
blest
##ki
DEM
Mothers
walking
condescension
particularly
horizon
recru
Hipp
Chal
SPIRIT
his
Metre
##ie
##IGH
##X
##rol
Entrance
bear
Ossian
qualification
demned
two
plumage
ê
mel
Sugg
miles
##pence
authorised
hast
asunder
##cott
Pal
Alth
behaviour
snows
##aca
shot
fo
trap
insensibly
profession
##abled
##erous
phys
blended
Ow
##itors
carriage
##ges
exulting
library
beautifully
Ogle
lawyer
either
4th
independent
duly
ident
tween
afford
##ders
sincere
Vom
Dram
Warnings
Chenn
##ethinks
Esq
Proof
##chan
Ul
Efficacy
Adoption
##ances
slide
OV
glee
address
##upt
##omel
virt
traders
una
heal
PREF
Parliament
contriving
∷
button
ratt
##earied
interpret
guage
simply
##igs
cyl
desolation
rious
sys
thi
resemb
,—
brand
pretences
character
log
paying
existence
Mathem
Misf
Two
views
minds
canvas
Winchester
permitting
expl
What
Herein
unru
lating
Gon
genteel
Generous
Epist
296
Tooth
Sovere
prevented
Beginning
boxes
Hence
##ourse
tables
Argu
Baltimore
Lyc
abusive
166
HA
ledged
Levit
leader
##ac
Impot
ing
valiant
inoculated
choir
severity
Shaft
Pagan
##ags
literature
##itiously
depreciate
respecting
rily
success
COUNT
lake
Toleration
prose
sugg
herein
credited
orators
##iz
jewels
##ONYM
##venant
ravage
emotion
##osa
*
Sacrifice
##•
fea
Very
effusions
shel
flowery
frequent
Cell
cert
ener
Gle
hoary
inconce
Cure
Falls
US
suspect
animosities
Inflamm
diction
opp
Carth
ART
concealment
misconduct
open
morsel
remit
##lock
##ston
oe
Houfe
##d
execrable
fits
justification
##atigable
western
menaces
applicable
fraternity
flower
##â
##onel
310
Gage
`,
Pec
their
##empts
Highness
rection
threatens
Prec
tinge
quin
imagining
Extra
.—'
1
dat
##irl
Horr
disposing
valleys
connecting
NOW
honors
usury
Efforts
##itten
##orter
Main
refinement
wings
##olds
##its
Arist
Apprehensions
Removal
##eeks
##ico
baptised
cont
fect
stagger
50
slavery
Thirdly
Affairs
Thy
Bring
Phrase
mansions
web
score
Oeconomy
fitness
Vomiting
Murderer
##atoes
jects
Mens
trial
impartially
delineated
Normandy
cs
irrit
YEAR
thri
##enters
##min
signifying
unthinking
thereafter
securely
champion
Inquiry
Wake
Siber
feet
ordered
laws
Carr
##kin
event
invisible
mills
introduc
Prisoner
Hooker
y
prin
drud
Assigns
sloth
carc
Abilities
Trent
scrupled
sailed
PAL
GENT
##ivided
Succ
circumstan
precise
##ALA
##TERS
Extrav
there
law
healed
lieve
Natural
vult
Stories
peculiarly
versation
Duc
Lob
##aint
epithets
Ibid
bourhood
suppli
##grims
##ité
ami
##ainder
abstract
farm
discoursing
THREE
conferred
INDEPEND
Benedict
encouraging
##¦
disarm
##eng
collar
natur
skirts
annuity
boister
164
lamentations
tus
boats
∼
Treachery
##INN
dil
Fell
Balt
Conformity
ously
##empl
longer
reconciled
Impressions
66
##enses
circulating
##over
##ALD
##ampton
su
Nether
Visible
##ersion
Pamphlet
##kens
herds
headed
tribes
pression
##c
remedies
kick
##CRIB
hath
,-
Bav
hon
pp
##oming
unbelievers
Loyalty
fugitive
somewhat
take
Chatham
##volent
DIST
procur
crops
heavy
restrain
prepar
MAD
Ail
affairs
9902
Promises
Beneath
##usa
unch
##“
Paul
thankfully
heedless
1738
aristocracy
colours
sadly
gentleman
infidels
bring
iron
##–
disquiet
bed
Apple
##vil
cotemp
ascertained
convulsions
##oos
shocked
cuck
script
##tico
Choice
Hospit
conn
mathematical
darts
Portsmouth
cabinet
So
tyrant
indiffer
##rin
Om
Musco
DEF
responsible
necessary
##aned
atque
dogs
military
Utrecht
COUN
framed
Mel
101
##odic
THAT
satis
Bost
##lica
contraction
astonishment
##ings
Injury
Little
metaphor
dazzling
tally
bef
insupportable
obtains
actuated
##urisdiction
christianity
excell
tick
Livingston
TWO
prolific
praef
ende
##ement
Perfect
TRUE
Employments
Cate
contempt
deb
##utches
##ML
hill
Moh
discouraged
fif
##lf
pleas
acquired
Se
##cers
Comfort
##ril
swam
narrowly
##racy
unl
launch
cups
##anqu
Barthol
Attendants
mands
##via
Illum
Seats
stedfastly
Owen
ALMORAN
##stru
lord
unsus
las
diss
9
advises
insinuated
##cod
##ō
PHILIP
turbulent
conclusion
Examples
Thinking
sing
defect
##attel
writers
artificial
attending
feathered
debts
creditors
selling
furnishes
ceeds
elegance
Orphan
harbours
alliances
Trade
1782
mised
ŷ
passionately
zen
diminishes
oval
chaise
cork
##field
plaintiff
Prince
excursion
industry
##iece
Whe
##osi
Lew
breaking
##jected
decomp
Lucan
judgment
Amid
cleansing
Geol
##‖
Gover
inevitable
den
##ISSA
volume
retain
dropsy
Prote
##av
misfor
maternal
honey
Tide
Perfections
tongue
lone
inev
ship
perceptions
##rection
lasting
transverse
##ather
priviledge
Price
meats
impulse
Jenny
LAD
associated
besought
pleading
economy
##lord
trespass
remedy
softened
##ippen
Jackson
Carm
bad
Spouse
##cedent
purch
submits
amiss
fellow
eve
forgets
##ages
shelter
1726
wy
Opium
Cot
Squ
bower
guards
Finally
216
brightest
nas
##man
CAP
juice
##maid
between
rout
Assigned
Campbell
reli
revere
Quakers
devolved
restrains
##OR
inimitable
reduction
amended
Tang
##cius
perfected
brated
☧
boldness
conversed
##blems
agt
##ima
##lexion
##ella
accus
fines
min
peril
##erto
REM
ilk
Lea
Sheridan
##ide
scandal
Merchant
chan
buck
tend
barb
Darts
Phoen
Vil
hears
##erson
cylinder
##otting
##aple
adviseable
expended
degrading
furs
weak
veteran
subject
uf
Sau
##bury
affect
##ween
inoc
sibi
abhorrence
Coal
Hack
Beyond
Riv
locked
exhorting
interfere
Compl
dying
##ior
happiest
unfaithful
Smoke
cloathed
enterpr
imminent
indispensible
##ulph
soils
CD
calleth
liberally
Sons
save
##do
Mate
answered
Qualifications
Disg
unjustifiable
TRI
gan
irres
Damon
sufferers
inland
##ensities
pelled
κ
infinitely
anarchy
Popery
ς
shore
##esse
54
##auch
sever
Motte
Thur
xix
Arcad
Sect
##ETT
Wilson
litt
##wood
describing
Charge
Ga
breezes
Felix
##ture
disconc
229
##zzar
Favours
devastation
incomprehensible
foreign
vanquished
Che
scor
Flint
Persu
surrection
[MASK]
Consequ
attire
unsuit
murdering
walks
attend
gravity
infamy
Attend
##YN
cold
Myth
HAND
yester
expired
##gment
Ruff
Infants
repast
grants
##ressing
grossest
cod
Syria
bene
1739
must
footed
Ars
abhorred
COM
vomiting
veil
stoop
209
flutter
ducted
unobs
excusable
wench
Application
forgot
tic
##velation
Ç
Expences
vindicate
farewell
putrefaction
preliminary
sh
inno
barren
enfee
salva
##sp
800
enter
Sides
##urse
acquire
delegated
Niece
##ications
or
##ough
Posterity
goes
##nce
Advoc
##row
Stry
BRIT
Vent
Watson
arguing
frontiers
judge
oft
suing
Guise
Reward
##icles
pains
Wonderful
ornament
Lux
##TO
Endeavour
alienated
mittee
XXX
assignment
recoll
spin
##ows
frail
##iop
Encouragement
##olve
verbal
manity
roam
pox
Plat
##cn
individ
Mile
##ital
##sett
Jam
Buildings
fond
##Y
traces
doctor
statesmen
Arise
complac
dili
breeding
wish
exempl
FRIEND
##ordered
Baal
evange
ravished
thorns
fog
staid
sy
consolation
Inoculation
hin
Forbear
commencement
224
Bet
##ba
pac
##led
course
frankly
concern
except
##ck
contended
LU
Prom
enamoured
Pen
ardent
victim
##upp
xvii
sull
exerts
Quad
inverted
tendered
tho
deduct
conversant
Harris
##licated
procure
Caes
Pi
sand
uncharitable
shield
Poison
Sell
Fancy
destructive
receiver
##am
chimerical
Received
knot
##ason
MUR
despise
sounding
quickly
fame
##CA
Hug
graceful
played
spir
Pon
Agents
proposed
explanation
consuls
officious
Bour
depravity
lose
qui
Ret
occurs
Noon
stand
##ofed
##istic
##op
##owers
partizans
##ensive
Porter
sem
subsisted
tempting
scribes
Fast
Flames
boundless
garrisons
ment
Fashion
##undance
aids
escape
comprehensive
PSAL
rog
Enl
BUT
ding
##iih
desperate
Meet
##rah
Ae
##gans
branch
##arent
temperance
overr
hoping
Rab
##regular
##ITTEN
ż
fores
tops
introduction
hid
strife
##yr
smelling
unri
Sinner
##gedy
emetic
Vap
interests
fret
deprived
Crom
[PAD]
Foe
##ushing
##ient
prise
repair
].
##rants
wondering
safety
Caleb
commendation
rica
rendering
resentment
mind
duct
Anth
horiz
hush
proportionably
χ
Julius
banks
CHAR
##empted
mals
phrases
Osm
pray
corruption
ang
quits
##isa
righteousness
Images
Doct
unalterable
Aunt
Ep
Griefs
barrier
obtr
confused
Ros
Extrem
convenient
294
inde
scan
Stuff
Small
pierced
Coach
##alified
incapacity
Beast
XL
protracted
Quick
Shou
Speak
fated
landing
Toby
Having
propagating
proclaims
insinuating
scruples
##olus
Pol
quences
Kirk
specially
avec
Teachers
Citizen
Room
Dudley
weeds
Fan
cultivating
verted
##uce
##zzle
dubious
##lane
ale
Villars
negative
greet
unhe
windings
##pper
Saved
##ei
chair
##cket
crossing
Canons
##ckets
consistently
divinity
Unregenerate
states
124
derable
grant
acrimony
##ulous
approving
CARL
63
accepted
##iend
Bartlett
70
##ě
Charges
##APH
,)
ghosts
accom
Wounds
arrow
##isque
Oliver
##tering
temperature
coun
HALL
colleges
blood
ordinary
×
exclaimed
##RAT
##aud
##umps
reared
Bib
Distresses
mad
##wick
evacuations
##ence
1797
arise
##asts
blossoms
viewed
match
conveyance
OE
Tyrant
deceiving
Impart
trusts
eth
rash
##utably
friendly
bridegroom
##ues
slices
##assus
71
it
12th
dents
##adder
104
rouse
chained
blossom
mutt
plaints
Difference
counteract
soothe
##mber
Female
diverse
progress
slighted
arsen
##pool
##actory
Confess
Expectation
entrusted
##ung
cel
Southampton
##ano
Thompson
faithfully
philosophy
Hervey
brains
VOL
lub
adorable
very
Speech
annexed
ers
many
sund
Observ
Mech
coded
towards
##urday
oper
##rist
ANOTHER
Preparation
Fishes
##ors
the
##aying
##im
stitution
##vation
Home
Beauty
vain
Within
ure
Clementina
reciproc
autumn
earthquakes
unfeigned
obl
nce
win
6th
##GH
guments
##ction
Minute
bigot
surrounded
Papers
invested
Net
penit
severest
fights
declamation
Lower
Ounces
bacon
##leep
indefatigable
Degrees
##osoph
aimed
Anthony
survived
##asphem
Pert
Gall
lice
##bat
variance
bor
Ease
##8
##iste
tarry
deception
threatened
##GR
compens
showers
neration
colder
chamber
penal
lifting
innovation
BOS
Nec
##chus
diathesis
##elt
opposite
advise
honorable
##ifies
Wm
##ciple
fifty
Dollars
proposes
enriched
Sod
oblige
Chosen
fourteenth
Clark
hesitation
Win
##eral
ὰ
Ent
overcom
Recorder
wrap
eleph
solve
##itto
Shakespeare
DOD
##”
antiquity
##cience
Sal
##ging
Institution
mal
##toms
manure
expedient
##aird
WILLIAM
##asph
tides
##ub
Nov
indigent
##verbs
—,
Rib
Mines
##abas
##ghter
220
Section
expressing
##rites
##acle
Contract
Premises
bail
##ustri
difficulty
mid
conce
Trees
Scepter
hus
batt
À
nimble
constancy
Proofs
Probably
Strangers
statement
Dart
cer
certificates
unwelcome
effec
ion
inconsiderate
Μ
Recover
Her
1678
coachman
disagree
prev
malign
##ulant
ori
Rid
DOU
##ortunity
Kingdome
Hand
gument
Wherefore
ousness
kindle
Love
nar
determinate
System
embassy
villains
authority
##ertion
Gazette
Mot
Dau
Q
asleep
speed
--
br
Virgins
seldom
enormities
Ai
##ave
Py
Public
Ce
brick
##iness
Acknowled
conv
##ase
Him
Devonshire
Rowe
Α
unluckily
insufficient
Abstract
Woodward
flex
##cepter
wasting
EAR
##bear
##othecaries
##isfied
##ured
Usurp
objected
##ondam
Foster
##atics
lives
ADVERTIS
Children
advancing
exhorts
Must
glowing
machine
##sl
Goods
##burg
alway
co
outl
Discourses
counsels
mechanics
Barley
GRE
amongst
sufferer
##cian
##liction
orch
reasonings
Association
bos
sells
##lay
confining
letter
parliamentary
relapse
Sem
conside
##otions
##ta
vulgar
calculated
##AY
Absence
vinced
massy
##itation
ė
fortune
seas
concerning
European
mat
float
carpet
casions
presby
Cic
Pam
##onstr
holl
##archs
thoroughly
Cannon
Whereas
Build
question
tints
ü
mirth
cl
consol
Greenwich
Denomination
Ambassadors
BES
AUTHOR
fram
perverse
irritability
nei
sequences
conqueror
Languages
##erver
loves
lutely
impend
permission
image
render
##ess
rebels
captain
Greater
expres
GENERAL
dun
requesting
discount
##uth
resol
##QUE
exasper
tains
glorified
Ignor
Slave
##♥
87
bayon
dro
##ately
imaginary
Sand
Rent
Dr
##hen
Ú
Mid
pockets
leaving
validity
##atical
all
Leaf
austere
BELL
discuss
##atu
perception
##uts
Also
beneficent
Ju
Bark
##omin
giveth
Sacraments
Rough
PROPOS
tenant
children
plain
##isy
mention
enquiry
benefits
sang
Danes
LORD
magnitude
joined
summit
insinuations
Judge
thunder
Berwick
tion
##bishop
discover
Exact
bind
Geom
##cc
complicated
grim
JER
agree
intends
##zar
##monds
vous
edit
##angle
Perpet
##DRESS
Cecilia
deferred
Long
occasionally
##ild
commit
Grave
ur
shrill
Nis
conjoin
##riac
Peoples
Permit
Whole
tongues
##abbath
SAT
rebellion
Amph
##loc
Proposition
Besides
broad
Independ
labours
operate
consistent
embarrass
Sus
Duck
##vania
##agogues
introdu
mortifying
fingers
##and
sur
##eney
especial
Mould
monks
##ipe
##ec
corresponds
sound
sess
circums
convin
Brunswick
cent
##[
Prosecution
hor
provision
##olic
submitted
##lant
alludes
coincide
overspread
Disguise
diseases
recom
##$
postle
Deco
gination
##ain
edifice
Reven
##amm
##mas
##outs
##manship
MARCH
substitute
Echo
staring
oar
soon
drank
center
was
censures
Seymour
pable
##inement
Homage
sonal
Arrival
Majest
Lorenzo
##sem
fountains
Apartment
reforming
##get
wrink
functions
##antly
Russel
acknowledgment
undermine
agon
tore
une
##phia
befriend
Leonora
majority
ged
##athe
mayor
##able
Ap
against
distemper
Tincture
Dy
Hung
stable
avowed
confine
##incts
announced
##ishop
1741
enquir
##ancery
communications
flint
##EM
##¶
lain
1747
scorns
Gentiles
aera
sui
abd
coaches
nuns
knave
root
##amount
pistols
crop
dishon
encourag
##antial
Made
traveller
Enter
vill
scrib
Periods
Inj
cu
whereas
prosely
Cas
##antur
bench
matters
detain
regimen
Ecclesiastical
Labourers
foment
session
threescore
ecc
##ὰ
##our
floods
astonishing
merly
appetite
pair
##reshing
sixty
Inno
whimsical
chal
##UMB
bondage
1763
raiment
danced
shaped
tortured
Ches
HARRI
##foot
ni
Muscles
PASS
humor
interv
bodily
Merchants
DEB
creeping
expectations
Follow
Pre
publican
##leus
μ
##iousness
squee
##⌊
shr
warrant
Dissolution
intercession
##alk
Martyrs
End
tools
##use
MAJ
##ATOR
ome
sci
Cole
UN
crouded
arti
cern
testi
##τ
##antick
comfort
##ividual
pill
Presence
botan
Exeunt
candidly
od
abomin
bursting
executioner
##ection
eloquence
Reeves
Man
visions
XXXI
mises
##que
dirt
Wit
##thorn
trou
Deaths
Believer
variegated
fice
stam
##idate
steadily
##anna
Hold
honored
histories
cording
##ivals
separ
rejo
highly
Ec
Pas
##ication
raise
warrior
Aeneid
frivolous
Dolly
ity
treasurer
##AM
falls
steered
tortures
decline
##unciation
army
fulness
##pective
##riel
Rulers
ath
Stick
berry
›
perplexed
masculine
sacrifices
Dic
addicted
136
pluck
catching
##roportion
clust
nish
clauses
univers
Consumption
sedition
committing
Ev
##pin
eyes
ought
##♍
Northampton
Lapland
##ul
whispers
system
Hood
indeed
exterior
gesture
##jeant
CORN
dissolute
fulfil
oh
Ad
hurtful
Herbs
deavour
traversed
CHILDREN
vale
unwarrant
guides
inflam
discernment
Devil
Liqu
##rosy
Word
Wen
Marcus
Medical
Commandments
groans
intox
pries
##^
exe
acceptable
princes
Deceit
subordination
Precepts
quad
Psalm
came
commotions
Nab
amounting
advice
Fluids
Deck
brief
courte
mercil
##umber
apples
nion
##anthropy
distress
crooked
Admiral
gallantry
ain
##any
pleads
##ium
seemed
glorify
disorder
necessitated
centre
Rewards
Stream
Robethon
denomination
thieves
##ertation
white
guarant
Inc
##leness
voted
Stre
tempts
nant
resolve
INTER
sprung
Angles
plank
temporary
levity
stepped
warb
Possession
alarmed
gate
encourages
Saxony
Visitation
##othec
Project
contra
##LISH
cavity
folded
fishermen
##ented
become
##oga
extortion
##cri
rejects
chiefest
satisfie
schools
confederation
##about
manager
##omical
enquiring
complains
Gene
Fir
##IAM
projects
fancies
##ifying
Perdition
unm
##inius
Helm
advanc
Daw
Rog
printed
accommodated
Pract
suppress
impression
##INGS
Counties
##omes
##∣
Pence
appropriated
seals
##atible
Boil
courtier
vestig
jovial
##unct
Ear
usefulness
Requ
##imp
##INT
Wealth
##atio
cheerfully
satire
mainly
granted
vice
Pool
##erland
holes
stirred
obtained
task
Plut
crow
##equ
fence
Soldiers
tea
##bridge
forgotten
Perform
dreadfully
Tully
stedfast
brow
Event
Instance
real
actually
Walls
Plays
expresses
##æ
##ificence
group
Lemon
shal
mire
ē
proclamation
liked
Idle
##by
helps
busied
##ink
silk
##ocr
distressed
Ecclesiast
##orrow
Strabo
applauded
servant
genius
upl
inspiration
ă
Lon
managing
baked
Returning
##icts
vid
Torment
yond
##ems
Reprob
Clo
attention
tyr
##ak
rule
Sweden
##ating
emoluments
approbation
tical
alteration
##ortion
Mortification
cos
engaged
Egyptians
##HN
plies
Teeth
bet
Sci
breasts
##usions
neither
##rod
##racts
Ordination
##ă
singularly
##ulsions
Icel
restor
communities
cry
stupid
Absurdity
pavement
tempore
Fight
recommending
Hum
lumber
deign
signed
workman
Diligence
dissipate
CH
##♭
regards
clothes
Josephus
Certific
##imming
feasts
##cio
##irc
##criptions
Seed
introduces
ridges
##alton
toast
Schools
loss
Syn
Bod
##arf
Horses
##ictions
dressing
Many
famil
league
beseech
Repe
22d
smart
comic
COUR
widely
Spiritual
##ith
##ã
##art
betw
##iers
Influence
##urity
fourteen
##ront
##ro
connex
Aru
Dism
Arbitrary
clean
chagrin
##aver
sq
Tendency
##ai
setting
##IPP
chearfully
respectable
##ablish
revenged
dominions
garment
Cove
god
Born
substant
xxi
thinks
reasons
eminently
disturbed
Integrity
envious
Brutes
FRI
Ordin
licentiousness
carbon
stroke
##reat
movements
obd
Beside
renewing
Delegates
##just
Censures
Conscious
lawns
propagated
tre
Purp
construct
whim
sidering
Poverty
incon
Find
Regard
mercies
spl
suffice
##ek
creatures
ally
##XX
ville
Pharisee
##rog
##IDES
##ALLY
1671
XXIII
1778
Ster
HIS
Vile
Hal
slaughter
Fifteen
training
##atius
##lour
inference
executing
Acqu
depress
FISH
grandfather
combine
Divers
Rebellion
erecting
##atham
Lear
oppressive
sab
Bailey
banners
uttering
##eres
WH
pendence
Prophecy
##anity
##ediate
got
por
Could
repress
contract
coin
serjeant
associ
spawn
wept
gallows
Por
Christs
##RICK
Discont
kne
length
conceiving
fend
Shake
Pipe
robust
##orrh
comforting
##ff
crucified
Superst
SER
##ament
Jonson
hardship
droop
describe
fruitful
sail
rejected
ascertaining
seized
Dexter
Bry
conver
forg
adds
diverted
inexcusable
then
shaking
##JECT
know
ferocity
nevertheless
Tryal
Period
meer
pompous
Aversion
Sey
MOST
Demands
fragrant
##UND
##ailing
##cles
##qui
transparent
intelligible
KING
solic
Flore
Master
Eust
Tides
confederate
solemn
attain
##ilem
Sent
Tribes
presumptuous
##itable
gives
Hill
really
##cht
AMEN
job
Bene
calls
dictated
Ἰ
##EST
##ars
arrested
scre
intemperate
regulations
seasonably
bott
##ren
polluted
Fri
stow
relate
.—
occasions
Collection
enliven
briskly
Weather
spider
moving
barbar
BAY
foreigners
male
Towards
##etch
Nott
mountainous
jealous
##ieth
vague
Commerce
sterling
340
intro
HOR
agre
Pend
##landers
Allies
¦
##occo
raged
constituting
vs
orbit
yearly
##ier
1600
bribed
Knees
chiefs
Theodore
Righteous
conting
digression
##anced
accuse
dere
Ques
##ience
images
Mus
Spr
Disp
CUR
fee
##ATES
##ẋ
ROB
straw
wanted
markup
##ivi
stimulus
visionary
urging
manifestation
##itled
corner
##CHER
##ipped
CT
Enquiry
we
ONE
interpre
##rif
guardians
Addition
deth
rushes
##ENG
ruled
AC
Trim
Wey
lived
gotten
Warrior
Retire
b
Resur
larger
##aming
PAGE
especi
VIS
Mex
Octob
similar
equipage
Shock
obtaining
Aside
##ber
wide
offices
abus
inquir
vapour
fections
Dionysius
Disappointment
ic
Sold
referring
Speeches
##ques
banished
##pture
Allowance
England
expeditions
Sulph
rer
Thebans
dert
materials
##ict
Seneca
remark
repairs
nly
suggested
Liv
Lib
Conversion
humane
anguish
##ATED
Appearance
##vial
Land
armies
purchased
avenue
Comforter
GOV
assure
enmity
throng
Lum
##fts
unfortunately
absurdities
##up
##cra
dal
##WIN
feathers
##vere
venly
ferred
##afe
Monck
ig
Angus
jealousies
##agell
lastly
##edition
##ulity
ginning
Birds
musk
Voyage
joyned
Fry
frugality
Proceeding
##ship
Canterbury
##ult
workings
omitted
besides
arm
His
absurdity
future
##rons
Cumberland
stru
prohibiting
##affold
177
##PS
Effects
Things
Wound
Pto
Pamela
precepts
##ingle
forming
understood
Rheum
##renzy
##AZ
knots
grees
rish
sp
scious
oppressors
Customs
Grandison
Í
cunning
Without
Pillar
Gide
desol
faults
Ê
casting
evidences
Operation
embracing
Precept
dise
##OWN
chi
Fifth
bastard
disclosed
Gardiner
emulation
Example
divest
##ected
viii
unhappy
daunt
testimonies
##ag
##illy
affixed
mischief
Mighty
carry
refus
brim
thereof
20th
adjourn
impel
perf
marshes
parlour
Pries
##icis
Glass
peevish
ungenerous
capacious
Issue
charms
##ibus
accomp
##\
gods
##airs
##ipse
Length
Willis
unconverted
abroad
Sist
conversa
Slavery
Ignatius
attributed
Alexand
leave
##AIR
usage
Over
##umstance
utensils
ruin
salary
bewitching
Stoddard
##n
##ECT
##ignation
##na
council
editions
descends
Discretion
Lodg
##lict
xiii
through
lected
Jem
forsooth
misfortunes
Mon
parties
##her
styled
cultiv
ra
##Η
##SH
Hannover
excludes
inculcate
sha
merciless
urgent
believ
unseen
rudiments
drawing
Real
yet
##ahe
Jo
street
rights
##itations
alledged
brake
governor
endeavored
WIT
te
##astrophe
practicable
asto
cann
purposely
mischievous
Christ
Friend
Scheme
Judicature
##ot
majest
beating
autem
##umnal
Ork
##aic
ANT
##IDA
Emer
strict
volupt
faces
Met
rear
district
##RI
According
##isure
pot
illib
Provinces
present
##cd
Chi
##CY
recip
##cription
crue
OS
undert
262
moisture
##ilty
multip
crazy
vanced
standards
breeze
ultimately
promoting
calm
##ume
Cam
appreh
trib
enquired
ETER
Shore
religi
exchanged
Disciple
CHURCH
Sett
##UBL
hounds
folly
##urate
m
##ibber
Ornament
remaineth
unmeaning
speaketh
munion
sepulch
600
Cowper
ae
heavier
Lex
Terrors
intervals
Comet
brew
Aldermen
collect
conge
Falcon
THOU
phi
[...]
